unsigned char g_model[] = {
  0x1c, 0x00, 0x00, 0x00, 0x54, 0x46, 0x4c, 0x33, 0x00, 0x00, 0x12, 0x00,
  0x1c, 0x00, 0x04, 0x00, 0x08, 0x00, 0x0c, 0x00, 0x10, 0x00, 0x14, 0x00,
  0x00, 0x00, 0x18, 0x00, 0x12, 0x00, 0x00, 0x00, 0x03, 0x00, 0x00, 0x00,
  0xb4, 0x00, 0x00, 0x00, 0xa8, 0x00, 0x00, 0x00, 0x08, 0x01, 0x00, 0x00,
  0x08, 0x00, 0x00, 0x00, 0xb0, 0x00, 0x00, 0x00, 0x25, 0x00, 0x00, 0x00,
  0xa0, 0x24, 0x00, 0x00, 0x9c, 0x24, 0x00, 0x00, 0xc0, 0x23, 0x00, 0x00,
  0x2c, 0x23, 0x00, 0x00, 0xa0, 0x22, 0x00, 0x00, 0x14, 0x22, 0x00, 0x00,
  0x88, 0x21, 0x00, 0x00, 0xfc, 0x20, 0x00, 0x00, 0x70, 0x20, 0x00, 0x00,
  0xe4, 0x1f, 0x00, 0x00, 0x58, 0x1f, 0x00, 0x00, 0xcc, 0x1e, 0x00, 0x00,
  0x60, 0x1e, 0x00, 0x00, 0x58, 0x19, 0x00, 0x00, 0x70, 0x17, 0x00, 0x00,
  0x88, 0x15, 0x00, 0x00, 0xa0, 0x13, 0x00, 0x00, 0xb8, 0x11, 0x00, 0x00,
  0xd0, 0x0f, 0x00, 0x00, 0xe8, 0x0d, 0x00, 0x00, 0x00, 0x0c, 0x00, 0x00,
  0x18, 0x0a, 0x00, 0x00, 0x30, 0x08, 0x00, 0x00, 0x88, 0x07, 0x00, 0x00,
  0x40, 0x24, 0x00, 0x00, 0x3c, 0x24, 0x00, 0x00, 0x38, 0x24, 0x00, 0x00,
  0x34, 0x24, 0x00, 0x00, 0x30, 0x24, 0x00, 0x00, 0x2c, 0x24, 0x00, 0x00,
  0x28, 0x24, 0x00, 0x00, 0x24, 0x24, 0x00, 0x00, 0x20, 0x24, 0x00, 0x00,
  0x1c, 0x24, 0x00, 0x00, 0x18, 0x24, 0x00, 0x00, 0x14, 0x24, 0x00, 0x00,
  0x4c, 0x00, 0x00, 0x00, 0x01, 0x00, 0x00, 0x00, 0x84, 0x00, 0x00, 0x00,
  0x02, 0x00, 0x00, 0x00, 0xf0, 0x06, 0x00, 0x00, 0xb0, 0x01, 0x00, 0x00,
  0x01, 0x00, 0x00, 0x00, 0x0c, 0x00, 0x00, 0x00, 0x08, 0x00, 0x0c, 0x00,
  0x04, 0x00, 0x08, 0x00, 0x08, 0x00, 0x00, 0x00, 0x08, 0x00, 0x00, 0x00,
  0x24, 0x00, 0x00, 0x00, 0x13, 0x00, 0x00, 0x00, 0x6d, 0x69, 0x6e, 0x5f,
  0x72, 0x75, 0x6e, 0x74, 0x69, 0x6d, 0x65, 0x5f, 0x76, 0x65, 0x72, 0x73,
  0x69, 0x6f, 0x6e, 0x00, 0x1a, 0xdd, 0xff, 0xff, 0x04, 0x00, 0x00, 0x00,
  0x10, 0x00, 0x00, 0x00, 0x31, 0x2e, 0x35, 0x2e, 0x30, 0x00, 0x00, 0x00,
  0x00, 0x00, 0x00, 0x00, 0x00, 0x00, 0x00, 0x00, 0x0f, 0x00, 0x00, 0x00,
  0x4d, 0x4c, 0x49, 0x52, 0x20, 0x43, 0x6f, 0x6e, 0x76, 0x65, 0x72, 0x74,
  0x65, 0x64, 0x2e, 0x00, 0x00, 0x00, 0x0e, 0x00, 0x18, 0x00, 0x04, 0x00,
  0x08, 0x00, 0x0c, 0x00, 0x10, 0x00, 0x14, 0x00, 0x0e, 0x00, 0x00, 0x00,
  0x64, 0x00, 0x00, 0x00, 0x58, 0x00, 0x00, 0x00, 0x4c, 0x00, 0x00, 0x00,
  0x14, 0x00, 0x00, 0x00, 0x04, 0x00, 0x00, 0x00, 0x04, 0x00, 0x00, 0x00,
  0x6d, 0x61, 0x69, 0x6e, 0x00, 0x00, 0x00, 0x00, 0x0c, 0x00, 0x00, 0x00,
  0x10, 0x06, 0x00, 0x00, 0x84, 0x05, 0x00, 0x00, 0x08, 0x05, 0x00, 0x00,
  0x8c, 0x04, 0x00, 0x00, 0x10, 0x04, 0x00, 0x00, 0x94, 0x03, 0x00, 0x00,
  0x18, 0x03, 0x00, 0x00, 0x9c, 0x02, 0x00, 0x00, 0x20, 0x02, 0x00, 0x00,
  0xa4, 0x01, 0x00, 0x00, 0x28, 0x01, 0x00, 0x00, 0xb4, 0x00, 0x00, 0x00,
  0x01, 0x00, 0x00, 0x00, 0x22, 0x00, 0x00, 0x00, 0x01, 0x00, 0x00, 0x00,
  0x00, 0x00, 0x00, 0x00, 0x23, 0x00, 0x00, 0x00, 0xdc, 0x22, 0x00, 0x00,
  0x70, 0x22, 0x00, 0x00, 0xdc, 0x21, 0x00, 0x00, 0x50, 0x21, 0x00, 0x00,
  0xc4, 0x20, 0x00, 0x00, 0x38, 0x20, 0x00, 0x00, 0xac, 0x1f, 0x00, 0x00,
  0x20, 0x1f, 0x00, 0x00, 0x94, 0x1e, 0x00, 0x00, 0x08, 0x1e, 0x00, 0x00,
  0x7c, 0x1d, 0x00, 0x00, 0xf0, 0x1c, 0x00, 0x00, 0x90, 0x1c, 0x00, 0x00,
  0x88, 0x17, 0x00, 0x00, 0xa0, 0x15, 0x00, 0x00, 0xb8, 0x13, 0x00, 0x00,
  0xd0, 0x11, 0x00, 0x00, 0xe8, 0x0f, 0x00, 0x00, 0x00, 0x0e, 0x00, 0x00,
  0x18, 0x0c, 0x00, 0x00, 0x30, 0x0a, 0x00, 0x00, 0x48, 0x08, 0x00, 0x00,
  0x60, 0x06, 0x00, 0x00, 0xb8, 0x05, 0x00, 0x00, 0x14, 0x05, 0x00, 0x00,
  0x98, 0x04, 0x00, 0x00, 0x1c, 0x04, 0x00, 0x00, 0xa0, 0x03, 0x00, 0x00,
  0x24, 0x03, 0x00, 0x00, 0xa8, 0x02, 0x00, 0x00, 0x2c, 0x02, 0x00, 0x00,
  0xb0, 0x01, 0x00, 0x00, 0x34, 0x01, 0x00, 0x00, 0xb8, 0x00, 0x00, 0x00,
  0x50, 0x00, 0x00, 0x00, 0x00, 0x00, 0x0e, 0x00, 0x18, 0x00, 0x08, 0x00,
  0x0c, 0x00, 0x10, 0x00, 0x07, 0x00, 0x14, 0x00, 0x0e, 0x00, 0x00, 0x00,
  0x00, 0x00, 0x00, 0x09, 0x01, 0x00, 0x00, 0x00, 0x1c, 0x00, 0x00, 0x00,
  0x10, 0x00, 0x00, 0x00, 0x04, 0x00, 0x00, 0x00, 0x7a, 0xde, 0xff, 0xff,
  0x00, 0x00, 0x80, 0x3f, 0x01, 0x00, 0x00, 0x00, 0x22, 0x00, 0x00, 0x00,
  0x01, 0x00, 0x00, 0x00, 0x21, 0x00, 0x00, 0x00, 0xce, 0xfa, 0xff, 0xff,
  0x00, 0x00, 0x00, 0x19, 0x01, 0x00, 0x00, 0x00, 0x0a, 0xde, 0xff, 0xff,
  0x20, 0x00, 0x00, 0x00, 0x23, 0x00, 0x00, 0x00, 0x08, 0x00, 0x00, 0x00,
  0x20, 0x00, 0x00, 0x00, 0x08, 0x00, 0x00, 0x00, 0x49, 0x64, 0x65, 0x6e,
  0x74, 0x69, 0x74, 0x79, 0x00, 0x00, 0x00, 0x00, 0x02, 0x00, 0x00, 0x00,
  0x01, 0x00, 0x00, 0x00, 0x02, 0x00, 0x00, 0x00, 0xf4, 0xdd, 0xff, 0xff,
  0x4e, 0xfb, 0xff, 0xff, 0x00, 0x00, 0x00, 0x08, 0x18, 0x00, 0x00, 0x00,
  0x0c, 0x00, 0x00, 0x00, 0x04, 0x00, 0x00, 0x00, 0x0c, 0xde, 0xff, 0xff,
  0x01, 0x00, 0x00, 0x00, 0x21, 0x00, 0x00, 0x00, 0x03, 0x00, 0x00, 0x00,
  0x20, 0x00, 0x00, 0x00, 0x16, 0x00, 0x00, 0x00, 0x0b, 0x00, 0x00, 0x00,
  0x6e, 0xde, 0xff, 0xff, 0x34, 0x00, 0x00, 0x00, 0x22, 0x00, 0x00, 0x00,
  0x08, 0x00, 0x00, 0x00, 0x34, 0x00, 0x00, 0x00, 0x1f, 0x00, 0x00, 0x00,
  0x73, 0x65, 0x71, 0x75, 0x65, 0x6e, 0x74, 0x69, 0x61, 0x6c, 0x5f, 0x35,
  0x37, 0x2f, 0x64, 0x65, 0x6e, 0x73, 0x65, 0x5f, 0x32, 0x39, 0x30, 0x2f,
  0x42, 0x69, 0x61, 0x73, 0x41, 0x64, 0x64, 0x00, 0x02, 0x00, 0x00, 0x00,
  0x01, 0x00, 0x00, 0x00, 0x02, 0x00, 0x00, 0x00, 0x6c, 0xde, 0xff, 0xff,
  0xc6, 0xfb, 0xff, 0xff, 0x00, 0x00, 0x00, 0x08, 0x18, 0x00, 0x00, 0x00,
  0x0c, 0x00, 0x00, 0x00, 0x04, 0x00, 0x00, 0x00, 0x84, 0xde, 0xff, 0xff,
  0x01, 0x00, 0x00, 0x00, 0x20, 0x00, 0x00, 0x00, 0x03, 0x00, 0x00, 0x00,
  0x1f, 0x00, 0x00, 0x00, 0x15, 0x00, 0x00, 0x00, 0x0a, 0x00, 0x00, 0x00,
  0xe6, 0xde, 0xff, 0xff, 0x34, 0x00, 0x00, 0x00, 0x21, 0x00, 0x00, 0x00,
  0x08, 0x00, 0x00, 0x00, 0x34, 0x00, 0x00, 0x00, 0x1f, 0x00, 0x00, 0x00,
  0x73, 0x65, 0x71, 0x75, 0x65, 0x6e, 0x74, 0x69, 0x61, 0x6c, 0x5f, 0x35,
  0x37, 0x2f, 0x64, 0x65, 0x6e, 0x73, 0x65, 0x5f, 0x32, 0x38, 0x39, 0x2f,
  0x42, 0x69, 0x61, 0x73, 0x41, 0x64, 0x64, 0x00, 0x02, 0x00, 0x00, 0x00,
  0x01, 0x00, 0x00, 0x00, 0x0a, 0x00, 0x00, 0x00, 0xe4, 0xde, 0xff, 0xff,
  0x3e, 0xfc, 0xff, 0xff, 0x00, 0x00, 0x00, 0x08, 0x18, 0x00, 0x00, 0x00,
  0x0c, 0x00, 0x00, 0x00, 0x04, 0x00, 0x00, 0x00, 0xfc, 0xde, 0xff, 0xff,
  0x01, 0x00, 0x00, 0x00, 0x1f, 0x00, 0x00, 0x00, 0x03, 0x00, 0x00, 0x00,
  0x1e, 0x00, 0x00, 0x00, 0x14, 0x00, 0x00, 0x00, 0x09, 0x00, 0x00, 0x00,
  0x5e, 0xdf, 0xff, 0xff, 0x34, 0x00, 0x00, 0x00, 0x20, 0x00, 0x00, 0x00,
  0x08, 0x00, 0x00, 0x00, 0x34, 0x00, 0x00, 0x00, 0x1f, 0x00, 0x00, 0x00,
  0x73, 0x65, 0x71, 0x75, 0x65, 0x6e, 0x74, 0x69, 0x61, 0x6c, 0x5f, 0x35,
  0x37, 0x2f, 0x64, 0x65, 0x6e, 0x73, 0x65, 0x5f, 0x32, 0x38, 0x38, 0x2f,
  0x42, 0x69, 0x61, 0x73, 0x41, 0x64, 0x64, 0x00, 0x02, 0x00, 0x00, 0x00,
  0x01, 0x00, 0x00, 0x00, 0x0a, 0x00, 0x00, 0x00, 0x5c, 0xdf, 0xff, 0xff,
  0xb6, 0xfc, 0xff, 0xff, 0x00, 0x00, 0x00, 0x08, 0x18, 0x00, 0x00, 0x00,
  0x0c, 0x00, 0x00, 0x00, 0x04, 0x00, 0x00, 0x00, 0x74, 0xdf, 0xff, 0xff,
  0x01, 0x00, 0x00, 0x00, 0x1e, 0x00, 0x00, 0x00, 0x03, 0x00, 0x00, 0x00,
  0x1d, 0x00, 0x00, 0x00, 0x13, 0x00, 0x00, 0x00, 0x08, 0x00, 0x00, 0x00,
  0xd6, 0xdf, 0xff, 0xff, 0x34, 0x00, 0x00, 0x00, 0x1f, 0x00, 0x00, 0x00,
  0x08, 0x00, 0x00, 0x00, 0x34, 0x00, 0x00, 0x00, 0x1f, 0x00, 0x00, 0x00,
  0x73, 0x65, 0x71, 0x75, 0x65, 0x6e, 0x74, 0x69, 0x61, 0x6c, 0x5f, 0x35,
  0x37, 0x2f, 0x64, 0x65, 0x6e, 0x73, 0x65, 0x5f, 0x32, 0x38, 0x37, 0x2f,
  0x42, 0x69, 0x61, 0x73, 0x41, 0x64, 0x64, 0x00, 0x02, 0x00, 0x00, 0x00,
  0x01, 0x00, 0x00, 0x00, 0x0a, 0x00, 0x00, 0x00, 0xd4, 0xdf, 0xff, 0xff,
  0x2e, 0xfd, 0xff, 0xff, 0x00, 0x00, 0x00, 0x08, 0x18, 0x00, 0x00, 0x00,
  0x0c, 0x00, 0x00, 0x00, 0x04, 0x00, 0x00, 0x00, 0xec, 0xdf, 0xff, 0xff,
  0x01, 0x00, 0x00, 0x00, 0x1d, 0x00, 0x00, 0x00, 0x03, 0x00, 0x00, 0x00,
  0x1c, 0x00, 0x00, 0x00, 0x12, 0x00, 0x00, 0x00, 0x07, 0x00, 0x00, 0x00,
  0x4e, 0xe0, 0xff, 0xff, 0x34, 0x00, 0x00, 0x00, 0x1e, 0x00, 0x00, 0x00,
  0x08, 0x00, 0x00, 0x00, 0x34, 0x00, 0x00, 0x00, 0x1f, 0x00, 0x00, 0x00,
  0x73, 0x65, 0x71, 0x75, 0x65, 0x6e, 0x74, 0x69, 0x61, 0x6c, 0x5f, 0x35,
  0x37, 0x2f, 0x64, 0x65, 0x6e, 0x73, 0x65, 0x5f, 0x32, 0x38, 0x36, 0x2f,
  0x42, 0x69, 0x61, 0x73, 0x41, 0x64, 0x64, 0x00, 0x02, 0x00, 0x00, 0x00,
  0x01, 0x00, 0x00, 0x00, 0x0a, 0x00, 0x00, 0x00, 0x4c, 0xe0, 0xff, 0xff,
  0xa6, 0xfd, 0xff, 0xff, 0x00, 0x00, 0x00, 0x08, 0x18, 0x00, 0x00, 0x00,
  0x0c, 0x00, 0x00, 0x00, 0x04, 0x00, 0x00, 0x00, 0x64, 0xe0, 0xff, 0xff,
  0x01, 0x00, 0x00, 0x00, 0x1c, 0x00, 0x00, 0x00, 0x03, 0x00, 0x00, 0x00,
  0x1b, 0x00, 0x00, 0x00, 0x11, 0x00, 0x00, 0x00, 0x06, 0x00, 0x00, 0x00,
  0xc6, 0xe0, 0xff, 0xff, 0x34, 0x00, 0x00, 0x00, 0x1d, 0x00, 0x00, 0x00,
  0x08, 0x00, 0x00, 0x00, 0x34, 0x00, 0x00, 0x00, 0x1f, 0x00, 0x00, 0x00,
  0x73, 0x65, 0x71, 0x75, 0x65, 0x6e, 0x74, 0x69, 0x61, 0x6c, 0x5f, 0x35,
  0x37, 0x2f, 0x64, 0x65, 0x6e, 0x73, 0x65, 0x5f, 0x32, 0x38, 0x35, 0x2f,
  0x42, 0x69, 0x61, 0x73, 0x41, 0x64, 0x64, 0x00, 0x02, 0x00, 0x00, 0x00,
  0x01, 0x00, 0x00, 0x00, 0x0a, 0x00, 0x00, 0x00, 0xc4, 0xe0, 0xff, 0xff,
  0x1e, 0xfe, 0xff, 0xff, 0x00, 0x00, 0x00, 0x08, 0x18, 0x00, 0x00, 0x00,
  0x0c, 0x00, 0x00, 0x00, 0x04, 0x00, 0x00, 0x00, 0xdc, 0xe0, 0xff, 0xff,
  0x01, 0x00, 0x00, 0x00, 0x1b, 0x00, 0x00, 0x00, 0x03, 0x00, 0x00, 0x00,
  0x1a, 0x00, 0x00, 0x00, 0x10, 0x00, 0x00, 0x00, 0x05, 0x00, 0x00, 0x00,
  0x3e, 0xe1, 0xff, 0xff, 0x34, 0x00, 0x00, 0x00, 0x1c, 0x00, 0x00, 0x00,
  0x08, 0x00, 0x00, 0x00, 0x34, 0x00, 0x00, 0x00, 0x1f, 0x00, 0x00, 0x00,
  0x73, 0x65, 0x71, 0x75, 0x65, 0x6e, 0x74, 0x69, 0x61, 0x6c, 0x5f, 0x35,
  0x37, 0x2f, 0x64, 0x65, 0x6e, 0x73, 0x65, 0x5f, 0x32, 0x38, 0x34, 0x2f,
  0x42, 0x69, 0x61, 0x73, 0x41, 0x64, 0x64, 0x00, 0x02, 0x00, 0x00, 0x00,
  0x01, 0x00, 0x00, 0x00, 0x0a, 0x00, 0x00, 0x00, 0x3c, 0xe1, 0xff, 0xff,
  0x96, 0xfe, 0xff, 0xff, 0x00, 0x00, 0x00, 0x08, 0x18, 0x00, 0x00, 0x00,
  0x0c, 0x00, 0x00, 0x00, 0x04, 0x00, 0x00, 0x00, 0x54, 0xe1, 0xff, 0xff,
  0x01, 0x00, 0x00, 0x00, 0x1a, 0x00, 0x00, 0x00, 0x03, 0x00, 0x00, 0x00,
  0x19, 0x00, 0x00, 0x00, 0x0f, 0x00, 0x00, 0x00, 0x04, 0x00, 0x00, 0x00,
  0xb6, 0xe1, 0xff, 0xff, 0x34, 0x00, 0x00, 0x00, 0x1b, 0x00, 0x00, 0x00,
  0x08, 0x00, 0x00, 0x00, 0x34, 0x00, 0x00, 0x00, 0x1f, 0x00, 0x00, 0x00,
  0x73, 0x65, 0x71, 0x75, 0x65, 0x6e, 0x74, 0x69, 0x61, 0x6c, 0x5f, 0x35,
  0x37, 0x2f, 0x64, 0x65, 0x6e, 0x73, 0x65, 0x5f, 0x32, 0x38, 0x33, 0x2f,
  0x42, 0x69, 0x61, 0x73, 0x41, 0x64, 0x64, 0x00, 0x02, 0x00, 0x00, 0x00,
  0x01, 0x00, 0x00, 0x00, 0x0a, 0x00, 0x00, 0x00, 0xb4, 0xe1, 0xff, 0xff,
  0x0e, 0xff, 0xff, 0xff, 0x00, 0x00, 0x00, 0x08, 0x18, 0x00, 0x00, 0x00,
  0x0c, 0x00, 0x00, 0x00, 0x04, 0x00, 0x00, 0x00, 0xcc, 0xe1, 0xff, 0xff,
  0x01, 0x00, 0x00, 0x00, 0x19, 0x00, 0x00, 0x00, 0x03, 0x00, 0x00, 0x00,
  0x18, 0x00, 0x00, 0x00, 0x0e, 0x00, 0x00, 0x00, 0x03, 0x00, 0x00, 0x00,
  0x2e, 0xe2, 0xff, 0xff, 0x34, 0x00, 0x00, 0x00, 0x1a, 0x00, 0x00, 0x00,
  0x08, 0x00, 0x00, 0x00, 0x34, 0x00, 0x00, 0x00, 0x1f, 0x00, 0x00, 0x00,
  0x73, 0x65, 0x71, 0x75, 0x65, 0x6e, 0x74, 0x69, 0x61, 0x6c, 0x5f, 0x35,
  0x37, 0x2f, 0x64, 0x65, 0x6e, 0x73, 0x65, 0x5f, 0x32, 0x38, 0x32, 0x2f,
  0x42, 0x69, 0x61, 0x73, 0x41, 0x64, 0x64, 0x00, 0x02, 0x00, 0x00, 0x00,
  0x01, 0x00, 0x00, 0x00, 0x0a, 0x00, 0x00, 0x00, 0x2c, 0xe2, 0xff, 0xff,
  0x86, 0xff, 0xff, 0xff, 0x00, 0x00, 0x00, 0x08, 0x18, 0x00, 0x00, 0x00,
  0x0c, 0x00, 0x00, 0x00, 0x04, 0x00, 0x00, 0x00, 0x44, 0xe2, 0xff, 0xff,
  0x01, 0x00, 0x00, 0x00, 0x18, 0x00, 0x00, 0x00, 0x03, 0x00, 0x00, 0x00,
  0x17, 0x00, 0x00, 0x00, 0x0d, 0x00, 0x00, 0x00, 0x02, 0x00, 0x00, 0x00,
  0xa6, 0xe2, 0xff, 0xff, 0x34, 0x00, 0x00, 0x00, 0x19, 0x00, 0x00, 0x00,
  0x08, 0x00, 0x00, 0x00, 0x34, 0x00, 0x00, 0x00, 0x1f, 0x00, 0x00, 0x00,
  0x73, 0x65, 0x71, 0x75, 0x65, 0x6e, 0x74, 0x69, 0x61, 0x6c, 0x5f, 0x35,
  0x37, 0x2f, 0x64, 0x65, 0x6e, 0x73, 0x65, 0x5f, 0x32, 0x38, 0x31, 0x2f,
  0x42, 0x69, 0x61, 0x73, 0x41, 0x64, 0x64, 0x00, 0x02, 0x00, 0x00, 0x00,
  0x01, 0x00, 0x00, 0x00, 0x0a, 0x00, 0x00, 0x00, 0xf4, 0xe2, 0xff, 0xff,
  0x00, 0x00, 0x0e, 0x00, 0x14, 0x00, 0x00, 0x00, 0x08, 0x00, 0x0c, 0x00,
  0x07, 0x00, 0x10, 0x00, 0x0e, 0x00, 0x00, 0x00, 0x00, 0x00, 0x00, 0x08,
  0x18, 0x00, 0x00, 0x00, 0x0c, 0x00, 0x00, 0x00, 0x04, 0x00, 0x00, 0x00,
  0xcc, 0xe2, 0xff, 0xff, 0x01, 0x00, 0x00, 0x00, 0x17, 0x00, 0x00, 0x00,
  0x03, 0x00, 0x00, 0x00, 0x00, 0x00, 0x00, 0x00, 0x0c, 0x00, 0x00, 0x00,
  0x01, 0x00, 0x00, 0x00, 0x00, 0x00, 0x0a, 0x00, 0x0c, 0x00, 0x07, 0x00,
  0x00, 0x00, 0x08, 0x00, 0x0a, 0x00, 0x00, 0x00, 0x00, 0x00, 0x00, 0x09,
  0x01, 0x00, 0x00, 0x00, 0x46, 0xe3, 0xff, 0xff, 0x34, 0x00, 0x00, 0x00,
  0x18, 0x00, 0x00, 0x00, 0x08, 0x00, 0x00, 0x00, 0x34, 0x00, 0x00, 0x00,
  0x1f, 0x00, 0x00, 0x00, 0x73, 0x65, 0x71, 0x75, 0x65, 0x6e, 0x74, 0x69,
  0x61, 0x6c, 0x5f, 0x35, 0x37, 0x2f, 0x64, 0x65, 0x6e, 0x73, 0x65, 0x5f,
  0x32, 0x38, 0x30, 0x2f, 0x42, 0x69, 0x61, 0x73, 0x41, 0x64, 0x64, 0x00,
  0x02, 0x00, 0x00, 0x00, 0x01, 0x00, 0x00, 0x00, 0x0a, 0x00, 0x00, 0x00,
  0x44, 0xe3, 0xff, 0xff, 0x22, 0xe4, 0xff, 0xff, 0x04, 0x00, 0x00, 0x00,
  0x50, 0x00, 0x00, 0x00, 0x08, 0xa5, 0x34, 0x3e, 0xd6, 0xcd, 0xed, 0xbe,
  0x22, 0x07, 0x04, 0xbf, 0x16, 0x97, 0x21, 0x3f, 0xa0, 0xca, 0x6f, 0xbe,
  0xe8, 0xd9, 0xfd, 0xbe, 0xb8, 0xed, 0xc4, 0x3c, 0x10, 0x2e, 0xcb, 0x3e,
  0x09, 0xb3, 0xaf, 0x3e, 0x6c, 0x70, 0x15, 0xbf, 0xde, 0x4a, 0xac, 0x3d,
  0xef, 0xe8, 0x43, 0x3e, 0xd5, 0xec, 0xcd, 0x3d, 0x19, 0x9f, 0x03, 0xbf,
  0x24, 0x6e, 0xf5, 0x3d, 0xe9, 0x4a, 0x21, 0x3f, 0xf0, 0x62, 0x4a, 0xbe,
  0xc9, 0xbb, 0x1b, 0xbf, 0x03, 0x83, 0xee, 0x3e, 0x8e, 0xdc, 0x51, 0xbd,
  0xea, 0xe3, 0xff, 0xff, 0x34, 0x00, 0x00, 0x00, 0x17, 0x00, 0x00, 0x00,
  0x08, 0x00, 0x00, 0x00, 0x34, 0x00, 0x00, 0x00, 0x1e, 0x00, 0x00, 0x00,
  0x73, 0x65, 0x71, 0x75, 0x65, 0x6e, 0x74, 0x69, 0x61, 0x6c, 0x5f, 0x35,
  0x37, 0x2f, 0x64, 0x65, 0x6e, 0x73, 0x65, 0x5f, 0x32, 0x39, 0x30, 0x2f,
  0x4d, 0x61, 0x74, 0x4d, 0x75, 0x6c, 0x00, 0x00, 0x02, 0x00, 0x00, 0x00,
  0x02, 0x00, 0x00, 0x00, 0x0a, 0x00, 0x00, 0x00, 0xe8, 0xe3, 0xff, 0xff,
  0xc6, 0xe4, 0xff, 0xff, 0x04, 0x00, 0x00, 0x00, 0x90, 0x01, 0x00, 0x00,
  0xa2, 0x3d, 0xca, 0xbe, 0x4b, 0xdb, 0xd3, 0xbe, 0x8f, 0xfa, 0xe5, 0xbe,
  0x3a, 0x3b, 0xff, 0x3e, 0xbf, 0x31, 0xe4, 0x3e, 0xa2, 0xe2, 0x9e, 0x3e,
  0xa2, 0x96, 0xff, 0x3e, 0x9e, 0xba, 0x3b, 0x3e, 0xbe, 0x51, 0xa4, 0xbe,
  0x8f, 0x47, 0xad, 0x3e, 0xe5, 0xce, 0xa7, 0x3e, 0x0c, 0xb7, 0x59, 0xbe,
  0x5b, 0x9b, 0x0b, 0x3e, 0xb6, 0x60, 0x01, 0xbf, 0xa4, 0xc4, 0x94, 0xbe,
  0x1a, 0x65, 0x64, 0x3e, 0x1b, 0xa0, 0xbf, 0xbe, 0xac, 0xab, 0xc2, 0xbe,
  0x9a, 0x1a, 0xe0, 0xbc, 0x27, 0xaf, 0xd0, 0xbd, 0xed, 0x1a, 0xeb, 0xbe,
  0xbc, 0x72, 0x2c, 0x3e, 0xaf, 0x85, 0x86, 0xbe, 0x5d, 0x4d, 0x0b, 0x3f,
  0xab, 0x4b, 0x06, 0x3f, 0x5f, 0x41, 0xcc, 0xbe, 0xc1, 0xee, 0xdf, 0xbe,
  0x02, 0x61, 0x85, 0xbe, 0x98, 0x25, 0xd5, 0x3e, 0xda, 0x25, 0x91, 0x3d,
  0x14, 0x8b, 0x08, 0xbe, 0xcb, 0xf7, 0xef, 0xbe, 0xea, 0x6a, 0x9f, 0x3d,
  0xb7, 0x52, 0x91, 0x3e, 0x47, 0xde, 0xdd, 0x3e, 0x8f, 0xa9, 0x2b, 0xbe,
  0x03, 0xae, 0xb6, 0xbe, 0xae, 0x92, 0xf8, 0xbd, 0x86, 0xe2, 0xa7, 0xbe,
  0x54, 0x3c, 0x77, 0xbe, 0xdf, 0xc4, 0x82, 0xbd, 0x18, 0xfa, 0xf9, 0x3e,
  0xeb, 0xa0, 0x21, 0xbe, 0xf5, 0xf1, 0xd6, 0xbe, 0xad, 0x47, 0xa3, 0xbd,
  0x88, 0x07, 0x84, 0xbe, 0xde, 0x1f, 0xb3, 0x3e, 0xdd, 0xdd, 0x82, 0xbe,
  0x75, 0xdb, 0x03, 0x3f, 0x61, 0x48, 0xca, 0x3e, 0x57, 0xd8, 0x94, 0xbe,
  0x7b, 0x59, 0xef, 0xbd, 0xc7, 0x23, 0xdf, 0xbe, 0xef, 0xe1, 0xa3, 0x3d,
  0xe7, 0x17, 0x5b, 0xbe, 0x6f, 0x12, 0xe9, 0x3e, 0xce, 0x8c, 0xf1, 0x3e,
  0xae, 0xe1, 0xaf, 0xbe, 0x6b, 0x94, 0xcd, 0x3e, 0xd4, 0x37, 0xf0, 0x3d,
  0xf9, 0x36, 0xd0, 0x3e, 0x72, 0x72, 0xd2, 0x3e, 0xf1, 0xad, 0xc7, 0xbe,
  0x2f, 0x0c, 0x98, 0x3d, 0xef, 0x1a, 0x32, 0x3e, 0xfc, 0x2a, 0x6a, 0x3d,
  0x56, 0x85, 0x67, 0xbe, 0xf8, 0xce, 0xe8, 0xbd, 0x85, 0xb1, 0x8f, 0x3e,
  0x92, 0x58, 0xb7, 0x3e, 0x77, 0x7f, 0xcd, 0xbe, 0xfc, 0x63, 0xcc, 0xbe,
  0x2a, 0x56, 0xf3, 0x3e, 0xbd, 0x22, 0xbf, 0x3d, 0x59, 0xbb, 0x1b, 0xbe,
  0x94, 0x5e, 0xe1, 0x3e, 0xc9, 0x94, 0xac, 0x3e, 0xb6, 0x49, 0xd8, 0x3d,
  0x3a, 0x53, 0x8d, 0x3e, 0x63, 0xd1, 0x9c, 0xbe, 0x92, 0xd7, 0xcf, 0x3e,
  0x5c, 0x57, 0x4c, 0xbe, 0x92, 0xb0, 0x0a, 0x3f, 0xe5, 0x7b, 0xce, 0x3e,
  0x0d, 0x85, 0x87, 0xbe, 0xe9, 0x39, 0x97, 0x3e, 0xc7, 0x45, 0xe0, 0x3e,
  0xbf, 0x9c, 0xef, 0x3e, 0x25, 0x8d, 0x08, 0xbf, 0x0f, 0x85, 0x57, 0xbe,
  0xa0, 0xde, 0xf6, 0xbd, 0xa4, 0xdd, 0x10, 0xbe, 0x8f, 0xce, 0x82, 0x3e,
  0x51, 0xfd, 0x7b, 0xbd, 0x80, 0x46, 0xd1, 0x3e, 0x4a, 0x54, 0x08, 0x3e,
  0x4d, 0x24, 0xaa, 0xbe, 0x5c, 0x57, 0xc1, 0xbc, 0x7e, 0xbe, 0x04, 0xbe,
  0xac, 0x5f, 0xf1, 0xbe, 0xce, 0xe5, 0xff, 0xff, 0x34, 0x00, 0x00, 0x00,
  0x16, 0x00, 0x00, 0x00, 0x08, 0x00, 0x00, 0x00, 0x34, 0x00, 0x00, 0x00,
  0x1e, 0x00, 0x00, 0x00, 0x73, 0x65, 0x71, 0x75, 0x65, 0x6e, 0x74, 0x69,
  0x61, 0x6c, 0x5f, 0x35, 0x37, 0x2f, 0x64, 0x65, 0x6e, 0x73, 0x65, 0x5f,
  0x32, 0x38, 0x39, 0x2f, 0x4d, 0x61, 0x74, 0x4d, 0x75, 0x6c, 0x00, 0x00,
  0x02, 0x00, 0x00, 0x00, 0x0a, 0x00, 0x00, 0x00, 0x0a, 0x00, 0x00, 0x00,
  0xcc, 0xe5, 0xff, 0xff, 0xaa, 0xe6, 0xff, 0xff, 0x04, 0x00, 0x00, 0x00,
  0x90, 0x01, 0x00, 0x00, 0xf2, 0x11, 0xe0, 0xbe, 0x79, 0xee, 0xb8, 0xbd,
  0xdf, 0xda, 0xce, 0x3e, 0xc7, 0xdc, 0xcc, 0xbe, 0x79, 0xe7, 0x9f, 0x3d,
  0xfd, 0xf2, 0x08, 0x3f, 0x57, 0x66, 0x44, 0xbe, 0xb5, 0xfa, 0x00, 0xbf,
  0xd7, 0xb0, 0x0f, 0xbd, 0x8d, 0x81, 0x0b, 0xbe, 0x23, 0xa8, 0xd2, 0xbe,
  0xc3, 0x64, 0x75, 0x3e, 0xdd, 0xde, 0x86, 0x3e, 0xd3, 0xed, 0x83, 0x3e,
  0x35, 0x38, 0xd4, 0x3e, 0xda, 0xcb, 0xef, 0xbe, 0x3e, 0x7c, 0xfd, 0xbd,
  0x3b, 0xa8, 0x23, 0x3e, 0x9b, 0x08, 0xd5, 0x3e, 0xfe, 0xb1, 0x09, 0x3f,
  0x6b, 0xaa, 0xe8, 0xbe, 0x56, 0xcb, 0xc7, 0x3e, 0x84, 0x7b, 0x5c, 0x3d,
  0x3a, 0x86, 0x7e, 0x3e, 0x77, 0x47, 0x67, 0x3e, 0xba, 0x52, 0xa1, 0x3e,
  0xac, 0x8f, 0x04, 0x3f, 0x21, 0xa9, 0xdd, 0x3e, 0x19, 0x4d, 0x06, 0xbf,
  0xd1, 0x04, 0x5d, 0x3e, 0xc1, 0x3c, 0xa5, 0x3d, 0x78, 0x66, 0xfb, 0xbc,
  0xe4, 0x90, 0xb5, 0x3e, 0x34, 0x4e, 0xeb, 0xbd, 0xbe, 0x39, 0xf7, 0x3e,
  0x2a, 0x42, 0xd1, 0x3e, 0x89, 0x05, 0xf0, 0x3e, 0xb5, 0xea, 0xe0, 0xbe,
  0x3f, 0x14, 0x74, 0x3d, 0x3c, 0x80, 0x34, 0xbe, 0x54, 0x83, 0x41, 0xbc,
  0x3d, 0xa4, 0x4b, 0xbe, 0x33, 0x83, 0x2a, 0xbc, 0xff, 0x2d, 0xd2, 0x3e,
  0x79, 0xd3, 0xf7, 0xbe, 0x7d, 0x4d, 0x9f, 0x3e, 0x6b, 0xf9, 0xa1, 0xbe,
  0xf1, 0xcf, 0xd7, 0xbe, 0xda, 0x87, 0x09, 0xbe, 0xce, 0xa0, 0xc5, 0x3c,
  0x41, 0x06, 0x01, 0x3f, 0xa8, 0x2c, 0xb0, 0x3d, 0x63, 0xb9, 0xf7, 0x3e,
  0x44, 0x02, 0x02, 0x3a, 0x61, 0xac, 0xea, 0x3d, 0x02, 0xb2, 0xf2, 0x3e,
  0x66, 0xfd, 0x8c, 0xbe, 0x08, 0x33, 0xfa, 0x3e, 0xde, 0xe4, 0xe0, 0x3e,
  0xad, 0xa7, 0x05, 0xbf, 0x2a, 0xcb, 0x00, 0x3f, 0x56, 0x5b, 0x81, 0x3e,
  0xd8, 0x2b, 0x8d, 0x3e, 0x36, 0x5c, 0xe4, 0x3d, 0x59, 0x4d, 0x00, 0x3e,
  0x65, 0x5f, 0x06, 0xbf, 0xa5, 0xa6, 0x99, 0xbe, 0x82, 0x35, 0x04, 0x3f,
  0x88, 0xc2, 0xf8, 0xbe, 0xf3, 0x8e, 0xcb, 0x3e, 0xc9, 0x59, 0xb8, 0xbe,
  0xff, 0xe7, 0x39, 0xbe, 0x8a, 0xb5, 0x4e, 0xbc, 0x10, 0x63, 0xf0, 0x3e,
  0xe6, 0x24, 0x8c, 0x3e, 0x50, 0x7f, 0x0b, 0x3f, 0xc9, 0x3a, 0xb1, 0x3e,
  0xc2, 0x74, 0x4a, 0xbe, 0x9d, 0x86, 0x05, 0xbf, 0xa9, 0xbd, 0x95, 0xbe,
  0x51, 0x90, 0x88, 0xbe, 0x3e, 0x9a, 0xc6, 0x3e, 0xd4, 0xf5, 0x8a, 0xbd,
  0x63, 0xe7, 0xbd, 0xbe, 0x66, 0xbf, 0x3a, 0xbd, 0x48, 0xb5, 0x75, 0x3e,
  0x84, 0xa6, 0xfa, 0x3c, 0x82, 0x89, 0x31, 0x3e, 0x68, 0x73, 0xec, 0xbe,
  0xe6, 0x69, 0xc0, 0x3e, 0xba, 0x10, 0x8d, 0xbe, 0x7e, 0xcc, 0x83, 0xbe,
  0x1a, 0x48, 0xb8, 0xbc, 0xba, 0x4d, 0xfe, 0xbe, 0xa8, 0xde, 0x04, 0x3f,
  0x20, 0xb0, 0xac, 0x3e, 0x6e, 0x7f, 0x02, 0x3f, 0xaf, 0xc8, 0x80, 0x3e,
  0x4c, 0x5b, 0x8c, 0x3e, 0x0a, 0x2c, 0xae, 0xbe, 0xb2, 0xe7, 0xff, 0xff,
  0x34, 0x00, 0x00, 0x00, 0x15, 0x00, 0x00, 0x00, 0x08, 0x00, 0x00, 0x00,
  0x34, 0x00, 0x00, 0x00, 0x1e, 0x00, 0x00, 0x00, 0x73, 0x65, 0x71, 0x75,
  0x65, 0x6e, 0x74, 0x69, 0x61, 0x6c, 0x5f, 0x35, 0x37, 0x2f, 0x64, 0x65,
  0x6e, 0x73, 0x65, 0x5f, 0x32, 0x38, 0x38, 0x2f, 0x4d, 0x61, 0x74, 0x4d,
  0x75, 0x6c, 0x00, 0x00, 0x02, 0x00, 0x00, 0x00, 0x0a, 0x00, 0x00, 0x00,
  0x0a, 0x00, 0x00, 0x00, 0xb0, 0xe7, 0xff, 0xff, 0x8e, 0xe8, 0xff, 0xff,
  0x04, 0x00, 0x00, 0x00, 0x90, 0x01, 0x00, 0x00, 0xb9, 0x18, 0x9e, 0xbe,
  0xb6, 0x2b, 0xf7, 0x3e, 0x7f, 0x10, 0xfc, 0x3e, 0xf6, 0xff, 0x77, 0x3d,
  0xda, 0x2b, 0x2f, 0x3e, 0xd7, 0x7f, 0xaa, 0x3e, 0xdd, 0x61, 0x02, 0x3f,
  0x7a, 0x0e, 0x3d, 0x3e, 0xd4, 0xd8, 0x18, 0x3e, 0x7c, 0x2a, 0xa9, 0xbd,
  0x77, 0x97, 0x4a, 0xbd, 0x9e, 0x2a, 0x08, 0xbf, 0xfe, 0x5a, 0x8a, 0x3e,
  0x1f, 0x62, 0x90, 0x3e, 0x0c, 0x5a, 0x96, 0xbd, 0xdf, 0x6b, 0x65, 0x3e,
  0x91, 0xcc, 0x95, 0x3d, 0x91, 0x9e, 0x89, 0x3d, 0x6c, 0xea, 0x84, 0x3e,
  0x22, 0x8f, 0xe4, 0xbd, 0x62, 0xe4, 0x9a, 0xbe, 0x9b, 0x62, 0x87, 0x3d,
  0x0e, 0xa5, 0x94, 0xbc, 0xd1, 0x63, 0x03, 0xbe, 0x00, 0x3c, 0x39, 0xbd,
  0x3c, 0xa7, 0xcf, 0x3e, 0x6f, 0x31, 0xc7, 0x3e, 0xa3, 0x41, 0x34, 0x3e,
  0xfb, 0xd6, 0xe9, 0xbe, 0x1b, 0x5c, 0xce, 0xbe, 0x47, 0x6e, 0xd8, 0x3d,
  0x9d, 0xde, 0x1f, 0x3d, 0x92, 0x3f, 0xc1, 0x3d, 0x8d, 0x10, 0xfe, 0x3d,
  0xd6, 0x13, 0xc4, 0xbe, 0x2c, 0xc4, 0xe0, 0xbe, 0xb3, 0xa2, 0xd3, 0xbe,
  0x77, 0x30, 0x14, 0x3e, 0x5d, 0x6c, 0x63, 0x3d, 0x07, 0x94, 0xb3, 0x3e,
  0xa6, 0xac, 0xd5, 0xbe, 0xef, 0xc5, 0xa1, 0x3e, 0x13, 0xd5, 0x06, 0x3d,
  0x2f, 0xcc, 0x09, 0x3f, 0x4e, 0xdd, 0xcf, 0x3d, 0x79, 0x82, 0xb2, 0xbe,
  0xfb, 0x70, 0x88, 0x3e, 0xca, 0x01, 0x07, 0xbd, 0x14, 0x6e, 0x75, 0xbe,
  0x75, 0xce, 0xf9, 0xbd, 0x87, 0x6a, 0x62, 0xbe, 0x58, 0xb6, 0xbf, 0xbe,
  0x27, 0x64, 0xf6, 0xbe, 0x8e, 0xcf, 0x56, 0xbd, 0xf0, 0xd4, 0xe3, 0x3e,
  0x50, 0x9e, 0xef, 0xbe, 0x52, 0x83, 0x7b, 0xbe, 0x00, 0x1b, 0x84, 0x3b,
  0x3b, 0x47, 0x03, 0xbf, 0x4f, 0xe6, 0xb9, 0xbd, 0xf6, 0x41, 0xfe, 0x3d,
  0x76, 0xb9, 0x4c, 0x3e, 0x3d, 0x26, 0xb0, 0x3e, 0x1e, 0x7d, 0xdc, 0xbe,
  0xac, 0x9a, 0x08, 0x3d, 0x2f, 0x87, 0xdf, 0xbe, 0x09, 0x58, 0x98, 0xbe,
  0x84, 0xd2, 0x77, 0xbb, 0x80, 0x00, 0x95, 0xbe, 0xfc, 0x79, 0xcb, 0x3e,
  0x8c, 0x6a, 0xe2, 0x3e, 0x01, 0x1f, 0x6e, 0xbd, 0x42, 0x60, 0x67, 0x3e,
  0xda, 0xde, 0x46, 0x3e, 0x1d, 0x06, 0x84, 0x3e, 0x6a, 0xe7, 0xb7, 0x3e,
  0x2f, 0x2d, 0xad, 0xbe, 0xf6, 0x03, 0xd7, 0x3e, 0x88, 0x12, 0x94, 0xbe,
  0x84, 0x47, 0xb8, 0x3e, 0x02, 0xa6, 0x56, 0x3d, 0x01, 0xd9, 0xdd, 0xbe,
  0xb9, 0x1e, 0x56, 0xbe, 0xef, 0x3e, 0xed, 0xbe, 0x1f, 0xc2, 0x7a, 0xbe,
  0xa1, 0x53, 0x6b, 0xbe, 0x09, 0x22, 0x88, 0x3e, 0xa3, 0x4c, 0x70, 0x3e,
  0xb3, 0xad, 0xb2, 0xbe, 0x87, 0xae, 0xd9, 0x3e, 0x41, 0x3a, 0xdb, 0xbe,
  0x24, 0xbe, 0xb6, 0xbe, 0xb9, 0x2d, 0x02, 0x3f, 0x4f, 0x44, 0xae, 0xbd,
  0xab, 0x1c, 0xaf, 0xbe, 0x17, 0xc4, 0xcf, 0xbe, 0x47, 0x44, 0xca, 0xbe,
  0x8d, 0x1f, 0xf3, 0x3e, 0xa6, 0x57, 0x01, 0xbf, 0x35, 0xf2, 0xfb, 0xbe,
  0x96, 0xe9, 0xff, 0xff, 0x34, 0x00, 0x00, 0x00, 0x14, 0x00, 0x00, 0x00,
  0x08, 0x00, 0x00, 0x00, 0x34, 0x00, 0x00, 0x00, 0x1e, 0x00, 0x00, 0x00,
  0x73, 0x65, 0x71, 0x75, 0x65, 0x6e, 0x74, 0x69, 0x61, 0x6c, 0x5f, 0x35,
  0x37, 0x2f, 0x64, 0x65, 0x6e, 0x73, 0x65, 0x5f, 0x32, 0x38, 0x37, 0x2f,
  0x4d, 0x61, 0x74, 0x4d, 0x75, 0x6c, 0x00, 0x00, 0x02, 0x00, 0x00, 0x00,
  0x0a, 0x00, 0x00, 0x00, 0x0a, 0x00, 0x00, 0x00, 0x94, 0xe9, 0xff, 0xff,
  0x72, 0xea, 0xff, 0xff, 0x04, 0x00, 0x00, 0x00, 0x90, 0x01, 0x00, 0x00,
  0x86, 0xf9, 0x68, 0xbd, 0xe1, 0xcb, 0x8c, 0x3e, 0x75, 0x22, 0x07, 0xbf,
  0x0a, 0xa9, 0x5d, 0xbe, 0xc2, 0xb3, 0xa1, 0xbe, 0xc3, 0x9d, 0xac, 0xbd,
  0xe2, 0xac, 0x1f, 0x3e, 0x09, 0x74, 0x6f, 0x3e, 0x65, 0x22, 0x46, 0x3e,
  0x55, 0xca, 0xa1, 0x3d, 0x6d, 0x80, 0x5d, 0x3e, 0x8c, 0xcc, 0x04, 0xbf,
  0x35, 0x3b, 0xac, 0x3e, 0xce, 0x71, 0xbd, 0xbe, 0x3a, 0x5e, 0xfa, 0xbe,
  0x16, 0x51, 0xa3, 0xbd, 0xe7, 0x9a, 0x00, 0xbd, 0xc9, 0xe3, 0xb0, 0xbe,
  0x54, 0x78, 0x72, 0xbe, 0xbf, 0xfa, 0x16, 0xbd, 0xea, 0xa7, 0xb1, 0x3e,
  0x4b, 0x4a, 0x8e, 0x3e, 0x12, 0x0b, 0x8a, 0x3e, 0x76, 0xbf, 0x19, 0x3e,
  0x1a, 0x3c, 0xeb, 0x3d, 0xc1, 0xef, 0x20, 0xbe, 0x49, 0x12, 0xd1, 0x3e,
  0x48, 0x02, 0xff, 0x3e, 0x89, 0x64, 0x2b, 0xbe, 0xc5, 0x51, 0x9b, 0xbe,
  0x3f, 0x70, 0xf1, 0x3e, 0xda, 0x23, 0xfd, 0x3e, 0xde, 0x52, 0x05, 0xbf,
  0x96, 0xd9, 0xf9, 0x3e, 0xb7, 0x62, 0x80, 0xbe, 0xc9, 0x83, 0xcb, 0x3e,
  0x1b, 0x2f, 0x08, 0xbe, 0xc8, 0xe3, 0xc7, 0x3e, 0x97, 0xc2, 0x06, 0xbf,
  0xf9, 0xc3, 0xda, 0x3e, 0x3e, 0x13, 0xa9, 0xbe, 0x92, 0xef, 0xad, 0x3e,
  0xf2, 0x17, 0x73, 0xbe, 0x18, 0xcd, 0x00, 0x3f, 0x2a, 0x47, 0x65, 0x3e,
  0xb5, 0xd6, 0x85, 0xbe, 0xe4, 0x19, 0xec, 0xbe, 0x73, 0x99, 0x4e, 0x3e,
  0x42, 0x66, 0x7d, 0x3e, 0x1d, 0xdd, 0x02, 0x3f, 0x0f, 0xa6, 0x09, 0x3e,
  0x32, 0xdc, 0xe7, 0xbe, 0x63, 0xe1, 0xf6, 0xbe, 0xe8, 0xc4, 0xea, 0xbe,
  0x89, 0x12, 0xec, 0xbe, 0x4d, 0xba, 0xf6, 0xbe, 0xc5, 0x20, 0xf5, 0xbe,
  0x30, 0x5f, 0x76, 0x3e, 0x2c, 0x39, 0x8c, 0xbe, 0x26, 0x89, 0x25, 0xbe,
  0xb0, 0x5b, 0x02, 0x3e, 0x04, 0x7d, 0xd2, 0xbe, 0xf4, 0x28, 0xa8, 0x3e,
  0x15, 0x46, 0x88, 0xbe, 0xb3, 0x04, 0x0e, 0x3e, 0xd1, 0x54, 0x1e, 0x3e,
  0xa9, 0x26, 0xde, 0xbe, 0x58, 0x62, 0xba, 0xb9, 0xb5, 0x77, 0x01, 0x3f,
  0xd0, 0xed, 0x4b, 0xbe, 0x73, 0xff, 0xaf, 0x3e, 0x48, 0x7e, 0xec, 0xbd,
  0x32, 0x51, 0xee, 0x3d, 0xd9, 0xc4, 0xe9, 0x3e, 0x43, 0x9c, 0xdc, 0xbe,
  0x81, 0x11, 0x92, 0xbe, 0xb1, 0x77, 0x7d, 0x3e, 0xda, 0xdb, 0xc4, 0xbe,
  0x77, 0x38, 0xdf, 0x3e, 0xad, 0xea, 0xaa, 0xbe, 0xf0, 0xfa, 0x88, 0x3d,
  0x73, 0x31, 0x93, 0xbe, 0xa7, 0x18, 0x0b, 0x3f, 0x6d, 0x49, 0xe5, 0xbe,
  0xce, 0x1e, 0x8d, 0xbe, 0xd7, 0x30, 0xd2, 0x3e, 0x09, 0x2c, 0xee, 0xbe,
  0x20, 0x47, 0x66, 0x3e, 0x3f, 0xdb, 0x49, 0xbe, 0x07, 0x78, 0x58, 0x3d,
  0xb6, 0xa3, 0x4b, 0xbc, 0x2d, 0xed, 0xf4, 0xbe, 0xfe, 0xba, 0x97, 0xbe,
  0xe4, 0xb8, 0xd3, 0x3e, 0x22, 0xaf, 0x75, 0x3e, 0x47, 0x16, 0xee, 0xbd,
  0x8e, 0xd7, 0x85, 0xbe, 0x1c, 0x7d, 0x78, 0x3e, 0xba, 0x21, 0x05, 0xbf,
  0xb9, 0x14, 0x07, 0xbe, 0x7a, 0xeb, 0xff, 0xff, 0x34, 0x00, 0x00, 0x00,
  0x13, 0x00, 0x00, 0x00, 0x08, 0x00, 0x00, 0x00, 0x34, 0x00, 0x00, 0x00,
  0x1e, 0x00, 0x00, 0x00, 0x73, 0x65, 0x71, 0x75, 0x65, 0x6e, 0x74, 0x69,
  0x61, 0x6c, 0x5f, 0x35, 0x37, 0x2f, 0x64, 0x65, 0x6e, 0x73, 0x65, 0x5f,
  0x32, 0x38, 0x36, 0x2f, 0x4d, 0x61, 0x74, 0x4d, 0x75, 0x6c, 0x00, 0x00,
  0x02, 0x00, 0x00, 0x00, 0x0a, 0x00, 0x00, 0x00, 0x0a, 0x00, 0x00, 0x00,
  0x78, 0xeb, 0xff, 0xff, 0x56, 0xec, 0xff, 0xff, 0x04, 0x00, 0x00, 0x00,
  0x90, 0x01, 0x00, 0x00, 0x2c, 0xfc, 0x8d, 0x3e, 0x1a, 0x52, 0x0b, 0x3f,
  0xfc, 0x34, 0x39, 0x3e, 0xd8, 0x74, 0x98, 0x3e, 0xec, 0x2b, 0x99, 0xbe,
  0x6a, 0x9e, 0xaf, 0xbd, 0x87, 0x2c, 0x97, 0x3e, 0x8a, 0xce, 0x95, 0xbe,
  0x7a, 0xe3, 0x9a, 0xbe, 0xc9, 0x33, 0xfd, 0x3d, 0x21, 0x91, 0x96, 0xbd,
  0x3e, 0xbf, 0x03, 0x3f, 0x0f, 0x4f, 0xb1, 0x3e, 0xa4, 0xa4, 0x92, 0x3e,
  0xd1, 0x1a, 0x69, 0xbd, 0x6b, 0xdb, 0x98, 0x3d, 0xa6, 0x8e, 0x0b, 0x3f,
  0x23, 0x5a, 0x65, 0x3d, 0xae, 0x96, 0xb0, 0xbe, 0xba, 0x8d, 0xce, 0x3e,
  0x80, 0xeb, 0xb0, 0x3e, 0x88, 0x84, 0x8a, 0x3e, 0xce, 0x98, 0xdf, 0xbe,
  0x9b, 0x4a, 0x20, 0xbe, 0x7a, 0x2b, 0xbd, 0x3e, 0xad, 0xf4, 0x29, 0xbe,
  0x76, 0x81, 0x0c, 0x3e, 0x29, 0x6f, 0xe5, 0x3d, 0xbe, 0x87, 0x86, 0x3e,
  0xd4, 0x09, 0x92, 0xbc, 0x54, 0x79, 0xa4, 0x3e, 0xde, 0x2d, 0x72, 0x3e,
  0xa8, 0xd8, 0xb2, 0xbd, 0xb3, 0xc2, 0x00, 0x3f, 0xab, 0xf7, 0xdb, 0x3e,
  0x23, 0x4a, 0xa2, 0x3b, 0x7d, 0x49, 0xad, 0xbe, 0x9d, 0xae, 0xca, 0xbd,
  0xfe, 0x52, 0xfb, 0x3e, 0xe4, 0xfa, 0x81, 0xbe, 0x02, 0xe3, 0x3b, 0x3e,
  0x47, 0x24, 0xe2, 0xbe, 0xaf, 0x50, 0xa1, 0x3e, 0xb9, 0xc0, 0x41, 0xbe,
  0xec, 0x44, 0x04, 0x3e, 0x6d, 0xdf, 0x85, 0x3e, 0x41, 0xc9, 0x19, 0xbd,
  0xec, 0x03, 0x91, 0xbe, 0x37, 0x1c, 0xa8, 0xbe, 0x18, 0xd5, 0xcc, 0xbe,
  0x1a, 0xf7, 0x2d, 0x3d, 0x3a, 0xdb, 0xb7, 0x3e, 0x01, 0xf0, 0x1e, 0xbd,
  0xe3, 0x03, 0x12, 0xbe, 0xa4, 0x1b, 0x71, 0xbd, 0x64, 0x67, 0xfc, 0xbe,
  0x93, 0xb3, 0x81, 0xbe, 0xaf, 0x99, 0x03, 0xbf, 0x90, 0xdb, 0xb7, 0xbd,
  0xa9, 0x01, 0x14, 0xbc, 0x39, 0x75, 0x41, 0xbe, 0x10, 0xd5, 0x19, 0xbd,
  0xd4, 0x4d, 0x8a, 0x3e, 0x07, 0x73, 0x99, 0xbb, 0x31, 0x49, 0x25, 0xbe,
  0x05, 0x18, 0xd9, 0xbe, 0x35, 0x44, 0xc1, 0x3e, 0x13, 0x65, 0xc6, 0x3e,
  0x78, 0xc7, 0xb2, 0xbe, 0xfe, 0xc8, 0xa6, 0xbe, 0xb1, 0xd0, 0xd4, 0x3e,
  0x0a, 0x8e, 0x26, 0xbe, 0x4d, 0x00, 0x0d, 0x3e, 0x37, 0xe4, 0xab, 0x3e,
  0xc3, 0xc4, 0x92, 0x3e, 0x46, 0x12, 0xc5, 0xbd, 0x95, 0x3e, 0x02, 0x3f,
  0x1e, 0x48, 0xda, 0x3d, 0x4d, 0x29, 0x83, 0xbe, 0x24, 0x9b, 0xbf, 0x3d,
  0x4b, 0x17, 0x06, 0x3f, 0xfd, 0x4f, 0x37, 0x3e, 0x01, 0x52, 0x37, 0x3e,
  0x64, 0xee, 0x9d, 0xbd, 0x15, 0x09, 0xc8, 0x3d, 0x60, 0xa1, 0xc1, 0x3e,
  0x70, 0x9e, 0x08, 0x3e, 0x82, 0xfc, 0xfd, 0x3e, 0x1c, 0xab, 0xee, 0xbe,
  0x4c, 0xc5, 0x67, 0x3e, 0x6e, 0xb2, 0x36, 0xbe, 0x24, 0x92, 0x6a, 0xbe,
  0xfa, 0x96, 0xe1, 0x3e, 0x29, 0x4e, 0xb0, 0xbb, 0xc4, 0x8c, 0x07, 0xbe,
  0xaa, 0x03, 0xe3, 0x3d, 0x38, 0x64, 0xbf, 0x3e, 0x5f, 0x72, 0xb7, 0xbe,
  0xc1, 0x7f, 0x67, 0x3e, 0xd9, 0x29, 0xa4, 0xbe, 0x5e, 0xed, 0xff, 0xff,
  0x34, 0x00, 0x00, 0x00, 0x12, 0x00, 0x00, 0x00, 0x08, 0x00, 0x00, 0x00,
  0x34, 0x00, 0x00, 0x00, 0x1e, 0x00, 0x00, 0x00, 0x73, 0x65, 0x71, 0x75,
  0x65, 0x6e, 0x74, 0x69, 0x61, 0x6c, 0x5f, 0x35, 0x37, 0x2f, 0x64, 0x65,
  0x6e, 0x73, 0x65, 0x5f, 0x32, 0x38, 0x35, 0x2f, 0x4d, 0x61, 0x74, 0x4d,
  0x75, 0x6c, 0x00, 0x00, 0x02, 0x00, 0x00, 0x00, 0x0a, 0x00, 0x00, 0x00,
  0x0a, 0x00, 0x00, 0x00, 0x5c, 0xed, 0xff, 0xff, 0x3a, 0xee, 0xff, 0xff,
  0x04, 0x00, 0x00, 0x00, 0x90, 0x01, 0x00, 0x00, 0xe8, 0xe4, 0x51, 0x3d,
  0x46, 0x54, 0x09, 0xbf, 0xf6, 0x7d, 0xc3, 0x3e, 0x70, 0x60, 0xf5, 0xbe,
  0x00, 0x7d, 0x3c, 0x3e, 0xfe, 0x2c, 0x01, 0xbe, 0x01, 0xd8, 0x03, 0x3f,
  0x83, 0xb1, 0xb1, 0x3e, 0x6e, 0x65, 0x7c, 0x3e, 0x98, 0x12, 0xa6, 0xbe,
  0x73, 0xbb, 0x07, 0xbe, 0x26, 0x3a, 0xc5, 0xbe, 0x18, 0x43, 0xac, 0x3e,
  0xb3, 0x0d, 0xf4, 0xbe, 0xfa, 0x4d, 0xb1, 0xbe, 0x5f, 0x5c, 0xfa, 0x3e,
  0x77, 0x05, 0xe1, 0x3e, 0x96, 0xd6, 0xcc, 0x3e, 0x3a, 0x7b, 0xd5, 0x3e,
  0x13, 0x1c, 0xf3, 0x3e, 0x06, 0x39, 0x2a, 0xbd, 0xae, 0x66, 0xad, 0x3e,
  0x41, 0x96, 0x01, 0xbf, 0x40, 0x15, 0xef, 0x3e, 0x53, 0x92, 0xc9, 0x3e,
  0xde, 0x53, 0xe2, 0xbe, 0x82, 0x48, 0xb8, 0x3e, 0xed, 0x10, 0x08, 0xbf,
  0xc6, 0xf8, 0x24, 0x3e, 0x09, 0xe8, 0xfa, 0x3d, 0x3d, 0x35, 0xc3, 0x3e,
  0xf3, 0x02, 0x79, 0xbe, 0x71, 0xef, 0xb7, 0xbe, 0x88, 0xc5, 0xd3, 0x3c,
  0xc5, 0x01, 0x96, 0x3d, 0x9a, 0x64, 0x01, 0x3e, 0xec, 0x01, 0x00, 0x3f,
  0xbd, 0x92, 0xea, 0x3e, 0xff, 0x34, 0x98, 0xbe, 0x87, 0xe2, 0x7a, 0x3c,
  0xa7, 0x52, 0x88, 0xbe, 0xa0, 0xf1, 0x77, 0x3e, 0x2f, 0x8d, 0xcc, 0xbe,
  0x66, 0x94, 0x19, 0xbe, 0xca, 0x2f, 0x60, 0xbe, 0xfb, 0xd3, 0xfe, 0x3e,
  0x33, 0x2a, 0x6d, 0x3d, 0x7f, 0x30, 0x36, 0x3e, 0x06, 0x26, 0x6f, 0xbe,
  0x2d, 0x60, 0xb9, 0xbe, 0xbd, 0xed, 0xf4, 0xbe, 0xac, 0x9b, 0x00, 0xbf,
  0xae, 0xea, 0x67, 0x3e, 0x41, 0x26, 0x0e, 0xbe, 0xb0, 0x8b, 0x2c, 0xbe,
  0x82, 0x03, 0x8d, 0xbe, 0xef, 0xaf, 0x23, 0xbe, 0x79, 0xb4, 0xa3, 0x3e,
  0xe8, 0xb8, 0x4c, 0x3e, 0x0d, 0x1c, 0x54, 0xbd, 0x6e, 0x52, 0xc7, 0x3e,
  0x6e, 0x0a, 0x3c, 0x3c, 0xad, 0x3d, 0x41, 0xbe, 0xbe, 0xb4, 0x85, 0x3e,
  0xa8, 0x62, 0xe0, 0x3e, 0x50, 0xfc, 0x83, 0x3e, 0x0a, 0x00, 0xdc, 0xbe,
  0xa0, 0x6e, 0x0a, 0xbf, 0x5a, 0x8f, 0xa1, 0x3e, 0xd6, 0xa5, 0x9f, 0x3e,
  0xb1, 0x72, 0x09, 0xbf, 0x03, 0x50, 0xa0, 0x3e, 0x04, 0x8c, 0xb6, 0xbe,
  0x9a, 0x73, 0xa7, 0x3e, 0x2d, 0xaa, 0xb6, 0xbe, 0x85, 0x4f, 0x15, 0xbe,
  0x9a, 0x8b, 0xf2, 0x3e, 0x64, 0xd1, 0x6d, 0xbe, 0x27, 0xb7, 0xc7, 0x3e,
  0x6a, 0x5a, 0x16, 0xbe, 0x10, 0xa7, 0xfa, 0xbe, 0x3d, 0xb4, 0xf4, 0x3e,
  0xea, 0x85, 0xe1, 0x3e, 0x66, 0x53, 0x08, 0x3f, 0xc9, 0x48, 0xb8, 0xbe,
  0x9e, 0xd8, 0xf8, 0xbe, 0x8e, 0x75, 0xba, 0x3e, 0x66, 0x3d, 0xd4, 0x3e,
  0xb9, 0x7b, 0x79, 0xbe, 0x30, 0x8f, 0xc7, 0x3e, 0x7a, 0x73, 0xaf, 0xbe,
  0xbd, 0xad, 0x8c, 0x3d, 0x58, 0x7d, 0xde, 0x3e, 0xea, 0x4b, 0x79, 0x3d,
  0x47, 0x5f, 0x11, 0xbe, 0x24, 0x6f, 0x6e, 0x3c, 0x0e, 0xf9, 0xc3, 0x3e,
  0xd3, 0xae, 0xc7, 0x3e, 0x7f, 0xda, 0xe1, 0xbe, 0xc5, 0xea, 0xcd, 0x3e,
  0x42, 0xef, 0xff, 0xff, 0x34, 0x00, 0x00, 0x00, 0x11, 0x00, 0x00, 0x00,
  0x08, 0x00, 0x00, 0x00, 0x34, 0x00, 0x00, 0x00, 0x1e, 0x00, 0x00, 0x00,
  0x73, 0x65, 0x71, 0x75, 0x65, 0x6e, 0x74, 0x69, 0x61, 0x6c, 0x5f, 0x35,
  0x37, 0x2f, 0x64, 0x65, 0x6e, 0x73, 0x65, 0x5f, 0x32, 0x38, 0x34, 0x2f,
  0x4d, 0x61, 0x74, 0x4d, 0x75, 0x6c, 0x00, 0x00, 0x02, 0x00, 0x00, 0x00,
  0x0a, 0x00, 0x00, 0x00, 0x0a, 0x00, 0x00, 0x00, 0x40, 0xef, 0xff, 0xff,
  0x1e, 0xf0, 0xff, 0xff, 0x04, 0x00, 0x00, 0x00, 0x90, 0x01, 0x00, 0x00,
  0xd2, 0x7c, 0x3a, 0x3e, 0xf8, 0xe8, 0xe6, 0xbd, 0xe9, 0x3a, 0xfc, 0x3e,
  0x6f, 0xb4, 0x06, 0xbf, 0x88, 0xa8, 0x91, 0x3e, 0x7b, 0x96, 0xb9, 0xbe,
  0xf3, 0xfd, 0xf9, 0xbe, 0x78, 0x4c, 0x90, 0x3d, 0x12, 0x82, 0xdb, 0x3e,
  0x5d, 0xe3, 0x02, 0xbd, 0x59, 0x62, 0x3e, 0xbe, 0x0b, 0x72, 0xd3, 0xbe,
  0xd3, 0xad, 0x21, 0xbd, 0x4e, 0x1e, 0xb7, 0x3e, 0x9a, 0x65, 0xa5, 0x3e,
  0x74, 0x07, 0x6e, 0x3e, 0x1e, 0xc2, 0xf6, 0x3e, 0x07, 0x8f, 0xe1, 0x3e,
  0xae, 0x56, 0x7a, 0x3e, 0xcc, 0x26, 0x82, 0x3d, 0x2d, 0x4b, 0xbb, 0x3e,
  0x53, 0x67, 0xcc, 0xbe, 0x57, 0x25, 0xbe, 0xbe, 0x53, 0x6a, 0x85, 0x3e,
  0x3b, 0x1b, 0xcd, 0x3e, 0xca, 0x94, 0x0a, 0x3f, 0x47, 0x16, 0x85, 0x3e,
  0xbf, 0x9a, 0x37, 0xbc, 0x74, 0xbf, 0x37, 0xbe, 0x6c, 0xf0, 0xba, 0xbe,
  0x02, 0xcb, 0x3d, 0x3e, 0x57, 0xe9, 0x83, 0xbc, 0x3c, 0xd2, 0x2c, 0x3e,
  0xf1, 0x06, 0x3c, 0xbe, 0x37, 0x94, 0x00, 0x3f, 0x5e, 0xf9, 0x7d, 0x3e,
  0x45, 0xdc, 0x05, 0xbf, 0x98, 0x92, 0x2d, 0x3d, 0x62, 0xa2, 0x87, 0xbe,
  0x87, 0xc0, 0x93, 0xbe, 0x7f, 0x90, 0xcb, 0x3e, 0x1c, 0xc1, 0x7e, 0xbe,
  0x12, 0x87, 0x83, 0xbd, 0xd9, 0x4f, 0x9a, 0xbe, 0x3e, 0x16, 0x02, 0xbe,
  0x54, 0xe0, 0xd9, 0x3e, 0x5b, 0xc8, 0xe7, 0x3d, 0x81, 0xfb, 0x8e, 0xbe,
  0xc9, 0x31, 0x7b, 0x3d, 0xaa, 0xe4, 0xa8, 0xbe, 0x38, 0xda, 0x8a, 0xbe,
  0xc7, 0x85, 0x03, 0x3f, 0xcd, 0x27, 0xaa, 0x3d, 0xf4, 0x6d, 0x02, 0x3f,
  0xca, 0x93, 0x26, 0xbd, 0xe0, 0x3b, 0x4d, 0xbd, 0xc8, 0x91, 0x00, 0xbf,
  0xbe, 0xf4, 0x31, 0x3d, 0xbf, 0x7b, 0x36, 0xbe, 0xd8, 0x6d, 0x5c, 0x3e,
  0xa8, 0x0d, 0xc6, 0xbe, 0x6f, 0x6d, 0x05, 0x3f, 0x18, 0x61, 0xd8, 0x3e,
  0xbb, 0x7a, 0x44, 0xbe, 0xac, 0x2f, 0xff, 0x3e, 0xb4, 0xec, 0x59, 0x3e,
  0xcb, 0xba, 0xfd, 0x3e, 0x0a, 0x20, 0x4c, 0x3e, 0x51, 0xfd, 0xd6, 0xbe,
  0xf2, 0xd2, 0x03, 0x3f, 0x2c, 0x29, 0x35, 0x3e, 0x28, 0x5b, 0x11, 0x3d,
  0xb9, 0xe4, 0xdb, 0xbe, 0x5d, 0x63, 0x42, 0x3e, 0x6c, 0x80, 0xca, 0xbd,
  0xee, 0x8f, 0xb1, 0xbd, 0x5f, 0x0a, 0x5a, 0xbe, 0x83, 0xb6, 0x6e, 0x3c,
  0xca, 0x18, 0xf9, 0xbc, 0x68, 0x48, 0xc2, 0xbe, 0xab, 0x9f, 0x8a, 0xbe,
  0xcd, 0x50, 0xde, 0x3d, 0x42, 0xaa, 0x96, 0xbe, 0xa8, 0x51, 0xa1, 0x3e,
  0x69, 0xf3, 0x5f, 0x3e, 0xf4, 0x79, 0xf6, 0xbe, 0x21, 0x59, 0xc5, 0x3c,
  0xd7, 0x82, 0xd8, 0x3b, 0x4b, 0x55, 0x56, 0x3d, 0x60, 0xf2, 0xc1, 0x3d,
  0xa5, 0xd1, 0xb5, 0xbe, 0x4d, 0x30, 0xa8, 0xbe, 0xe0, 0x01, 0x06, 0xbf,
  0x93, 0x02, 0x62, 0x3e, 0xa1, 0xfd, 0xd0, 0x3d, 0x96, 0x53, 0x6b, 0xbe,
  0x81, 0xf4, 0xdd, 0xbe, 0x06, 0x39, 0xef, 0x3e, 0x06, 0xa7, 0x02, 0xbf,
  0x39, 0xd0, 0x99, 0xbd, 0x26, 0xf1, 0xff, 0xff, 0x34, 0x00, 0x00, 0x00,
  0x10, 0x00, 0x00, 0x00, 0x08, 0x00, 0x00, 0x00, 0x34, 0x00, 0x00, 0x00,
  0x1e, 0x00, 0x00, 0x00, 0x73, 0x65, 0x71, 0x75, 0x65, 0x6e, 0x74, 0x69,
  0x61, 0x6c, 0x5f, 0x35, 0x37, 0x2f, 0x64, 0x65, 0x6e, 0x73, 0x65, 0x5f,
  0x32, 0x38, 0x33, 0x2f, 0x4d, 0x61, 0x74, 0x4d, 0x75, 0x6c, 0x00, 0x00,
  0x02, 0x00, 0x00, 0x00, 0x0a, 0x00, 0x00, 0x00, 0x0a, 0x00, 0x00, 0x00,
  0x24, 0xf1, 0xff, 0xff, 0x02, 0xf2, 0xff, 0xff, 0x04, 0x00, 0x00, 0x00,
  0x90, 0x01, 0x00, 0x00, 0xc7, 0x3b, 0xd2, 0xbe, 0x92, 0xf5, 0x20, 0xbe,
  0x03, 0xe9, 0x15, 0xbe, 0x0b, 0xca, 0x71, 0xbe, 0xc1, 0x44, 0x0b, 0xbe,
  0x5c, 0xfd, 0x53, 0xbd, 0xb5, 0x5f, 0xa1, 0x3e, 0x60, 0x3f, 0x65, 0xbe,
  0x41, 0x39, 0xaf, 0x3e, 0x6e, 0x29, 0xc1, 0x3e, 0xcb, 0x59, 0x00, 0xbf,
  0x8e, 0x8c, 0xaa, 0xbe, 0x4f, 0x63, 0xc8, 0xbe, 0x11, 0xf6, 0x16, 0x3e,
  0x04, 0x1e, 0xdb, 0x3e, 0x39, 0x2c, 0x79, 0x3e, 0x2e, 0xeb, 0xf1, 0xbe,
  0xde, 0x4a, 0x7a, 0x3e, 0x76, 0x47, 0x19, 0xbe, 0x2d, 0x68, 0xe2, 0xbe,
  0x87, 0x47, 0xc4, 0x3e, 0x6c, 0x5f, 0x55, 0x3d, 0x79, 0x16, 0xc1, 0x3e,
  0x2f, 0x1b, 0xa6, 0xbe, 0xb3, 0xef, 0xa4, 0x3e, 0xa0, 0x1d, 0x68, 0xbe,
  0xd9, 0x4a, 0xad, 0xbd, 0x10, 0x65, 0x03, 0x3e, 0x82, 0x23, 0xcb, 0x3e,
  0x49, 0xf2, 0xa0, 0xbd, 0x5b, 0x89, 0x58, 0x3e, 0xb2, 0x7a, 0x97, 0x3e,
  0xc7, 0xf2, 0x9a, 0xbc, 0x6c, 0xd8, 0x69, 0xbe, 0xcf, 0x0e, 0xe3, 0xbe,
  0xe3, 0x08, 0xd5, 0x3d, 0xb3, 0x18, 0x69, 0xbd, 0x59, 0x15, 0x76, 0xbe,
  0x97, 0x63, 0xac, 0x3e, 0x59, 0xe8, 0x0c, 0xbe, 0x4f, 0x3e, 0xe7, 0x3e,
  0x10, 0xc6, 0xbf, 0x3e, 0xae, 0x1c, 0x32, 0x3e, 0x40, 0xbd, 0xfd, 0x3e,
  0xcb, 0xb9, 0x2a, 0xbb, 0x23, 0x0b, 0xa0, 0xbe, 0xb8, 0xf8, 0x6c, 0x3e,
  0x34, 0xf7, 0xbd, 0x3e, 0x58, 0x18, 0x4c, 0x3e, 0xae, 0xa1, 0xdc, 0xbb,
  0x89, 0x24, 0xa2, 0x3e, 0x09, 0x12, 0x6b, 0x3c, 0x3a, 0xea, 0xfb, 0xbd,
  0xeb, 0x29, 0x4a, 0x3e, 0xeb, 0x3e, 0xb1, 0x3e, 0x4f, 0xd2, 0x9f, 0x3b,
  0xac, 0xa4, 0x00, 0xbf, 0x31, 0x5b, 0xf7, 0xbd, 0x63, 0x4f, 0x99, 0xbe,
  0x89, 0x02, 0x0a, 0x3e, 0x0d, 0xb5, 0x1e, 0xbe, 0xc8, 0xc1, 0xe9, 0x3e,
  0x4f, 0xac, 0xa9, 0x3e, 0x45, 0xaa, 0xc8, 0xbe, 0xbc, 0xf2, 0x00, 0xbd,
  0x23, 0x1a, 0x03, 0xbc, 0x0e, 0x22, 0xe6, 0x3e, 0xf1, 0xeb, 0xa4, 0xbe,
  0x32, 0x9c, 0x58, 0x3e, 0x5c, 0xaa, 0x40, 0x3e, 0x07, 0x13, 0x00, 0x3f,
  0x62, 0x6d, 0x7d, 0x3e, 0x55, 0x58, 0xaa, 0x3d, 0xf1, 0x01, 0xd7, 0x3e,
  0xa7, 0xae, 0xf2, 0x3e, 0x17, 0xf1, 0x14, 0x3e, 0x45, 0x31, 0xe1, 0xbe,
  0xe3, 0x3a, 0xdc, 0xbe, 0x69, 0xd8, 0x04, 0x3f, 0x05, 0x26, 0xae, 0xbe,
  0x70, 0x3e, 0xa6, 0xbe, 0x5a, 0x15, 0x04, 0xbe, 0x75, 0xcf, 0xb7, 0xbe,
  0x5b, 0xe6, 0xf8, 0x3e, 0xbe, 0x58, 0x11, 0x3d, 0xb9, 0x78, 0x3b, 0x3d,
  0x66, 0x65, 0xb8, 0xbe, 0x3b, 0x4a, 0x9f, 0xbd, 0x1a, 0x0f, 0x56, 0x3e,
  0x5d, 0x13, 0xb4, 0xbe, 0x16, 0x61, 0xd7, 0x3c, 0x80, 0x7a, 0xc8, 0x3e,
  0xb4, 0x01, 0xae, 0x3e, 0xb6, 0xcd, 0xf5, 0x3e, 0x6a, 0x80, 0x06, 0xbe,
  0x8d, 0x6d, 0x31, 0xbe, 0xfb, 0xc6, 0x0c, 0x3e, 0x77, 0xaa, 0xf1, 0xbd,
  0x09, 0x04, 0xf9, 0x3e, 0x90, 0x41, 0xa0, 0x3e, 0x0a, 0xf3, 0xff, 0xff,
  0x34, 0x00, 0x00, 0x00, 0x0f, 0x00, 0x00, 0x00, 0x08, 0x00, 0x00, 0x00,
  0x34, 0x00, 0x00, 0x00, 0x1e, 0x00, 0x00, 0x00, 0x73, 0x65, 0x71, 0x75,
  0x65, 0x6e, 0x74, 0x69, 0x61, 0x6c, 0x5f, 0x35, 0x37, 0x2f, 0x64, 0x65,
  0x6e, 0x73, 0x65, 0x5f, 0x32, 0x38, 0x32, 0x2f, 0x4d, 0x61, 0x74, 0x4d,
  0x75, 0x6c, 0x00, 0x00, 0x02, 0x00, 0x00, 0x00, 0x0a, 0x00, 0x00, 0x00,
  0x0a, 0x00, 0x00, 0x00, 0x08, 0xf3, 0xff, 0xff, 0xe6, 0xf3, 0xff, 0xff,
  0x04, 0x00, 0x00, 0x00, 0x90, 0x01, 0x00, 0x00, 0x6b, 0x8b, 0xe1, 0xbd,
  0x98, 0x4d, 0x2f, 0xbe, 0xfe, 0x4e, 0xf2, 0xbe, 0x40, 0x87, 0x16, 0x3e,
  0xd8, 0x8d, 0x71, 0x3e, 0x65, 0xd2, 0xdd, 0xbe, 0x47, 0x26, 0xb0, 0xbd,
  0xa4, 0xe3, 0x9c, 0xbb, 0xd2, 0x40, 0xa0, 0xbd, 0xff, 0x76, 0xa1, 0xbe,
  0xef, 0xd6, 0xdf, 0xbe, 0xff, 0xee, 0xbc, 0x3e, 0xdc, 0xb3, 0x8a, 0x3d,
  0xdd, 0xd6, 0x31, 0xbd, 0xb6, 0x47, 0xfe, 0xbe, 0xf9, 0x07, 0x55, 0x3e,
  0x95, 0x46, 0xe8, 0xbe, 0xad, 0x91, 0x80, 0x3e, 0xfd, 0x32, 0x0b, 0x3e,
  0x34, 0x5c, 0xc1, 0xbe, 0x77, 0xe2, 0xae, 0x3e, 0x65, 0xc4, 0xf8, 0x3e,
  0x77, 0x2b, 0xcb, 0xbd, 0x0a, 0x31, 0x3a, 0x3d, 0x16, 0xdc, 0x79, 0xbe,
  0x93, 0xd5, 0xc8, 0xbe, 0x89, 0xe6, 0xb9, 0x3e, 0x67, 0x50, 0xcd, 0xbe,
  0xca, 0x5f, 0x07, 0xbd, 0x8a, 0x7d, 0x2e, 0x3e, 0xa5, 0x50, 0xce, 0x3d,
  0x29, 0xbb, 0x50, 0x3e, 0x42, 0x52, 0xc9, 0x3e, 0xbe, 0x83, 0xb3, 0x3e,
  0x8d, 0x87, 0xe8, 0xbe, 0x45, 0x9c, 0xd0, 0x3d, 0xf8, 0x49, 0xbc, 0xbe,
  0xb0, 0xaa, 0xbd, 0x3e, 0x52, 0x12, 0xde, 0xbc, 0x71, 0xca, 0xb7, 0x3e,
  0x06, 0xdf, 0xe0, 0x3d, 0xa0, 0xa3, 0xf0, 0xbe, 0x72, 0xc7, 0x92, 0x3e,
  0x38, 0x20, 0x40, 0x3e, 0x88, 0x6b, 0x38, 0xbd, 0xd2, 0xcd, 0x04, 0xbf,
  0x2c, 0x37, 0xcc, 0x3e, 0xa3, 0x2e, 0x7d, 0x3e, 0xfd, 0x85, 0x03, 0x3d,
  0xbd, 0xdb, 0x99, 0xbe, 0xd1, 0x6b, 0xff, 0xbe, 0x00, 0x3b, 0x07, 0xbf,
  0xc1, 0xc1, 0xc7, 0xbd, 0xfa, 0xa9, 0x93, 0x3e, 0xae, 0x0b, 0x24, 0xbe,
  0xea, 0xf9, 0x30, 0xbe, 0x55, 0x8d, 0x80, 0x3e, 0x86, 0xc5, 0xd5, 0xbe,
  0xb3, 0x2c, 0x0b, 0xbf, 0x3d, 0x6b, 0x9e, 0x3c, 0xc9, 0x1f, 0x09, 0xbf,
  0x0c, 0xbe, 0x6f, 0xbc, 0xdb, 0x68, 0xe2, 0x3e, 0x2f, 0x7b, 0xd3, 0x3e,
  0xc6, 0x21, 0x0c, 0x3f, 0x31, 0xc3, 0x85, 0xbe, 0x42, 0x16, 0x25, 0xbe,
  0xd5, 0xa6, 0x79, 0xbe, 0xf1, 0xb2, 0xcc, 0x3e, 0x58, 0x02, 0xc2, 0xbe,
  0x98, 0xb5, 0x4a, 0x3e, 0x09, 0x04, 0x86, 0x3d, 0x25, 0x9c, 0x24, 0x3e,
  0x4e, 0x6a, 0x7a, 0xbe, 0x49, 0xc6, 0xe1, 0x3e, 0x75, 0xc9, 0xce, 0x3d,
  0x97, 0xea, 0x42, 0x3e, 0x8d, 0x4b, 0x8b, 0x3d, 0xe6, 0xfd, 0xc9, 0x3c,
  0xcd, 0x39, 0x0e, 0x3e, 0xbc, 0x7a, 0x06, 0xbe, 0x04, 0x3c, 0x24, 0x3c,
  0x42, 0xf7, 0xd5, 0x3e, 0xb4, 0x52, 0x0a, 0xbf, 0x9c, 0x57, 0xb4, 0x3e,
  0xf9, 0x07, 0x1f, 0x3d, 0x24, 0x4f, 0xb5, 0x3d, 0x08, 0xd5, 0x45, 0x3e,
  0x60, 0xff, 0x32, 0xbe, 0xfa, 0x04, 0xae, 0x3d, 0x07, 0x22, 0xcc, 0xbd,
  0xd1, 0xa5, 0xed, 0x3e, 0x69, 0x1a, 0xe6, 0xbd, 0x7e, 0x71, 0xd5, 0x3e,
  0x55, 0xc4, 0x6b, 0x3e, 0xf3, 0xb0, 0xc6, 0x3d, 0x6a, 0xbe, 0xff, 0xbd,
  0x45, 0x77, 0x85, 0xbe, 0x31, 0x6e, 0xc7, 0xbe, 0x71, 0xad, 0x90, 0x3e,
  0xee, 0xf4, 0xff, 0xff, 0x34, 0x00, 0x00, 0x00, 0x0e, 0x00, 0x00, 0x00,
  0x08, 0x00, 0x00, 0x00, 0x34, 0x00, 0x00, 0x00, 0x1e, 0x00, 0x00, 0x00,
  0x73, 0x65, 0x71, 0x75, 0x65, 0x6e, 0x74, 0x69, 0x61, 0x6c, 0x5f, 0x35,
  0x37, 0x2f, 0x64, 0x65, 0x6e, 0x73, 0x65, 0x5f, 0x32, 0x38, 0x31, 0x2f,
  0x4d, 0x61, 0x74, 0x4d, 0x75, 0x6c, 0x00, 0x00, 0x02, 0x00, 0x00, 0x00,
  0x0a, 0x00, 0x00, 0x00, 0x0a, 0x00, 0x00, 0x00, 0xec, 0xf4, 0xff, 0xff,
  0xca, 0xf5, 0xff, 0xff, 0x04, 0x00, 0x00, 0x00, 0xb0, 0x04, 0x00, 0x00,
  0xbe, 0x16, 0xe1, 0x3d, 0xdd, 0xd5, 0xbf, 0xbe, 0xff, 0xb0, 0x28, 0x3d,
  0x26, 0xcb, 0xa9, 0x3e, 0x9f, 0x71, 0x87, 0x3e, 0xd9, 0xcb, 0xec, 0x3b,
  0x06, 0x9e, 0xad, 0x3d, 0xa2, 0xd4, 0xb3, 0xbe, 0xad, 0x85, 0x5d, 0xbe,
  0x32, 0x4e, 0xad, 0x3e, 0x2e, 0xb3, 0x83, 0x3e, 0x0b, 0x9a, 0x7f, 0x3e,
  0xab, 0x02, 0xe6, 0x3c, 0x30, 0x24, 0x84, 0x3e, 0xa9, 0xf3, 0x71, 0xbc,
  0xae, 0x74, 0x29, 0xbe, 0xba, 0xfa, 0xbd, 0xbd, 0x23, 0xf8, 0x8b, 0xbe,
  0x0c, 0x03, 0x08, 0x3e, 0x0e, 0x2a, 0xe4, 0xbc, 0x5e, 0x95, 0x75, 0x3e,
  0xfc, 0xa3, 0xe7, 0x3a, 0x69, 0x8e, 0x3f, 0xbe, 0x7f, 0xa5, 0x17, 0xbe,
  0x52, 0xcf, 0x76, 0x3e, 0x10, 0x51, 0x3d, 0xbe, 0x7a, 0x27, 0x47, 0x3e,
  0x88, 0x9a, 0xa0, 0x3e, 0x8d, 0x47, 0x13, 0x3e, 0x48, 0xe7, 0x57, 0x3e,
  0xd7, 0x94, 0xd3, 0x3d, 0x5c, 0x9e, 0x88, 0xbe, 0x60, 0x44, 0x50, 0x3e,
  0x68, 0x7b, 0x8e, 0x3d, 0x0a, 0x27, 0x5e, 0xbd, 0xbd, 0x33, 0x0a, 0xbe,
  0xc4, 0xc3, 0x03, 0xbe, 0x85, 0x20, 0x66, 0xbe, 0xd0, 0xa1, 0x14, 0x3e,
  0x7d, 0x8a, 0xf9, 0x3d, 0x4f, 0x94, 0x82, 0x3e, 0xff, 0x31, 0xf0, 0x3d,
  0x44, 0x8b, 0xc1, 0x3e, 0x3c, 0x1c, 0x75, 0xbe, 0x2d, 0x2f, 0xab, 0xbe,
  0x24, 0x33, 0xb1, 0x3d, 0x66, 0x31, 0x94, 0x3e, 0xfc, 0x81, 0x9e, 0xbe,
  0x0c, 0xd6, 0x26, 0x3e, 0x96, 0xe2, 0x2e, 0xbe, 0xec, 0x16, 0x2c, 0xbd,
  0x62, 0xce, 0x1a, 0xbc, 0x4c, 0xbd, 0xa7, 0xbd, 0xe9, 0x35, 0xc3, 0x3e,
  0x57, 0x4d, 0x64, 0x3e, 0xda, 0x80, 0x89, 0xbe, 0x15, 0xe7, 0x8e, 0x3d,
  0xff, 0xac, 0x41, 0xbd, 0x99, 0xdb, 0x39, 0x3e, 0x36, 0x6f, 0xd5, 0x3d,
  0xc4, 0x07, 0xac, 0x3d, 0xed, 0x74, 0xdb, 0xbd, 0x0e, 0x44, 0xfe, 0x3d,
  0x0e, 0xde, 0x79, 0xbd, 0xa5, 0x99, 0x11, 0xbe, 0x5f, 0x05, 0x13, 0x3e,
  0x60, 0xbd, 0x2e, 0x3d, 0x0f, 0x77, 0x45, 0xbd, 0xd6, 0xa7, 0x8d, 0x3e,
  0x13, 0x35, 0x25, 0xbe, 0x55, 0x19, 0x72, 0x3d, 0x4c, 0x73, 0x3b, 0xbe,
  0x38, 0x29, 0x94, 0xbe, 0x51, 0x87, 0x29, 0x3e, 0x57, 0x22, 0x8c, 0xbd,
  0x1c, 0x75, 0x78, 0x3e, 0x85, 0x8b, 0xff, 0xbc, 0x17, 0x27, 0x31, 0xbe,
  0xcc, 0x99, 0xb0, 0x3e, 0x07, 0xa5, 0x04, 0x3e, 0xde, 0x38, 0x43, 0xbe,
  0xeb, 0x8c, 0x9c, 0x3e, 0x55, 0x1f, 0x82, 0xbe, 0xd0, 0x20, 0x87, 0x3e,
  0x7e, 0xf4, 0x7a, 0x3e, 0x4b, 0xa6, 0xc5, 0x3c, 0x9b, 0x21, 0x6b, 0xbe,
  0xbc, 0xc0, 0xb7, 0xbe, 0xf3, 0x66, 0x26, 0x3d, 0xd6, 0x05, 0xf5, 0x3d,
  0x83, 0x6f, 0x65, 0xbe, 0xbe, 0x7a, 0x51, 0xbe, 0xee, 0x4d, 0x1f, 0x3e,
  0x3a, 0x9d, 0x00, 0x3d, 0xbc, 0x5a, 0x81, 0x3e, 0x9e, 0x90, 0x02, 0xbe,
  0xd2, 0xc1, 0x6d, 0xbd, 0x3b, 0x95, 0x17, 0xbe, 0xfc, 0x3a, 0x76, 0xbe,
  0xb5, 0x89, 0xc7, 0xbe, 0x36, 0x42, 0x22, 0x3d, 0x49, 0x13, 0x8d, 0xbe,
  0x26, 0x45, 0x4e, 0x3e, 0x9d, 0x7d, 0x73, 0xbe, 0x87, 0x2d, 0x75, 0x3d,
  0x6b, 0x1e, 0x6c, 0x3e, 0x76, 0xaa, 0xa2, 0x3e, 0x32, 0x3d, 0xb8, 0xbe,
  0xd4, 0xd3, 0xb6, 0xbe, 0x07, 0x8e, 0x2d, 0xbe, 0xef, 0x10, 0xae, 0xbc,
  0x28, 0xf0, 0x6f, 0x3e, 0xf2, 0xb9, 0x29, 0xbe, 0x90, 0x24, 0x85, 0x3d,
  0x73, 0x43, 0xd5, 0xbd, 0x70, 0xca, 0x3e, 0x3d, 0x53, 0x28, 0x83, 0xbe,
  0xcd, 0x9a, 0x41, 0xbe, 0x70, 0xf8, 0xc9, 0xbe, 0x91, 0xa3, 0x96, 0x3e,
  0x1d, 0xf6, 0x73, 0x3c, 0xd2, 0x51, 0x9b, 0x3e, 0xc7, 0xa7, 0x9a, 0xbd,
  0x74, 0x57, 0x5e, 0xbe, 0x10, 0xa0, 0x11, 0x3e, 0x68, 0xfb, 0xd7, 0xbd,
  0x88, 0xd9, 0x38, 0xbe, 0x3e, 0xf3, 0x9a, 0x3e, 0x0c, 0xcd, 0x37, 0xbe,
  0x6e, 0x65, 0xcd, 0xbe, 0x6f, 0x09, 0xb1, 0x3e, 0xb1, 0xc4, 0x71, 0x3e,
  0xad, 0x14, 0x89, 0xbe, 0x63, 0xc3, 0x6a, 0xbd, 0x8d, 0x0a, 0x15, 0xbe,
  0xde, 0x64, 0xa9, 0x3e, 0x4e, 0x07, 0x2d, 0x3c, 0x60, 0x33, 0x97, 0x3e,
  0x31, 0xcc, 0x96, 0xbe, 0x25, 0x79, 0x2d, 0xbe, 0x83, 0xb9, 0x83, 0x3d,
  0x17, 0xa6, 0x98, 0x3d, 0xf3, 0x5e, 0xb8, 0xbe, 0x21, 0x01, 0x97, 0x3e,
  0xf6, 0xb4, 0x35, 0xbe, 0x00, 0x61, 0x9b, 0xbe, 0x9c, 0x22, 0x2e, 0x3d,
  0x57, 0x9b, 0xb1, 0x3e, 0xb9, 0xe8, 0x5e, 0x3c, 0x03, 0x23, 0xe4, 0x3d,
  0xad, 0x7f, 0x6b, 0xbe, 0xf8, 0xf2, 0x87, 0xbe, 0x4f, 0xde, 0x6c, 0x3e,
  0x67, 0xe9, 0x72, 0x3e, 0x16, 0x78, 0x7d, 0xbe, 0xb3, 0x30, 0xc2, 0x3e,
  0x8d, 0x13, 0x45, 0x3e, 0x4c, 0xfa, 0xad, 0xbe, 0xf5, 0xe2, 0x89, 0x3e,
  0xb8, 0xe4, 0x61, 0x3e, 0x32, 0xa6, 0x5d, 0xbe, 0x8b, 0xa1, 0xe3, 0x3d,
  0x9c, 0x56, 0x11, 0xbd, 0xba, 0xf4, 0x50, 0x3e, 0x80, 0x02, 0x77, 0xbc,
  0x9c, 0x06, 0x6d, 0x3e, 0x0e, 0xff, 0x86, 0x3e, 0x59, 0xf4, 0x53, 0xbd,
  0x41, 0x31, 0x7b, 0xbe, 0xf6, 0xca, 0xae, 0xbe, 0xe4, 0x16, 0x85, 0xbd,
  0x1f, 0xe8, 0x8d, 0x3e, 0xef, 0xed, 0x54, 0x3e, 0x1d, 0x5f, 0x4c, 0x3e,
  0x1f, 0xff, 0x33, 0x3e, 0x36, 0x9f, 0xe5, 0xba, 0x1f, 0x89, 0x23, 0xbe,
  0x43, 0x5c, 0xa3, 0x3e, 0xd0, 0xbc, 0x14, 0xbd, 0xaa, 0x2f, 0x38, 0x3b,
  0x1e, 0x6b, 0x89, 0xbd, 0x91, 0x3c, 0x2a, 0xbe, 0x56, 0x37, 0xbd, 0xbe,
  0x8c, 0x56, 0xf5, 0x3d, 0xe8, 0x14, 0x1a, 0xbd, 0x4d, 0x4a, 0xeb, 0xbd,
  0x4e, 0x52, 0xa7, 0x3e, 0xbc, 0x6e, 0x9c, 0x3d, 0xa6, 0x3a, 0x5a, 0x3d,
  0x2d, 0x04, 0x91, 0x3e, 0xd1, 0x1e, 0xcc, 0xbd, 0x84, 0x50, 0xa5, 0x3c,
  0xd9, 0xa8, 0x64, 0x3e, 0x71, 0xbf, 0x63, 0xbe, 0x4b, 0x3a, 0x30, 0x3e,
  0x5c, 0x98, 0xab, 0xbe, 0x4e, 0xb0, 0xd6, 0xbc, 0xdf, 0xc6, 0x93, 0x3c,
  0x46, 0xbd, 0x8f, 0xbe, 0x7f, 0x49, 0x45, 0xbe, 0xc2, 0x23, 0x56, 0x3e,
  0xda, 0x51, 0x20, 0x3d, 0x31, 0x98, 0xca, 0x3e, 0x7e, 0x2c, 0x82, 0x3c,
  0xa8, 0xed, 0x79, 0xbe, 0xbc, 0xa0, 0x00, 0x3d, 0x27, 0xf2, 0xa1, 0x3e,
  0x65, 0x8a, 0x55, 0xbe, 0x5d, 0xbc, 0xbd, 0x3e, 0x53, 0x34, 0x82, 0xbe,
  0xf0, 0x62, 0x99, 0x3e, 0x44, 0x95, 0x90, 0xbe, 0x82, 0xba, 0xb3, 0xbe,
  0x09, 0x9f, 0x1f, 0x3e, 0x38, 0x23, 0xb3, 0xbe, 0xf6, 0xb2, 0x2e, 0x3d,
  0x03, 0xab, 0x62, 0x3d, 0x7b, 0xd5, 0xba, 0x3e, 0xd2, 0xd0, 0x8a, 0x3b,
  0x8b, 0x56, 0x0b, 0xbd, 0xd2, 0xcb, 0x99, 0xbe, 0xb7, 0x9c, 0x78, 0xbe,
  0x3c, 0x81, 0x79, 0x3e, 0xad, 0x87, 0xb1, 0xbd, 0x9c, 0xfb, 0x0c, 0x3d,
  0x29, 0xa7, 0xc0, 0xbe, 0xee, 0x34, 0xb3, 0x3e, 0x20, 0x1a, 0x25, 0xbe,
  0x0a, 0xb7, 0xb8, 0xbe, 0xfb, 0x52, 0x42, 0x3d, 0xf9, 0xad, 0x01, 0xbc,
  0x12, 0xf5, 0x8d, 0x3d, 0x71, 0xfe, 0x10, 0x3e, 0x06, 0xd1, 0xa0, 0x3e,
  0x03, 0x2d, 0x5a, 0x3e, 0xd7, 0xa7, 0x26, 0xbd, 0x88, 0xcb, 0x9d, 0x3e,
  0xaa, 0xbe, 0xb2, 0xbe, 0x64, 0x5d, 0x4a, 0x3d, 0xaa, 0x18, 0x6d, 0x3e,
  0xa9, 0x24, 0x8f, 0xbe, 0x55, 0x08, 0xb5, 0xbe, 0x18, 0x1c, 0xfd, 0x3d,
  0xf3, 0x99, 0x6f, 0xbd, 0x00, 0x5b, 0xf2, 0x3d, 0x0b, 0x89, 0xa5, 0x3e,
  0x80, 0x5c, 0x4f, 0x3d, 0xf7, 0x04, 0x92, 0x3e, 0x20, 0x85, 0x8b, 0xbe,
  0x32, 0x3d, 0xc4, 0x3e, 0x71, 0xaa, 0x1a, 0x3e, 0x6f, 0x35, 0xa2, 0xbd,
  0x69, 0xc5, 0x79, 0xbd, 0x95, 0x27, 0xaf, 0xbe, 0x3b, 0x99, 0x3e, 0xbd,
  0x25, 0x67, 0xba, 0x3c, 0xd9, 0x4b, 0x98, 0x3e, 0x65, 0xd3, 0x58, 0x3e,
  0x25, 0x5a, 0x4a, 0xbe, 0xbd, 0x4d, 0x24, 0xbe, 0x5c, 0xd2, 0x9c, 0x3e,
  0x1a, 0x1f, 0xb5, 0xbd, 0xa1, 0x0d, 0xf5, 0xbd, 0xa2, 0xcb, 0x51, 0x3e,
  0x84, 0xfd, 0xa9, 0xbe, 0xff, 0xa8, 0x41, 0x3e, 0x3a, 0xdf, 0x97, 0x3e,
  0xc3, 0xdf, 0xda, 0x3d, 0x27, 0xa9, 0x6c, 0x3e, 0x69, 0x39, 0x84, 0x3e,
  0xc6, 0xbb, 0x3d, 0xbe, 0xc3, 0x9e, 0xfd, 0x3d, 0x5e, 0x7a, 0xc0, 0x3e,
  0xb3, 0x1d, 0x80, 0xbe, 0xa4, 0x24, 0xb6, 0x3e, 0xdb, 0x68, 0x67, 0x3e,
  0xae, 0x9d, 0x19, 0x3d, 0xb8, 0xb4, 0x7b, 0x3e, 0xbe, 0xda, 0x66, 0xbd,
  0x47, 0xa8, 0x81, 0x3e, 0x9f, 0xc3, 0x26, 0xbd, 0xf3, 0x06, 0xfd, 0x3d,
  0x4c, 0xba, 0xb7, 0x3e, 0xf0, 0x57, 0x4d, 0x3e, 0xe0, 0x97, 0xad, 0x3e,
  0x67, 0x62, 0x83, 0x3e, 0x2f, 0xd2, 0xfd, 0xbd, 0xcd, 0x5a, 0xa3, 0x3d,
  0xbc, 0xc8, 0x3d, 0x3e, 0x3c, 0x63, 0x8c, 0xbe, 0x16, 0x7b, 0x9c, 0xbe,
  0x9f, 0xbc, 0x04, 0x3e, 0x0e, 0x97, 0x9f, 0xbe, 0xc0, 0x1b, 0x46, 0x3e,
  0xdc, 0x17, 0x2a, 0xbc, 0x6a, 0x89, 0x17, 0xbb, 0x02, 0x82, 0xb6, 0x3d,
  0xe8, 0x20, 0x9c, 0x3e, 0x84, 0xdd, 0xbf, 0xbe, 0x90, 0x37, 0x39, 0xbd,
  0xf2, 0xf9, 0xff, 0xff, 0x34, 0x00, 0x00, 0x00, 0x0d, 0x00, 0x00, 0x00,
  0x08, 0x00, 0x00, 0x00, 0x34, 0x00, 0x00, 0x00, 0x1e, 0x00, 0x00, 0x00,
  0x73, 0x65, 0x71, 0x75, 0x65, 0x6e, 0x74, 0x69, 0x61, 0x6c, 0x5f, 0x35,
  0x37, 0x2f, 0x64, 0x65, 0x6e, 0x73, 0x65, 0x5f, 0x32, 0x38, 0x30, 0x2f,
  0x4d, 0x61, 0x74, 0x4d, 0x75, 0x6c, 0x00, 0x00, 0x02, 0x00, 0x00, 0x00,
  0x0a, 0x00, 0x00, 0x00, 0x1e, 0x00, 0x00, 0x00, 0xf0, 0xf9, 0xff, 0xff,
  0xce, 0xfa, 0xff, 0xff, 0x04, 0x00, 0x00, 0x00, 0x08, 0x00, 0x00, 0x00,
  0xb4, 0xec, 0xed, 0xbc, 0xb8, 0xec, 0xed, 0x3c, 0x4e, 0xfa, 0xff, 0xff,
  0x44, 0x00, 0x00, 0x00, 0x0c, 0x00, 0x00, 0x00, 0x08, 0x00, 0x00, 0x00,
  0x40, 0x00, 0x00, 0x00, 0x2e, 0x00, 0x00, 0x00, 0x73, 0x65, 0x71, 0x75,
  0x65, 0x6e, 0x74, 0x69, 0x61, 0x6c, 0x5f, 0x35, 0x37, 0x2f, 0x64, 0x65,
  0x6e, 0x73, 0x65, 0x5f, 0x32, 0x39, 0x30, 0x2f, 0x42, 0x69, 0x61, 0x73,
  0x41, 0x64, 0x64, 0x2f, 0x52, 0x65, 0x61, 0x64, 0x56, 0x61, 0x72, 0x69,
  0x61, 0x62, 0x6c, 0x65, 0x4f, 0x70, 0x00, 0x00, 0x01, 0x00, 0x00, 0x00,
  0x02, 0x00, 0x00, 0x00, 0x58, 0xfa, 0xff, 0xff, 0x36, 0xfb, 0xff, 0xff,
  0x04, 0x00, 0x00, 0x00, 0x28, 0x00, 0x00, 0x00, 0xc3, 0xae, 0xeb, 0xbc,
  0x93, 0x05, 0xee, 0x3c, 0x59, 0xb0, 0xed, 0x3c, 0x97, 0x96, 0xed, 0xbc,
  0x65, 0x13, 0xed, 0x3c, 0x5d, 0xf3, 0xed, 0x3c, 0x39, 0x2a, 0xf0, 0xbc,
  0xf6, 0x23, 0xee, 0xbc, 0x2c, 0x4b, 0xf0, 0x3c, 0xe1, 0x50, 0xf4, 0x3c,
  0xd6, 0xfa, 0xff, 0xff, 0x44, 0x00, 0x00, 0x00, 0x0b, 0x00, 0x00, 0x00,
  0x08, 0x00, 0x00, 0x00, 0x40, 0x00, 0x00, 0x00, 0x2e, 0x00, 0x00, 0x00,
  0x73, 0x65, 0x71, 0x75, 0x65, 0x6e, 0x74, 0x69, 0x61, 0x6c, 0x5f, 0x35,
  0x37, 0x2f, 0x64, 0x65, 0x6e, 0x73, 0x65, 0x5f, 0x32, 0x38, 0x39, 0x2f,
  0x42, 0x69, 0x61, 0x73, 0x41, 0x64, 0x64, 0x2f, 0x52, 0x65, 0x61, 0x64,
  0x56, 0x61, 0x72, 0x69, 0x61, 0x62, 0x6c, 0x65, 0x4f, 0x70, 0x00, 0x00,
  0x01, 0x00, 0x00, 0x00, 0x0a, 0x00, 0x00, 0x00, 0xe0, 0xfa, 0xff, 0xff,
  0xbe, 0xfb, 0xff, 0xff, 0x04, 0x00, 0x00, 0x00, 0x28, 0x00, 0x00, 0x00,
  0xd5, 0x76, 0xec, 0x3c, 0xd8, 0x99, 0xeb, 0x3c, 0x22, 0x3b, 0xed, 0xbc,
  0x7d, 0x18, 0xed, 0xbc, 0x21, 0xcf, 0xe3, 0xbc, 0xcc, 0x0a, 0xf4, 0x3c,
  0x48, 0x7e, 0xdd, 0x3c, 0x9e, 0x17, 0xed, 0xbc, 0xf5, 0xa8, 0xeb, 0x3c,
  0x53, 0x3f, 0xe8, 0x3c, 0x5e, 0xfb, 0xff, 0xff, 0x44, 0x00, 0x00, 0x00,
  0x0a, 0x00, 0x00, 0x00, 0x08, 0x00, 0x00, 0x00, 0x40, 0x00, 0x00, 0x00,
  0x2e, 0x00, 0x00, 0x00, 0x73, 0x65, 0x71, 0x75, 0x65, 0x6e, 0x74, 0x69,
  0x61, 0x6c, 0x5f, 0x35, 0x37, 0x2f, 0x64, 0x65, 0x6e, 0x73, 0x65, 0x5f,
  0x32, 0x38, 0x38, 0x2f, 0x42, 0x69, 0x61, 0x73, 0x41, 0x64, 0x64, 0x2f,
  0x52, 0x65, 0x61, 0x64, 0x56, 0x61, 0x72, 0x69, 0x61, 0x62, 0x6c, 0x65,
  0x4f, 0x70, 0x00, 0x00, 0x01, 0x00, 0x00, 0x00, 0x0a, 0x00, 0x00, 0x00,
  0x68, 0xfb, 0xff, 0xff, 0x46, 0xfc, 0xff, 0xff, 0x04, 0x00, 0x00, 0x00,
  0x28, 0x00, 0x00, 0x00, 0xad, 0xe7, 0xfd, 0x3c, 0xd7, 0x23, 0xe6, 0x3c,
  0xe3, 0xd0, 0xe1, 0x3c, 0xce, 0xc7, 0xea, 0xbc, 0x76, 0xa4, 0xc6, 0x3c,
  0x30, 0x8f, 0xeb, 0xbc, 0xc8, 0x48, 0xf0, 0xbc, 0x9a, 0xa0, 0xe7, 0x3c,
  0x00, 0x37, 0xec, 0x3c, 0x02, 0x1b, 0xea, 0x3c, 0xe6, 0xfb, 0xff, 0xff,
  0x44, 0x00, 0x00, 0x00, 0x09, 0x00, 0x00, 0x00, 0x08, 0x00, 0x00, 0x00,
  0x40, 0x00, 0x00, 0x00, 0x2e, 0x00, 0x00, 0x00, 0x73, 0x65, 0x71, 0x75,
  0x65, 0x6e, 0x74, 0x69, 0x61, 0x6c, 0x5f, 0x35, 0x37, 0x2f, 0x64, 0x65,
  0x6e, 0x73, 0x65, 0x5f, 0x32, 0x38, 0x37, 0x2f, 0x42, 0x69, 0x61, 0x73,
  0x41, 0x64, 0x64, 0x2f, 0x52, 0x65, 0x61, 0x64, 0x56, 0x61, 0x72, 0x69,
  0x61, 0x62, 0x6c, 0x65, 0x4f, 0x70, 0x00, 0x00, 0x01, 0x00, 0x00, 0x00,
  0x0a, 0x00, 0x00, 0x00, 0xf0, 0xfb, 0xff, 0xff, 0xce, 0xfc, 0xff, 0xff,
  0x04, 0x00, 0x00, 0x00, 0x28, 0x00, 0x00, 0x00, 0x07, 0xe5, 0xd5, 0xbc,
  0xa4, 0xcb, 0xea, 0xbc, 0x8c, 0x18, 0xe6, 0x3c, 0x5f, 0x9d, 0xb5, 0x3c,
  0xad, 0xdf, 0xed, 0xbc, 0xb5, 0x11, 0xee, 0x3c, 0x9a, 0x08, 0xed, 0x3c,
  0xc9, 0x83, 0xea, 0x3c, 0xc6, 0x47, 0xd1, 0xbc, 0x31, 0x29, 0xeb, 0xbc,
  0x6e, 0xfc, 0xff, 0xff, 0x44, 0x00, 0x00, 0x00, 0x08, 0x00, 0x00, 0x00,
  0x08, 0x00, 0x00, 0x00, 0x40, 0x00, 0x00, 0x00, 0x2e, 0x00, 0x00, 0x00,
  0x73, 0x65, 0x71, 0x75, 0x65, 0x6e, 0x74, 0x69, 0x61, 0x6c, 0x5f, 0x35,
  0x37, 0x2f, 0x64, 0x65, 0x6e, 0x73, 0x65, 0x5f, 0x32, 0x38, 0x36, 0x2f,
  0x42, 0x69, 0x61, 0x73, 0x41, 0x64, 0x64, 0x2f, 0x52, 0x65, 0x61, 0x64,
  0x56, 0x61, 0x72, 0x69, 0x61, 0x62, 0x6c, 0x65, 0x4f, 0x70, 0x00, 0x00,
  0x01, 0x00, 0x00, 0x00, 0x0a, 0x00, 0x00, 0x00, 0x78, 0xfc, 0xff, 0xff,
  0x56, 0xfd, 0xff, 0xff, 0x04, 0x00, 0x00, 0x00, 0x28, 0x00, 0x00, 0x00,
  0x01, 0x91, 0xe7, 0x3c, 0x75, 0x67, 0xfd, 0xbc, 0x7f, 0xa4, 0xd8, 0xbc,
  0x8e, 0x5c, 0xfe, 0xbc, 0xe1, 0x77, 0xf1, 0xbc, 0xfe, 0xd0, 0xe9, 0xbc,
  0x3e, 0xff, 0x07, 0xbd, 0x16, 0xd4, 0xe5, 0x3c, 0x2c, 0x1e, 0xea, 0x3c,
  0x7a, 0x14, 0xed, 0xbc, 0xf6, 0xfc, 0xff, 0xff, 0x44, 0x00, 0x00, 0x00,
  0x07, 0x00, 0x00, 0x00, 0x08, 0x00, 0x00, 0x00, 0x40, 0x00, 0x00, 0x00,
  0x2e, 0x00, 0x00, 0x00, 0x73, 0x65, 0x71, 0x75, 0x65, 0x6e, 0x74, 0x69,
  0x61, 0x6c, 0x5f, 0x35, 0x37, 0x2f, 0x64, 0x65, 0x6e, 0x73, 0x65, 0x5f,
  0x32, 0x38, 0x35, 0x2f, 0x42, 0x69, 0x61, 0x73, 0x41, 0x64, 0x64, 0x2f,
  0x52, 0x65, 0x61, 0x64, 0x56, 0x61, 0x72, 0x69, 0x61, 0x62, 0x6c, 0x65,
  0x4f, 0x70, 0x00, 0x00, 0x01, 0x00, 0x00, 0x00, 0x0a, 0x00, 0x00, 0x00,
  0x00, 0xfd, 0xff, 0xff, 0xde, 0xfd, 0xff, 0xff, 0x04, 0x00, 0x00, 0x00,
  0x28, 0x00, 0x00, 0x00, 0xb1, 0xdc, 0xe5, 0x3c, 0x7a, 0xdd, 0xe3, 0x3c,
  0xd3, 0x7b, 0x00, 0xbd, 0xc1, 0x6e, 0xce, 0x3c, 0xef, 0xa2, 0xd8, 0xbc,
  0xfa, 0x8b, 0xea, 0x3c, 0x17, 0x1a, 0xc0, 0x3c, 0xab, 0x26, 0xeb, 0x3c,
  0xe9, 0xe2, 0xe3, 0xbc, 0xe1, 0x2c, 0xee, 0x3c, 0x7e, 0xfd, 0xff, 0xff,
  0x44, 0x00, 0x00, 0x00, 0x06, 0x00, 0x00, 0x00, 0x08, 0x00, 0x00, 0x00,
  0x40, 0x00, 0x00, 0x00, 0x2e, 0x00, 0x00, 0x00, 0x73, 0x65, 0x71, 0x75,
  0x65, 0x6e, 0x74, 0x69, 0x61, 0x6c, 0x5f, 0x35, 0x37, 0x2f, 0x64, 0x65,
  0x6e, 0x73, 0x65, 0x5f, 0x32, 0x38, 0x34, 0x2f, 0x42, 0x69, 0x61, 0x73,
  0x41, 0x64, 0x64, 0x2f, 0x52, 0x65, 0x61, 0x64, 0x56, 0x61, 0x72, 0x69,
  0x61, 0x62, 0x6c, 0x65, 0x4f, 0x70, 0x00, 0x00, 0x01, 0x00, 0x00, 0x00,
  0x0a, 0x00, 0x00, 0x00, 0x88, 0xfd, 0xff, 0xff, 0x66, 0xfe, 0xff, 0xff,
  0x04, 0x00, 0x00, 0x00, 0x28, 0x00, 0x00, 0x00, 0xb1, 0x71, 0x03, 0xbd,
  0xda, 0x6f, 0xe2, 0xbc, 0xac, 0xa4, 0x01, 0x3d, 0x81, 0xb8, 0xe8, 0xbc,
  0x9a, 0xd3, 0x04, 0xbd, 0x72, 0x8d, 0xed, 0x3c, 0xab, 0x51, 0xe6, 0x3c,
  0xc8, 0x6a, 0xf5, 0x3c, 0xd4, 0x88, 0xdd, 0x3c, 0xa0, 0x12, 0xf1, 0xbc,
  0x06, 0xfe, 0xff, 0xff, 0x44, 0x00, 0x00, 0x00, 0x05, 0x00, 0x00, 0x00,
  0x08, 0x00, 0x00, 0x00, 0x40, 0x00, 0x00, 0x00, 0x2e, 0x00, 0x00, 0x00,
  0x73, 0x65, 0x71, 0x75, 0x65, 0x6e, 0x74, 0x69, 0x61, 0x6c, 0x5f, 0x35,
  0x37, 0x2f, 0x64, 0x65, 0x6e, 0x73, 0x65, 0x5f, 0x32, 0x38, 0x33, 0x2f,
  0x42, 0x69, 0x61, 0x73, 0x41, 0x64, 0x64, 0x2f, 0x52, 0x65, 0x61, 0x64,
  0x56, 0x61, 0x72, 0x69, 0x61, 0x62, 0x6c, 0x65, 0x4f, 0x70, 0x00, 0x00,
  0x01, 0x00, 0x00, 0x00, 0x0a, 0x00, 0x00, 0x00, 0x10, 0xfe, 0xff, 0xff,
  0xee, 0xfe, 0xff, 0xff, 0x04, 0x00, 0x00, 0x00, 0x28, 0x00, 0x00, 0x00,
  0x71, 0xfb, 0xea, 0xbc, 0x32, 0xd7, 0xe7, 0x3c, 0xc1, 0x0b, 0x06, 0xbd,
  0x43, 0x68, 0x04, 0x3d, 0x1d, 0xb1, 0xe5, 0xbc, 0xe4, 0x84, 0xcb, 0xbc,
  0x2d, 0x97, 0xf7, 0x3c, 0x26, 0xf2, 0xd1, 0xbc, 0xcd, 0x4c, 0xef, 0xbc,
  0x40, 0x11, 0xe2, 0x3c, 0x8e, 0xfe, 0xff, 0xff, 0x44, 0x00, 0x00, 0x00,
  0x04, 0x00, 0x00, 0x00, 0x08, 0x00, 0x00, 0x00, 0x40, 0x00, 0x00, 0x00,
  0x2e, 0x00, 0x00, 0x00, 0x73, 0x65, 0x71, 0x75, 0x65, 0x6e, 0x74, 0x69,
  0x61, 0x6c, 0x5f, 0x35, 0x37, 0x2f, 0x64, 0x65, 0x6e, 0x73, 0x65, 0x5f,
  0x32, 0x38, 0x32, 0x2f, 0x42, 0x69, 0x61, 0x73, 0x41, 0x64, 0x64, 0x2f,
  0x52, 0x65, 0x61, 0x64, 0x56, 0x61, 0x72, 0x69, 0x61, 0x62, 0x6c, 0x65,
  0x4f, 0x70, 0x00, 0x00, 0x01, 0x00, 0x00, 0x00, 0x0a, 0x00, 0x00, 0x00,
  0x98, 0xfe, 0xff, 0xff, 0x76, 0xff, 0xff, 0xff, 0x04, 0x00, 0x00, 0x00,
  0x28, 0x00, 0x00, 0x00, 0x45, 0x57, 0xda, 0xbc, 0xbe, 0x07, 0x0b, 0x3d,
  0x24, 0x34, 0xcd, 0x3c, 0x29, 0x08, 0xec, 0xbc, 0xa0, 0xd7, 0xea, 0xbc,
  0x4d, 0x43, 0xf9, 0x3c, 0x44, 0x2d, 0x95, 0xba, 0xc0, 0x73, 0xc2, 0x3c,
  0x0b, 0x61, 0xfe, 0xbc, 0x58, 0x59, 0xe7, 0xbc, 0x16, 0xff, 0xff, 0xff,
  0x44, 0x00, 0x00, 0x00, 0x03, 0x00, 0x00, 0x00, 0x08, 0x00, 0x00, 0x00,
  0x40, 0x00, 0x00, 0x00, 0x2e, 0x00, 0x00, 0x00, 0x73, 0x65, 0x71, 0x75,
  0x65, 0x6e, 0x74, 0x69, 0x61, 0x6c, 0x5f, 0x35, 0x37, 0x2f, 0x64, 0x65,
  0x6e, 0x73, 0x65, 0x5f, 0x32, 0x38, 0x31, 0x2f, 0x42, 0x69, 0x61, 0x73,
  0x41, 0x64, 0x64, 0x2f, 0x52, 0x65, 0x61, 0x64, 0x56, 0x61, 0x72, 0x69,
  0x61, 0x62, 0x6c, 0x65, 0x4f, 0x70, 0x00, 0x00, 0x01, 0x00, 0x00, 0x00,
  0x0a, 0x00, 0x00, 0x00, 0x70, 0xff, 0xff, 0xff, 0x00, 0x00, 0x06, 0x00,
  0x08, 0x00, 0x04, 0x00, 0x06, 0x00, 0x00, 0x00, 0x04, 0x00, 0x00, 0x00,
  0x28, 0x00, 0x00, 0x00, 0x57, 0x68, 0x01, 0xbd, 0x03, 0x93, 0xe9, 0xbc,
  0xd8, 0x94, 0xa3, 0x3c, 0xba, 0x95, 0xd1, 0xbc, 0x62, 0x22, 0x13, 0xbd,
  0xdf, 0x88, 0xee, 0x3c, 0xe9, 0x7f, 0xc7, 0x3c, 0x53, 0xfc, 0xdf, 0xbc,
  0x4a, 0x2e, 0x4b, 0x3c, 0x71, 0x06, 0xa1, 0x3b, 0xa6, 0xff, 0xff, 0xff,
  0x44, 0x00, 0x00, 0x00, 0x02, 0x00, 0x00, 0x00, 0x08, 0x00, 0x00, 0x00,
  0x44, 0x00, 0x00, 0x00, 0x2e, 0x00, 0x00, 0x00, 0x73, 0x65, 0x71, 0x75,
  0x65, 0x6e, 0x74, 0x69, 0x61, 0x6c, 0x5f, 0x35, 0x37, 0x2f, 0x64, 0x65,
  0x6e, 0x73, 0x65, 0x5f, 0x32, 0x38, 0x30, 0x2f, 0x42, 0x69, 0x61, 0x73,
  0x41, 0x64, 0x64, 0x2f, 0x52, 0x65, 0x61, 0x64, 0x56, 0x61, 0x72, 0x69,
  0x61, 0x62, 0x6c, 0x65, 0x4f, 0x70, 0x00, 0x00, 0x01, 0x00, 0x00, 0x00,
  0x0a, 0x00, 0x00, 0x00, 0x04, 0x00, 0x06, 0x00, 0x04, 0x00, 0x00, 0x00,
  0x00, 0x00, 0x0e, 0x00, 0x14, 0x00, 0x04, 0x00, 0x00, 0x00, 0x08, 0x00,
  0x0c, 0x00, 0x10, 0x00, 0x0e, 0x00, 0x00, 0x00, 0x24, 0x00, 0x00, 0x00,
  0x01, 0x00, 0x00, 0x00, 0x08, 0x00, 0x00, 0x00, 0x24, 0x00, 0x00, 0x00,
  0x0f, 0x00, 0x00, 0x00, 0x64, 0x65, 0x6e, 0x73, 0x65, 0x5f, 0x32, 0x38,
  0x30, 0x5f, 0x69, 0x6e, 0x70, 0x75, 0x74, 0x00, 0x02, 0x00, 0x00, 0x00,
  0x01, 0x00, 0x00, 0x00, 0x1e, 0x00, 0x00, 0x00, 0xfc, 0xff, 0xff, 0xff,
  0x04, 0x00, 0x04, 0x00, 0x04, 0x00, 0x00, 0x00
};
unsigned int g_model_len = 9440;
