unsigned char g_model[] = {
  0x1c, 0x00, 0x00, 0x00, 0x54, 0x46, 0x4c, 0x33, 0x00, 0x00, 0x12, 0x00,
  0x1c, 0x00, 0x04, 0x00, 0x08, 0x00, 0x0c, 0x00, 0x10, 0x00, 0x14, 0x00,
  0x00, 0x00, 0x18, 0x00, 0x12, 0x00, 0x00, 0x00, 0x03, 0x00, 0x00, 0x00,
  0x54, 0x00, 0x00, 0x00, 0x48, 0x00, 0x00, 0x00, 0xa8, 0x00, 0x00, 0x00,
  0x08, 0x00, 0x00, 0x00, 0x50, 0x00, 0x00, 0x00, 0x0d, 0x00, 0x00, 0x00,
  0x70, 0x20, 0x00, 0x00, 0x6c, 0x20, 0x00, 0x00, 0x90, 0x1f, 0x00, 0x00,
  0x5c, 0x1e, 0x00, 0x00, 0xd0, 0x1d, 0x00, 0x00, 0x78, 0x13, 0x00, 0x00,
  0x50, 0x0b, 0x00, 0x00, 0x28, 0x03, 0x00, 0x00, 0x50, 0x20, 0x00, 0x00,
  0x4c, 0x20, 0x00, 0x00, 0x48, 0x20, 0x00, 0x00, 0x44, 0x20, 0x00, 0x00,
  0x4c, 0x00, 0x00, 0x00, 0x01, 0x00, 0x00, 0x00, 0x84, 0x00, 0x00, 0x00,
  0x02, 0x00, 0x00, 0x00, 0xb0, 0x02, 0x00, 0x00, 0x30, 0x01, 0x00, 0x00,
  0x01, 0x00, 0x00, 0x00, 0x0c, 0x00, 0x00, 0x00, 0x08, 0x00, 0x0c, 0x00,
  0x04, 0x00, 0x08, 0x00, 0x08, 0x00, 0x00, 0x00, 0x08, 0x00, 0x00, 0x00,
  0x0c, 0x00, 0x00, 0x00, 0x13, 0x00, 0x00, 0x00, 0x6d, 0x69, 0x6e, 0x5f,
  0x72, 0x75, 0x6e, 0x74, 0x69, 0x6d, 0x65, 0x5f, 0x76, 0x65, 0x72, 0x73,
  0x69, 0x6f, 0x6e, 0x00, 0xea, 0xe0, 0xff, 0xff, 0x04, 0x00, 0x00, 0x00,
  0x10, 0x00, 0x00, 0x00, 0x31, 0x2e, 0x35, 0x2e, 0x30, 0x00, 0x00, 0x00,
  0x00, 0x00, 0x00, 0x00, 0x00, 0x00, 0x00, 0x00, 0x0f, 0x00, 0x00, 0x00,
  0x4d, 0x4c, 0x49, 0x52, 0x20, 0x43, 0x6f, 0x6e, 0x76, 0x65, 0x72, 0x74,
  0x65, 0x64, 0x2e, 0x00, 0x00, 0x00, 0x0e, 0x00, 0x18, 0x00, 0x04, 0x00,
  0x08, 0x00, 0x0c, 0x00, 0x10, 0x00, 0x14, 0x00, 0x0e, 0x00, 0x00, 0x00,
  0x44, 0x00, 0x00, 0x00, 0x38, 0x00, 0x00, 0x00, 0x2c, 0x00, 0x00, 0x00,
  0x14, 0x00, 0x00, 0x00, 0x04, 0x00, 0x00, 0x00, 0x04, 0x00, 0x00, 0x00,
  0x6d, 0x61, 0x69, 0x6e, 0x00, 0x00, 0x00, 0x00, 0x04, 0x00, 0x00, 0x00,
  0xd0, 0x01, 0x00, 0x00, 0x44, 0x01, 0x00, 0x00, 0xc8, 0x00, 0x00, 0x00,
  0x54, 0x00, 0x00, 0x00, 0x01, 0x00, 0x00, 0x00, 0x0a, 0x00, 0x00, 0x00,
  0x01, 0x00, 0x00, 0x00, 0x00, 0x00, 0x00, 0x00, 0x0b, 0x00, 0x00, 0x00,
  0x2c, 0x1f, 0x00, 0x00, 0xc0, 0x1e, 0x00, 0x00, 0x2c, 0x1e, 0x00, 0x00,
  0x00, 0x1d, 0x00, 0x00, 0x80, 0x1c, 0x00, 0x00, 0x28, 0x12, 0x00, 0x00,
  0x00, 0x0a, 0x00, 0x00, 0xd8, 0x01, 0x00, 0x00, 0x34, 0x01, 0x00, 0x00,
  0xb8, 0x00, 0x00, 0x00, 0x50, 0x00, 0x00, 0x00, 0x00, 0x00, 0x0e, 0x00,
  0x18, 0x00, 0x08, 0x00, 0x0c, 0x00, 0x10, 0x00, 0x07, 0x00, 0x14, 0x00,
  0x0e, 0x00, 0x00, 0x00, 0x00, 0x00, 0x00, 0x09, 0x01, 0x00, 0x00, 0x00,
  0x1c, 0x00, 0x00, 0x00, 0x10, 0x00, 0x00, 0x00, 0x04, 0x00, 0x00, 0x00,
  0xca, 0xe1, 0xff, 0xff, 0x00, 0x00, 0x80, 0x3f, 0x01, 0x00, 0x00, 0x00,
  0x0a, 0x00, 0x00, 0x00, 0x01, 0x00, 0x00, 0x00, 0x09, 0x00, 0x00, 0x00,
  0x8e, 0xfe, 0xff, 0xff, 0x00, 0x00, 0x00, 0x19, 0x01, 0x00, 0x00, 0x00,
  0x5a, 0xe1, 0xff, 0xff, 0x20, 0x00, 0x00, 0x00, 0x0b, 0x00, 0x00, 0x00,
  0x08, 0x00, 0x00, 0x00, 0x20, 0x00, 0x00, 0x00, 0x08, 0x00, 0x00, 0x00,
  0x49, 0x64, 0x65, 0x6e, 0x74, 0x69, 0x74, 0x79, 0x00, 0x00, 0x00, 0x00,
  0x02, 0x00, 0x00, 0x00, 0x01, 0x00, 0x00, 0x00, 0x0a, 0x00, 0x00, 0x00,
  0x44, 0xe1, 0xff, 0xff, 0x0e, 0xff, 0xff, 0xff, 0x00, 0x00, 0x00, 0x08,
  0x18, 0x00, 0x00, 0x00, 0x0c, 0x00, 0x00, 0x00, 0x04, 0x00, 0x00, 0x00,
  0x5c, 0xe1, 0xff, 0xff, 0x01, 0x00, 0x00, 0x00, 0x09, 0x00, 0x00, 0x00,
  0x03, 0x00, 0x00, 0x00, 0x08, 0x00, 0x00, 0x00, 0x06, 0x00, 0x00, 0x00,
  0x03, 0x00, 0x00, 0x00, 0xbe, 0xe1, 0xff, 0xff, 0x34, 0x00, 0x00, 0x00,
  0x0a, 0x00, 0x00, 0x00, 0x08, 0x00, 0x00, 0x00, 0x34, 0x00, 0x00, 0x00,
  0x1f, 0x00, 0x00, 0x00, 0x73, 0x65, 0x71, 0x75, 0x65, 0x6e, 0x74, 0x69,
  0x61, 0x6c, 0x5f, 0x35, 0x34, 0x2f, 0x64, 0x65, 0x6e, 0x73, 0x65, 0x5f,
  0x32, 0x35, 0x37, 0x2f, 0x42, 0x69, 0x61, 0x73, 0x41, 0x64, 0x64, 0x00,
  0x02, 0x00, 0x00, 0x00, 0x01, 0x00, 0x00, 0x00, 0x0a, 0x00, 0x00, 0x00,
  0xbc, 0xe1, 0xff, 0xff, 0x86, 0xff, 0xff, 0xff, 0x00, 0x00, 0x00, 0x08,
  0x18, 0x00, 0x00, 0x00, 0x0c, 0x00, 0x00, 0x00, 0x04, 0x00, 0x00, 0x00,
  0xd4, 0xe1, 0xff, 0xff, 0x01, 0x00, 0x00, 0x00, 0x08, 0x00, 0x00, 0x00,
  0x03, 0x00, 0x00, 0x00, 0x07, 0x00, 0x00, 0x00, 0x05, 0x00, 0x00, 0x00,
  0x02, 0x00, 0x00, 0x00, 0x36, 0xe2, 0xff, 0xff, 0x34, 0x00, 0x00, 0x00,
  0x09, 0x00, 0x00, 0x00, 0x08, 0x00, 0x00, 0x00, 0x34, 0x00, 0x00, 0x00,
  0x1f, 0x00, 0x00, 0x00, 0x73, 0x65, 0x71, 0x75, 0x65, 0x6e, 0x74, 0x69,
  0x61, 0x6c, 0x5f, 0x35, 0x34, 0x2f, 0x64, 0x65, 0x6e, 0x73, 0x65, 0x5f,
  0x32, 0x35, 0x36, 0x2f, 0x42, 0x69, 0x61, 0x73, 0x41, 0x64, 0x64, 0x00,
  0x02, 0x00, 0x00, 0x00, 0x01, 0x00, 0x00, 0x00, 0x32, 0x00, 0x00, 0x00,
  0x84, 0xe2, 0xff, 0xff, 0x00, 0x00, 0x0e, 0x00, 0x14, 0x00, 0x00, 0x00,
  0x08, 0x00, 0x0c, 0x00, 0x07, 0x00, 0x10, 0x00, 0x0e, 0x00, 0x00, 0x00,
  0x00, 0x00, 0x00, 0x08, 0x18, 0x00, 0x00, 0x00, 0x0c, 0x00, 0x00, 0x00,
  0x04, 0x00, 0x00, 0x00, 0x5c, 0xe2, 0xff, 0xff, 0x01, 0x00, 0x00, 0x00,
  0x07, 0x00, 0x00, 0x00, 0x03, 0x00, 0x00, 0x00, 0x00, 0x00, 0x00, 0x00,
  0x04, 0x00, 0x00, 0x00, 0x01, 0x00, 0x00, 0x00, 0x00, 0x00, 0x0a, 0x00,
  0x0c, 0x00, 0x07, 0x00, 0x00, 0x00, 0x08, 0x00, 0x0a, 0x00, 0x00, 0x00,
  0x00, 0x00, 0x00, 0x09, 0x01, 0x00, 0x00, 0x00, 0xd6, 0xe2, 0xff, 0xff,
  0x34, 0x00, 0x00, 0x00, 0x08, 0x00, 0x00, 0x00, 0x08, 0x00, 0x00, 0x00,
  0x34, 0x00, 0x00, 0x00, 0x1f, 0x00, 0x00, 0x00, 0x73, 0x65, 0x71, 0x75,
  0x65, 0x6e, 0x74, 0x69, 0x61, 0x6c, 0x5f, 0x35, 0x34, 0x2f, 0x64, 0x65,
  0x6e, 0x73, 0x65, 0x5f, 0x32, 0x35, 0x35, 0x2f, 0x42, 0x69, 0x61, 0x73,
  0x41, 0x64, 0x64, 0x00, 0x02, 0x00, 0x00, 0x00, 0x01, 0x00, 0x00, 0x00,
  0x0a, 0x00, 0x00, 0x00, 0xd4, 0xe2, 0xff, 0xff, 0xb2, 0xe3, 0xff, 0xff,
  0x04, 0x00, 0x00, 0x00, 0xd0, 0x07, 0x00, 0x00, 0xb1, 0x13, 0x1b, 0x3e,
  0x48, 0xde, 0x05, 0xbd, 0xf9, 0xe3, 0x5a, 0x3e, 0xf5, 0x14, 0xdb, 0xbd,
  0x15, 0x99, 0x57, 0x3e, 0x06, 0xbc, 0x2d, 0x3e, 0xc5, 0x49, 0xc2, 0xbd,
  0x6d, 0xf1, 0x7f, 0x3e, 0xec, 0x78, 0xe2, 0xbd, 0x3b, 0xc6, 0x1f, 0x3e,
  0xa6, 0xb9, 0xdc, 0x3c, 0xc3, 0xe0, 0x6b, 0xbe, 0x92, 0x93, 0xc4, 0x3e,
  0xd1, 0x96, 0x11, 0x3e, 0x8c, 0x9a, 0xf0, 0x3d, 0x69, 0x5d, 0x87, 0xbe,
  0x81, 0xb7, 0xc0, 0xbc, 0x5a, 0x8d, 0xbd, 0xbd, 0x6c, 0x7d, 0x83, 0xbe,
  0x87, 0x8e, 0xa0, 0x3d, 0x2b, 0x58, 0x82, 0xbe, 0xa7, 0xac, 0x31, 0x3e,
  0x29, 0x42, 0x78, 0x3e, 0x22, 0x04, 0x50, 0x3e, 0x39, 0x3c, 0xa7, 0xbd,
  0x3b, 0x40, 0x9e, 0xbc, 0xda, 0x7a, 0xe2, 0x3d, 0xa0, 0x9d, 0x9c, 0xbe,
  0x69, 0x49, 0x84, 0xbe, 0x81, 0x83, 0x48, 0xbe, 0x37, 0x0b, 0x1d, 0x3e,
  0x4b, 0x79, 0x76, 0x3d, 0xdc, 0xf3, 0x5d, 0x3d, 0xa4, 0xad, 0x0a, 0x3e,
  0x72, 0xd2, 0x79, 0x3d, 0x95, 0xc6, 0xd2, 0xbd, 0x03, 0x41, 0x7c, 0x3e,
  0x37, 0x0a, 0x65, 0xbe, 0x91, 0x0e, 0x73, 0xbe, 0xc4, 0x9d, 0x11, 0xbe,
  0xc8, 0x8d, 0xd4, 0x3c, 0x1c, 0xe4, 0x38, 0xbc, 0x58, 0xe9, 0x47, 0x3c,
  0xf0, 0x8b, 0x1a, 0xbe, 0x50, 0x05, 0x40, 0xbd, 0xa4, 0x59, 0xac, 0x3d,
  0x63, 0x8a, 0x00, 0xbe, 0x0f, 0x2f, 0x4a, 0xbe, 0x50, 0x9d, 0x33, 0x3e,
  0x66, 0x22, 0x8d, 0x3d, 0x41, 0x6d, 0x4d, 0xbe, 0x87, 0x66, 0x67, 0xbd,
  0xe6, 0xd5, 0x82, 0xbe, 0x3f, 0x60, 0x6f, 0xbc, 0xfb, 0xe4, 0xad, 0xbd,
  0xca, 0x98, 0x73, 0xbe, 0xb6, 0x00, 0x1b, 0x3e, 0x0b, 0x31, 0x6a, 0x3e,
  0xcb, 0xe9, 0x1a, 0x3e, 0x77, 0xe6, 0xfb, 0xbc, 0x45, 0x71, 0xe3, 0x3b,
  0x56, 0x9e, 0x97, 0xbe, 0x70, 0x65, 0x93, 0x3e, 0xc3, 0x0b, 0x86, 0xbe,
  0x3c, 0xbd, 0x23, 0x3e, 0x0e, 0xb1, 0xf9, 0x3d, 0xff, 0x2e, 0xa4, 0xbe,
  0xf8, 0xcb, 0x28, 0x3e, 0x08, 0xf7, 0x94, 0x3e, 0xcc, 0x2b, 0x82, 0x3e,
  0x8f, 0x92, 0xeb, 0xbd, 0x97, 0x8d, 0x98, 0xbe, 0x37, 0xc4, 0x89, 0x3e,
  0xa1, 0xb2, 0xa2, 0x3d, 0x39, 0x6d, 0x0e, 0x3c, 0x4d, 0xcc, 0x18, 0x3e,
  0x44, 0x62, 0x25, 0xbe, 0xd1, 0x2f, 0x70, 0x3e, 0xe3, 0x96, 0x32, 0xbd,
  0x3e, 0xfd, 0xed, 0xbd, 0x1f, 0x65, 0x50, 0xbe, 0x74, 0x44, 0x85, 0xbe,
  0xf7, 0x02, 0x3e, 0xbe, 0x96, 0x04, 0xfa, 0xbd, 0x04, 0xcf, 0xb9, 0xbd,
  0x04, 0xa9, 0x5d, 0x3d, 0xfe, 0xd0, 0xdb, 0xbd, 0x46, 0x02, 0x40, 0xbe,
  0x55, 0xd5, 0xf7, 0xbd, 0x90, 0x92, 0x17, 0x3c, 0xec, 0x10, 0x1f, 0xbe,
  0xb6, 0xa0, 0x4d, 0xbe, 0x73, 0xcb, 0x94, 0x3e, 0x02, 0xdc, 0xa7, 0x3c,
  0xc5, 0xae, 0x7d, 0xbd, 0x51, 0x51, 0x90, 0xbd, 0x26, 0xd0, 0x62, 0xbe,
  0xa4, 0xb0, 0x15, 0x3d, 0xdb, 0xb0, 0xf8, 0x3c, 0x80, 0xd7, 0x80, 0xbe,
  0xee, 0x7e, 0xa6, 0x3d, 0xe4, 0x3a, 0x60, 0x3e, 0x76, 0xee, 0x38, 0xbe,
  0x47, 0xcd, 0x9d, 0x3d, 0x8e, 0xea, 0xab, 0xbe, 0xfc, 0xc9, 0x2b, 0xbd,
  0xa7, 0x72, 0x43, 0xbe, 0x09, 0xf2, 0x0f, 0xbe, 0xab, 0x05, 0x35, 0x3e,
  0x92, 0xd5, 0x45, 0x3c, 0xa7, 0xbe, 0x98, 0xbe, 0x84, 0x3e, 0x6f, 0x3e,
  0x88, 0x3b, 0x4c, 0x3e, 0x0f, 0x81, 0x79, 0xbe, 0xd3, 0xfc, 0x19, 0xbb,
  0xe3, 0xc6, 0x08, 0xbd, 0xc5, 0x5d, 0x8a, 0xbe, 0x54, 0xc6, 0xd2, 0xbd,
  0x49, 0x8a, 0x71, 0x3d, 0x23, 0x92, 0x95, 0x3d, 0xf9, 0x39, 0x8f, 0x3e,
  0x1a, 0x2c, 0x03, 0xbd, 0x58, 0xd2, 0x53, 0xbe, 0x42, 0x56, 0x5f, 0xbe,
  0x16, 0x5e, 0x8e, 0xbd, 0xf6, 0xe8, 0x3b, 0x3e, 0xf2, 0x32, 0x84, 0xbe,
  0x3b, 0xcb, 0xad, 0x3c, 0x36, 0xee, 0x12, 0xbe, 0x61, 0x33, 0xb4, 0x3e,
  0xd4, 0x4a, 0xcd, 0xbd, 0xba, 0xaa, 0xaa, 0x3d, 0x34, 0x75, 0xca, 0xbd,
  0xcc, 0x10, 0xd1, 0xbd, 0x29, 0x53, 0x89, 0xbe, 0x0c, 0xb0, 0x62, 0x3e,
  0x80, 0x9a, 0x14, 0x3c, 0x4e, 0x24, 0xee, 0x3a, 0x23, 0x02, 0x01, 0xbe,
  0x03, 0x4a, 0xd4, 0x3d, 0x25, 0xe5, 0xa2, 0xbe, 0x85, 0x9c, 0x9d, 0xbe,
  0x7d, 0xcb, 0x9b, 0xbe, 0x6b, 0x15, 0x0b, 0x3e, 0xf5, 0x89, 0x25, 0xbe,
  0x10, 0xb6, 0xb1, 0x3e, 0xec, 0x41, 0xaa, 0x3d, 0x54, 0xd9, 0xb8, 0xbe,
  0x46, 0xed, 0xaa, 0xbc, 0x7c, 0xe9, 0x9d, 0xbe, 0x40, 0x6a, 0x8d, 0xbd,
  0x10, 0x2f, 0x52, 0x3d, 0x37, 0x9e, 0xf9, 0xbd, 0x8c, 0x45, 0x86, 0xbe,
  0x72, 0x8a, 0x12, 0xbe, 0x66, 0x8f, 0x5b, 0xbe, 0x79, 0xe3, 0x01, 0x3e,
  0x68, 0x1f, 0x63, 0x3e, 0x81, 0xed, 0xa6, 0xbd, 0x51, 0x56, 0xca, 0xbd,
  0x89, 0x58, 0x7f, 0x3d, 0x97, 0xe1, 0x69, 0x3d, 0x66, 0x3b, 0x77, 0xbd,
  0x18, 0x2b, 0x31, 0x3e, 0x5c, 0x77, 0x15, 0xbe, 0xd5, 0xae, 0xac, 0x3e,
  0xda, 0xee, 0x83, 0xbe, 0xb8, 0xfa, 0x71, 0x3e, 0x8f, 0x6e, 0x8a, 0x3e,
  0x52, 0xcd, 0xc7, 0xbd, 0x74, 0x2e, 0x8a, 0x3e, 0x63, 0x6e, 0x2d, 0xbd,
  0x76, 0x61, 0xf4, 0xbc, 0xfe, 0x82, 0x56, 0x3d, 0x56, 0x73, 0x75, 0x3d,
  0x3a, 0x50, 0xea, 0x3d, 0x9b, 0x80, 0x80, 0x3d, 0x0a, 0x9d, 0x71, 0x3c,
  0x21, 0x61, 0x19, 0xbe, 0x30, 0x51, 0x82, 0x3e, 0x4d, 0xc2, 0xbb, 0x3a,
  0xc5, 0x87, 0x09, 0xbe, 0x08, 0xb8, 0x43, 0xbe, 0x42, 0x5d, 0x84, 0xbe,
  0x8a, 0x9e, 0xd5, 0xbd, 0x94, 0xfa, 0x92, 0x3e, 0x62, 0xf5, 0x1f, 0xbe,
  0x36, 0xc5, 0x2e, 0xbe, 0x10, 0x90, 0x0f, 0x3e, 0xc5, 0x82, 0x4f, 0xbe,
  0xfe, 0xc9, 0x58, 0x3d, 0x9d, 0xf5, 0x01, 0x3e, 0x09, 0xaf, 0xa1, 0xbe,
  0xde, 0x96, 0xbd, 0x3d, 0xd6, 0x43, 0xac, 0xbe, 0xfe, 0xbf, 0x54, 0x3e,
  0x3b, 0xde, 0xa9, 0xbe, 0x91, 0xab, 0x8f, 0x3d, 0x53, 0x76, 0x71, 0xbc,
  0x5b, 0x3d, 0xb8, 0xbd, 0x18, 0xee, 0x99, 0x3e, 0xec, 0x13, 0x98, 0x3e,
  0xd5, 0xab, 0x42, 0xbc, 0xb2, 0x28, 0x9e, 0xbe, 0xe6, 0xc7, 0xb0, 0x3e,
  0x52, 0x98, 0xae, 0x3c, 0x29, 0xbd, 0x81, 0xbe, 0x53, 0x45, 0x65, 0xbe,
  0x2d, 0x3b, 0x3f, 0xbe, 0xfe, 0x21, 0x94, 0x3e, 0x6b, 0xb4, 0x6d, 0x3e,
  0xf5, 0xde, 0x11, 0x3e, 0x89, 0xc6, 0x92, 0xbd, 0x30, 0x55, 0x5e, 0x3e,
  0xbe, 0x90, 0x77, 0xbe, 0x25, 0xfe, 0x67, 0x3e, 0x00, 0x88, 0x3e, 0x3e,
  0x29, 0x07, 0x52, 0x3e, 0x07, 0x9b, 0x8b, 0xbd, 0x5c, 0x1b, 0x42, 0xbd,
  0xe2, 0x6a, 0x05, 0x3d, 0xde, 0x4b, 0x39, 0xbe, 0x87, 0xa9, 0x14, 0xbe,
  0x5b, 0x86, 0x9c, 0x3c, 0xa2, 0x0e, 0x3b, 0x3e, 0x8e, 0x34, 0xdb, 0xbd,
  0x20, 0x79, 0xa6, 0x3e, 0x26, 0x33, 0x7a, 0x3e, 0xb8, 0x37, 0x14, 0x3e,
  0xae, 0x45, 0xfb, 0xbd, 0x4c, 0x65, 0x3e, 0xbe, 0xbf, 0xb3, 0x5f, 0xbe,
  0x3e, 0x07, 0x3f, 0xbe, 0x1c, 0xc9, 0x34, 0xbd, 0x1e, 0x4d, 0x55, 0x3e,
  0x50, 0xe7, 0xa5, 0x3e, 0x21, 0xc7, 0x74, 0x3e, 0x50, 0xe6, 0x6a, 0x3e,
  0x65, 0xe2, 0xa2, 0x3d, 0xe2, 0x10, 0x08, 0x3e, 0x87, 0xa9, 0xa7, 0xbd,
  0x18, 0xbf, 0xd9, 0x3d, 0x12, 0xcc, 0x00, 0xbe, 0x5e, 0x48, 0x84, 0xbd,
  0x89, 0xc9, 0xde, 0xbd, 0xfc, 0x3e, 0x2f, 0x3e, 0x40, 0xc1, 0xca, 0x3d,
  0x89, 0x59, 0x2c, 0xbe, 0x0d, 0x6a, 0xd3, 0x3d, 0x56, 0x4d, 0x7d, 0x3e,
  0xca, 0xcf, 0x46, 0x3e, 0xf9, 0x92, 0x83, 0x3e, 0x53, 0x50, 0x55, 0xbe,
  0xe1, 0x1a, 0x3a, 0xbe, 0x9a, 0x6d, 0x80, 0xbb, 0x9a, 0xd9, 0x82, 0xbc,
  0x53, 0xba, 0xbb, 0x3b, 0x1a, 0x12, 0x49, 0x3e, 0x60, 0x55, 0x5e, 0xbd,
  0xaf, 0x0d, 0x39, 0xbe, 0xa0, 0xf2, 0x47, 0x3c, 0x2e, 0xd6, 0x7d, 0x3e,
  0x69, 0x5b, 0x20, 0x3e, 0x69, 0x4f, 0xf7, 0xbd, 0x35, 0xd9, 0x2e, 0x3e,
  0x50, 0xbd, 0x88, 0x3d, 0x4e, 0xb8, 0x68, 0xbe, 0x7f, 0xca, 0xbc, 0x3d,
  0x1d, 0x28, 0x3b, 0x3e, 0x5b, 0x2e, 0xfe, 0x3d, 0xa6, 0x34, 0x67, 0xbc,
  0x6e, 0xfe, 0x2a, 0x3d, 0xff, 0x20, 0x4e, 0x3e, 0x4d, 0xe1, 0xa8, 0xbc,
  0x99, 0x70, 0x48, 0xbe, 0x06, 0xda, 0x73, 0x3e, 0x35, 0x18, 0xf6, 0x3d,
  0x4d, 0x5a, 0x7d, 0xbe, 0xec, 0xdf, 0x89, 0x3e, 0x1e, 0xcb, 0x69, 0x3e,
  0x72, 0x33, 0xbc, 0x3e, 0x25, 0x43, 0x4e, 0xbe, 0xac, 0x63, 0x20, 0xbe,
  0x97, 0x5d, 0xa5, 0x3e, 0xc4, 0xfd, 0x98, 0xbe, 0xb8, 0x11, 0x1e, 0xbd,
  0x65, 0x49, 0x75, 0xbe, 0x38, 0x2b, 0x3a, 0x3e, 0x43, 0x04, 0x0d, 0x3d,
  0x2a, 0x35, 0x67, 0xbe, 0xe4, 0xfe, 0x8c, 0x3e, 0x53, 0xc9, 0xa2, 0xbe,
  0x72, 0x5a, 0x55, 0xbd, 0x31, 0x47, 0x32, 0x3e, 0xfb, 0x48, 0x67, 0xbe,
  0xd7, 0xb4, 0x64, 0xbe, 0x6c, 0xd7, 0xfc, 0x3c, 0xe8, 0xd3, 0x3e, 0xbe,
  0x04, 0xc2, 0x73, 0xbe, 0xa7, 0xe5, 0x3e, 0x3e, 0xc0, 0x57, 0x31, 0x3e,
  0xfe, 0xd7, 0x33, 0xbe, 0xd9, 0xa0, 0x1a, 0xbe, 0xfd, 0x7c, 0x89, 0xbe,
  0xb0, 0x34, 0x6a, 0x3d, 0x7a, 0xfb, 0x19, 0x3d, 0x3f, 0x1b, 0x7f, 0x3e,
  0x09, 0x9d, 0xa3, 0xbc, 0xa5, 0x89, 0x24, 0xbe, 0x09, 0x5c, 0xc8, 0x3d,
  0x4d, 0xf9, 0x06, 0xbe, 0x69, 0x31, 0xec, 0x3d, 0x51, 0x96, 0x85, 0xbe,
  0x88, 0xb3, 0xa9, 0x3e, 0x51, 0xe8, 0x82, 0x3e, 0x3c, 0x1d, 0x1a, 0xbe,
  0xfd, 0x8d, 0x18, 0xbe, 0xc5, 0xb3, 0x83, 0x3e, 0x4d, 0x0f, 0x60, 0x3e,
  0x08, 0x4c, 0x87, 0xbe, 0xf9, 0x16, 0xb6, 0x3d, 0x4b, 0x0c, 0xd8, 0x3d,
  0x97, 0x6d, 0x82, 0xbe, 0xc2, 0xab, 0xd1, 0xbc, 0xe6, 0x34, 0x95, 0xbd,
  0xa3, 0xf0, 0x64, 0xbe, 0x36, 0xaf, 0xf4, 0x3d, 0x66, 0x1f, 0x92, 0x3e,
  0x27, 0x63, 0x9f, 0xbd, 0x84, 0x76, 0x5f, 0x3e, 0x82, 0xa6, 0x5b, 0x3e,
  0x5e, 0x3d, 0x4b, 0xbe, 0xef, 0xbc, 0xc9, 0x3c, 0x34, 0xbd, 0xa1, 0xbe,
  0x31, 0xfe, 0x3f, 0x3e, 0x8f, 0x81, 0xd3, 0x3d, 0x4c, 0xe2, 0xa3, 0x3c,
  0xec, 0xec, 0x6d, 0x3c, 0x7c, 0xf1, 0x2b, 0x3e, 0x8f, 0xa1, 0x25, 0xbe,
  0xd7, 0x9d, 0x9f, 0xbe, 0x25, 0x82, 0x80, 0x3d, 0x97, 0x68, 0x8c, 0xbd,
  0x57, 0xff, 0x29, 0xbc, 0x16, 0x40, 0x85, 0x3e, 0xff, 0xcb, 0x2f, 0x3e,
  0x84, 0x16, 0x08, 0x3e, 0x32, 0x7e, 0x0a, 0xbe, 0x6f, 0x1c, 0xa7, 0x3c,
  0x02, 0x75, 0xe2, 0xbd, 0xd3, 0xc6, 0x60, 0x3e, 0xae, 0x5e, 0x16, 0x3e,
  0x1a, 0x3d, 0x26, 0x3e, 0x5e, 0xe2, 0xe6, 0x3d, 0x97, 0x9a, 0x25, 0xbe,
  0x80, 0x5c, 0x6c, 0xbe, 0xd0, 0x39, 0x90, 0xbe, 0x6a, 0xff, 0x03, 0x3e,
  0x70, 0x2c, 0x9a, 0xbd, 0xd9, 0x2c, 0x88, 0xbe, 0xed, 0x57, 0x62, 0xbe,
  0xfd, 0xf9, 0x8a, 0x3e, 0xbd, 0xb3, 0x22, 0xbe, 0x8f, 0x2c, 0x37, 0xbd,
  0x60, 0x58, 0x26, 0x3e, 0x64, 0x85, 0x8f, 0x3e, 0xb6, 0x76, 0x7c, 0xbe,
  0x30, 0xa0, 0x45, 0xbe, 0x11, 0x26, 0x0a, 0x3e, 0x5b, 0xa8, 0x73, 0x3d,
  0xe6, 0x60, 0xd8, 0x3d, 0x74, 0x3f, 0x93, 0xbd, 0x30, 0xce, 0x8d, 0xbc,
  0x27, 0xf1, 0x20, 0x3d, 0x1f, 0x48, 0x83, 0x3e, 0x0e, 0xe6, 0x73, 0xbe,
  0x3a, 0x58, 0x0d, 0x3e, 0x7a, 0x97, 0x45, 0x3d, 0x33, 0xff, 0x06, 0x3d,
  0xe9, 0x4c, 0x46, 0x3e, 0xfd, 0x16, 0x1b, 0xbe, 0x3e, 0xb0, 0x45, 0xbe,
  0xa0, 0x0e, 0x9d, 0xbd, 0x69, 0x6f, 0xa3, 0xbe, 0x91, 0xcd, 0x6d, 0x3e,
  0x5d, 0x68, 0xd5, 0xbd, 0x4b, 0xfd, 0xac, 0x3d, 0xc5, 0x29, 0xfd, 0xbc,
  0xef, 0xee, 0x54, 0x3e, 0x56, 0x17, 0x1e, 0x3e, 0x03, 0xf6, 0xab, 0x3a,
  0xc4, 0x24, 0x4a, 0xbd, 0x3f, 0x74, 0x82, 0x3c, 0x78, 0xbc, 0x5d, 0x3b,
  0x99, 0xd0, 0x95, 0xbd, 0xe9, 0x10, 0xa1, 0x3d, 0xd0, 0x07, 0x90, 0x3e,
  0xba, 0x2a, 0x7e, 0xbd, 0x78, 0x26, 0xab, 0xbd, 0x1e, 0x6f, 0x03, 0x3e,
  0x35, 0x18, 0x06, 0x3e, 0x0e, 0x75, 0x88, 0x3e, 0x21, 0x6f, 0xa5, 0x3e,
  0x9a, 0x03, 0x77, 0xbe, 0xe4, 0x36, 0x7c, 0xbe, 0x6b, 0x39, 0x1c, 0xbd,
  0xc1, 0xe4, 0x84, 0xbd, 0xdc, 0x3f, 0x96, 0x3e, 0x32, 0xb9, 0x80, 0x3e,
  0x60, 0x90, 0x29, 0xbe, 0x19, 0xea, 0xd6, 0x3d, 0x12, 0x83, 0x53, 0x3e,
  0xb6, 0x17, 0x81, 0x3e, 0x3e, 0x41, 0x91, 0x3d, 0xf5, 0x65, 0x42, 0xbd,
  0xac, 0x64, 0x3e, 0xbe, 0x5b, 0x3f, 0xae, 0xbd, 0x9b, 0xcc, 0x48, 0xbd,
  0x8d, 0xac, 0x1e, 0x3e, 0xcc, 0xe9, 0xa1, 0xbe, 0x6e, 0x31, 0x97, 0xbd,
  0x7d, 0x34, 0x86, 0x3e, 0xf9, 0x17, 0x4b, 0xbb, 0x6b, 0xf5, 0x75, 0xbe,
  0x75, 0xc8, 0xa7, 0x3e, 0x40, 0x3b, 0xe9, 0x3d, 0x6d, 0xd4, 0x74, 0xbe,
  0x9f, 0xbc, 0x6e, 0x3e, 0xce, 0x73, 0x3f, 0x3d, 0x4f, 0x5f, 0x48, 0x3e,
  0xf0, 0xd8, 0x5e, 0xbd, 0x12, 0x02, 0x15, 0xbe, 0x8f, 0xca, 0x64, 0xbd,
  0xe8, 0x28, 0xde, 0xbd, 0x81, 0x6e, 0x64, 0xbe, 0x8b, 0x83, 0x69, 0xba,
  0x27, 0x13, 0x10, 0xbe, 0xb6, 0x31, 0xf8, 0x3d, 0xcf, 0x8b, 0x72, 0x3e,
  0xb3, 0x5d, 0xa0, 0x3e, 0x07, 0xb5, 0x15, 0xbe, 0x9b, 0x7c, 0x70, 0xbe,
  0x81, 0x2a, 0x46, 0xbe, 0x4e, 0xe1, 0x30, 0xbe, 0xf5, 0x98, 0x37, 0xbe,
  0xdd, 0xe1, 0x5d, 0x3d, 0x20, 0xb1, 0x24, 0xbe, 0x14, 0x98, 0x22, 0x3d,
  0x89, 0x2e, 0x3c, 0x3e, 0x7f, 0x66, 0x7b, 0xbe, 0xdf, 0xdd, 0xcd, 0xbd,
  0x4a, 0xbf, 0xd5, 0x3d, 0xc5, 0x1c, 0x26, 0xbd, 0x0c, 0xc3, 0x1e, 0x3e,
  0xb3, 0x6c, 0x6a, 0xbd, 0xea, 0xc2, 0x2e, 0xbe, 0xed, 0x1c, 0x73, 0x3d,
  0xc8, 0xe4, 0xb7, 0xbe, 0xbc, 0x17, 0xe8, 0xbd, 0xa7, 0xe8, 0x20, 0x3e,
  0xa3, 0x4c, 0x84, 0x3c, 0xc0, 0x12, 0xe2, 0xbd, 0xec, 0x8b, 0x82, 0xbd,
  0x40, 0x66, 0xaa, 0x3d, 0xe7, 0x06, 0x51, 0xbd, 0x20, 0x0a, 0x24, 0x3e,
  0x2d, 0xdb, 0xb7, 0xbd, 0x5b, 0x53, 0x8f, 0xbd, 0x60, 0xd3, 0x9e, 0x3e,
  0x16, 0xd7, 0x2d, 0x3e, 0x2f, 0xb0, 0xed, 0xbc, 0x5b, 0xf2, 0x4c, 0xbe,
  0xde, 0xa3, 0x8d, 0x3d, 0x98, 0x72, 0x05, 0x3a, 0x5d, 0x6a, 0x87, 0x3e,
  0xa2, 0xcb, 0xb6, 0x3d, 0x14, 0x2d, 0xfb, 0x3d, 0xf4, 0xe7, 0x83, 0xbd,
  0x81, 0x6b, 0xde, 0xbd, 0x72, 0x1a, 0x2a, 0xbe, 0x34, 0xd2, 0x23, 0xbe,
  0x46, 0x02, 0x4a, 0xbe, 0xe5, 0xa1, 0x8d, 0x3d, 0xf3, 0x83, 0x7d, 0x3d,
  0x64, 0x6b, 0xf8, 0xbb, 0x58, 0xd9, 0xb2, 0xbd, 0xa7, 0x55, 0x56, 0x3e,
  0x4d, 0xd5, 0x8d, 0xbe, 0x93, 0x76, 0xc8, 0xbd, 0x5e, 0xa2, 0x01, 0xbe,
  0x93, 0x5d, 0xa3, 0x3e, 0x33, 0x4b, 0x71, 0xbd, 0xc3, 0x5d, 0x9a, 0x3e,
  0x7a, 0x5a, 0x9d, 0xbd, 0x28, 0x31, 0xe0, 0xbc, 0x7a, 0x54, 0x15, 0xbd,
  0xa4, 0xee, 0x15, 0x3d, 0x4c, 0x64, 0x25, 0xbe, 0xa4, 0xe7, 0x83, 0x3a,
  0x66, 0xbd, 0x8d, 0x3e, 0xfa, 0xea, 0xff, 0xff, 0x34, 0x00, 0x00, 0x00,
  0x07, 0x00, 0x00, 0x00, 0x08, 0x00, 0x00, 0x00, 0x34, 0x00, 0x00, 0x00,
  0x1e, 0x00, 0x00, 0x00, 0x73, 0x65, 0x71, 0x75, 0x65, 0x6e, 0x74, 0x69,
  0x61, 0x6c, 0x5f, 0x35, 0x34, 0x2f, 0x64, 0x65, 0x6e, 0x73, 0x65, 0x5f,
  0x32, 0x35, 0x37, 0x2f, 0x4d, 0x61, 0x74, 0x4d, 0x75, 0x6c, 0x00, 0x00,
  0x02, 0x00, 0x00, 0x00, 0x0a, 0x00, 0x00, 0x00, 0x32, 0x00, 0x00, 0x00,
  0xf8, 0xea, 0xff, 0xff, 0xd6, 0xeb, 0xff, 0xff, 0x04, 0x00, 0x00, 0x00,
  0xd0, 0x07, 0x00, 0x00, 0xdb, 0x96, 0x87, 0x3e, 0x58, 0xdf, 0xfb, 0x3a,
  0xaa, 0xca, 0x04, 0xbc, 0xa1, 0xd8, 0x62, 0xbe, 0x9d, 0x8b, 0x8a, 0x3d,
  0x6a, 0x71, 0xa3, 0xbe, 0x6c, 0x8e, 0x60, 0x3e, 0x22, 0xf7, 0xb1, 0xbd,
  0x25, 0x34, 0x8c, 0x3d, 0xcb, 0xc6, 0xd4, 0xbd, 0xaf, 0xa0, 0x3d, 0xbd,
  0xad, 0xab, 0x34, 0xbe, 0x8c, 0x87, 0xbb, 0xbd, 0x96, 0x8d, 0x17, 0x3d,
  0x92, 0x7b, 0x4e, 0xbd, 0x99, 0x55, 0x80, 0x3e, 0x5e, 0x16, 0x83, 0x3e,
  0x6e, 0x8a, 0xb6, 0x3d, 0xe7, 0xf7, 0x39, 0x3e, 0xa0, 0x1c, 0x93, 0xbd,
  0xf9, 0xc1, 0xe9, 0xbd, 0x87, 0x57, 0x04, 0xbd, 0xee, 0x7a, 0x18, 0xbe,
  0x40, 0x1e, 0xb6, 0xbd, 0x03, 0xe7, 0x93, 0xbc, 0x14, 0xc0, 0x30, 0xbd,
  0xf6, 0x8d, 0x4b, 0x3e, 0x96, 0x4a, 0x9c, 0xbe, 0x15, 0x20, 0xaa, 0x3d,
  0x9b, 0xa6, 0x98, 0x3d, 0x8c, 0x1c, 0x3a, 0x3d, 0x9b, 0xf2, 0x6e, 0xbe,
  0xfd, 0xe3, 0x03, 0x3c, 0x81, 0xf5, 0x1c, 0xbd, 0xdb, 0xc1, 0x1d, 0x3e,
  0xc1, 0x54, 0x86, 0x3e, 0x39, 0x3f, 0xb3, 0x3d, 0x08, 0xff, 0x3a, 0xbd,
  0x63, 0xdd, 0x8f, 0x3e, 0x59, 0xab, 0xee, 0x3d, 0x31, 0x2e, 0x7b, 0xbe,
  0x52, 0xf4, 0x7e, 0xbb, 0x0c, 0x2c, 0x98, 0x3e, 0xe1, 0xe1, 0x20, 0x3e,
  0x12, 0x81, 0x16, 0x3e, 0xd9, 0x6d, 0x7d, 0x3d, 0x55, 0xcf, 0x94, 0xbe,
  0x11, 0xeb, 0xaf, 0xbd, 0x95, 0xdb, 0x86, 0xbc, 0x91, 0x42, 0xa2, 0xbe,
  0xab, 0x09, 0x8e, 0xbe, 0xc0, 0x94, 0x41, 0x3e, 0xd6, 0xf6, 0x96, 0x3d,
  0x8c, 0x88, 0xa5, 0x3e, 0x5b, 0x7e, 0x55, 0x3e, 0x5a, 0x51, 0x3d, 0xbe,
  0x7a, 0x11, 0x23, 0x3e, 0xf8, 0x6d, 0x16, 0x3d, 0xd3, 0x4a, 0x5a, 0x3d,
  0x19, 0xd2, 0x1d, 0x3e, 0xd2, 0x24, 0x92, 0xbe, 0x0b, 0xef, 0x6c, 0xbd,
  0xd8, 0xf3, 0x81, 0x3e, 0x3d, 0xdb, 0xda, 0xbd, 0x63, 0x57, 0x1c, 0xbe,
  0x84, 0x59, 0x86, 0xbe, 0x4b, 0x5d, 0x75, 0x3e, 0x1e, 0xd5, 0x83, 0xbd,
  0x0f, 0x96, 0xf8, 0x3c, 0x22, 0xc9, 0x8a, 0xbd, 0xe4, 0xe1, 0x62, 0xbe,
  0xd0, 0x62, 0x72, 0xbe, 0x32, 0xf9, 0xbc, 0x3e, 0x13, 0x6e, 0x01, 0x3e,
  0x11, 0xcd, 0x55, 0x3e, 0x27, 0xe0, 0xd4, 0x3c, 0xe5, 0x61, 0x36, 0x3e,
  0x4f, 0xc3, 0x92, 0xbd, 0xc8, 0x65, 0x99, 0xbc, 0x2f, 0x4d, 0x89, 0xbe,
  0xb7, 0x01, 0xf3, 0xbc, 0xe7, 0x8d, 0x34, 0x3e, 0xdf, 0x68, 0x5c, 0x3d,
  0xe9, 0x57, 0x74, 0x3e, 0x13, 0x1b, 0x31, 0xbe, 0xcb, 0x5a, 0xcf, 0xbd,
  0xce, 0x05, 0x5b, 0xbe, 0x60, 0x69, 0x01, 0xbe, 0xac, 0x32, 0x4a, 0xbe,
  0xdd, 0xd1, 0x9c, 0xbd, 0x9b, 0xd7, 0xf3, 0x3d, 0x8a, 0xb3, 0x83, 0x3e,
  0xf6, 0xfb, 0x8f, 0xbe, 0x88, 0x04, 0x63, 0x3e, 0x6e, 0xc6, 0x91, 0x3e,
  0x8f, 0x4c, 0xba, 0xbd, 0x60, 0xef, 0x89, 0x3c, 0xc9, 0xdc, 0x14, 0x3e,
  0x04, 0x9b, 0x66, 0x3c, 0xdb, 0x50, 0x81, 0x3e, 0x2a, 0x2b, 0x01, 0xbe,
  0x3f, 0x92, 0x57, 0xbe, 0x41, 0x8c, 0x7b, 0xbe, 0x7c, 0x04, 0x60, 0xbe,
  0x4b, 0x72, 0x73, 0xbd, 0x1b, 0xb0, 0x86, 0x3d, 0x29, 0xf5, 0x2d, 0xbe,
  0x3b, 0x4b, 0xda, 0xbd, 0x2e, 0x16, 0xd3, 0x3d, 0xa2, 0x00, 0x22, 0xba,
  0x44, 0x8f, 0x63, 0xbe, 0xbe, 0xab, 0x97, 0xbd, 0x74, 0x29, 0xa0, 0x3d,
  0xfc, 0x94, 0x4d, 0xbe, 0x88, 0xc1, 0x5a, 0x3e, 0xce, 0x51, 0x4e, 0x3e,
  0x4b, 0xb5, 0x4b, 0x3e, 0x13, 0x29, 0x79, 0x3e, 0xf1, 0x81, 0x0e, 0x3e,
  0x31, 0x9f, 0xa3, 0xbe, 0x67, 0x0e, 0x3d, 0xbe, 0x20, 0xe5, 0x90, 0x3c,
  0x0b, 0xf5, 0x71, 0xbe, 0x75, 0x06, 0x0e, 0x3e, 0xea, 0x4a, 0x0f, 0xbe,
  0xf0, 0xcb, 0x7b, 0xbd, 0x24, 0xc6, 0x45, 0x3e, 0x4e, 0x62, 0x27, 0x3c,
  0x3e, 0xda, 0x76, 0x3d, 0x57, 0x96, 0x3d, 0xbd, 0xde, 0xd1, 0x94, 0x3e,
  0x10, 0x61, 0xf1, 0xbd, 0x1e, 0x6b, 0xb5, 0xbd, 0x59, 0xd0, 0x03, 0xbd,
  0x08, 0xe7, 0x6e, 0x3c, 0x40, 0x9d, 0x3b, 0xbe, 0x5d, 0x9d, 0x2e, 0x3e,
  0x54, 0xf7, 0x9a, 0xbe, 0xf1, 0x1a, 0x0f, 0x3c, 0x9b, 0xf0, 0xfe, 0x3c,
  0xca, 0x4f, 0x1e, 0x3e, 0xdb, 0xca, 0x59, 0xbe, 0x0c, 0x69, 0x3c, 0xbd,
  0xf4, 0x24, 0x0d, 0xbe, 0x2e, 0xf9, 0xab, 0x3d, 0x58, 0xdb, 0x84, 0xbe,
  0xd0, 0xb3, 0x32, 0x3b, 0x30, 0x2f, 0x75, 0x3e, 0xa4, 0x19, 0x32, 0x3e,
  0x24, 0xf6, 0x52, 0xbd, 0x41, 0x03, 0x4a, 0xbe, 0xa9, 0x36, 0x86, 0xbe,
  0x0a, 0xc1, 0x58, 0xbe, 0xca, 0xd7, 0x27, 0xb9, 0x70, 0x32, 0x2c, 0xbe,
  0x1f, 0x47, 0x85, 0x3e, 0x51, 0xd3, 0x89, 0x3d, 0x04, 0x11, 0xa8, 0x3e,
  0x73, 0xeb, 0x87, 0xbe, 0x56, 0x58, 0xe8, 0xbd, 0x84, 0xb6, 0x80, 0x3e,
  0xb0, 0xee, 0x18, 0x3e, 0x9a, 0x18, 0x84, 0xbe, 0xfd, 0xf9, 0x45, 0x3e,
  0xf9, 0x7d, 0x44, 0x3c, 0x4e, 0xc8, 0x8e, 0xbd, 0x84, 0x7d, 0x43, 0x3e,
  0x23, 0x03, 0x81, 0xbe, 0x6d, 0x92, 0xd1, 0x3d, 0xd4, 0x5a, 0xa0, 0xbc,
  0x52, 0x44, 0xdb, 0x3d, 0x5a, 0xd7, 0x39, 0xbe, 0xf8, 0xdc, 0x85, 0xbd,
  0x3d, 0x02, 0xcf, 0xbd, 0xcb, 0x5a, 0x80, 0x3e, 0xfc, 0x5b, 0x5d, 0x3d,
  0x96, 0xfb, 0xbe, 0x3d, 0x8c, 0xd9, 0xb3, 0xbd, 0xb2, 0x21, 0x90, 0x3e,
  0xcc, 0xb5, 0x7c, 0x3e, 0xdc, 0xf9, 0x3c, 0x3d, 0x13, 0x14, 0x46, 0xbe,
  0x23, 0xcf, 0x81, 0x3e, 0x91, 0xaf, 0xf7, 0x3d, 0x29, 0xf6, 0x85, 0xbe,
  0x27, 0xb5, 0x74, 0xbd, 0x31, 0xe7, 0x93, 0x3e, 0xd3, 0xbc, 0x07, 0x3e,
  0x8c, 0xf6, 0x87, 0xbe, 0xb5, 0x30, 0xd1, 0xbc, 0xad, 0x92, 0x23, 0xbe,
  0x7c, 0x01, 0x22, 0xbe, 0x5a, 0x0c, 0x0a, 0xbe, 0x8f, 0x8f, 0x72, 0xbe,
  0x1a, 0x79, 0x03, 0xbe, 0x3f, 0x07, 0x98, 0xbc, 0x90, 0x8a, 0xd8, 0x3d,
  0xf4, 0xbe, 0x96, 0x3e, 0x34, 0x93, 0x37, 0x3e, 0xac, 0x3c, 0x98, 0xbd,
  0x55, 0xf7, 0x80, 0x3e, 0x34, 0x69, 0x30, 0x3e, 0x25, 0xe3, 0x80, 0x3e,
  0x6a, 0x36, 0x23, 0x3e, 0x89, 0x6d, 0x63, 0xbe, 0x3a, 0x25, 0x0d, 0xbe,
  0x1d, 0xad, 0xad, 0xbd, 0x59, 0x16, 0x83, 0xbe, 0xc4, 0x14, 0x0d, 0x3e,
  0x53, 0x44, 0x1e, 0xbe, 0xcc, 0x72, 0x7a, 0x3d, 0xf6, 0x14, 0x4d, 0xbe,
  0xe0, 0x43, 0xd8, 0x3d, 0x09, 0x74, 0x72, 0x3e, 0x30, 0x4c, 0x76, 0xbe,
  0xca, 0xcf, 0x59, 0x3e, 0xe5, 0x06, 0x31, 0xbe, 0xf0, 0xa8, 0x05, 0xbd,
  0xd8, 0x7a, 0xa1, 0x3d, 0xd9, 0xcf, 0x76, 0xbe, 0x79, 0xf6, 0x5b, 0xbe,
  0x4a, 0x6e, 0xff, 0xbd, 0xb4, 0xc2, 0x2e, 0x3b, 0xd2, 0xd6, 0x23, 0xbe,
  0x48, 0x1f, 0x75, 0x3e, 0x30, 0xf9, 0x59, 0xbe, 0x99, 0xe7, 0x9e, 0x3e,
  0x26, 0xce, 0xa2, 0x3c, 0xe9, 0x5f, 0x08, 0x3c, 0xcc, 0x68, 0x9f, 0xbd,
  0x41, 0x12, 0x2a, 0x3c, 0x5d, 0xdd, 0x02, 0xbe, 0x85, 0xc9, 0x22, 0x3e,
  0x3d, 0xb3, 0x43, 0x3e, 0xd0, 0xa9, 0xb6, 0x3d, 0xfd, 0x70, 0x1b, 0x3e,
  0x93, 0xac, 0x8c, 0xbe, 0xae, 0x3d, 0x26, 0x3d, 0x09, 0xe8, 0x1f, 0xbe,
  0x58, 0xb1, 0x79, 0xbe, 0x89, 0x1a, 0x2c, 0x3e, 0xe4, 0x55, 0x49, 0xbd,
  0xaa, 0x44, 0x12, 0x3e, 0x01, 0x5b, 0x8a, 0xbe, 0x0c, 0xff, 0x52, 0xbd,
  0xda, 0x13, 0x82, 0xbd, 0xc7, 0x88, 0x27, 0xbc, 0x18, 0x5f, 0x51, 0xbe,
  0xab, 0x46, 0x8d, 0xbe, 0x35, 0x3d, 0xc3, 0xbe, 0x1c, 0x96, 0x99, 0x3e,
  0x2d, 0xd6, 0x2d, 0x3d, 0xbd, 0xa8, 0xa0, 0xbc, 0xf3, 0xdf, 0xa3, 0xbe,
  0xb2, 0xa7, 0x21, 0x3e, 0x1c, 0x2f, 0x5b, 0x3e, 0x18, 0x4a, 0xa1, 0x3d,
  0x90, 0x1a, 0x19, 0xbe, 0x82, 0x23, 0x45, 0x3d, 0x38, 0xe7, 0x8b, 0x3e,
  0x05, 0x31, 0x68, 0x3e, 0x80, 0x74, 0xa8, 0xbe, 0xb9, 0xae, 0x55, 0xbd,
  0xa3, 0xdf, 0x52, 0xbe, 0xbf, 0x1e, 0xb4, 0x3e, 0x6c, 0x3b, 0x76, 0xbe,
  0x9c, 0xbe, 0x00, 0x3e, 0x3e, 0x01, 0x64, 0xbe, 0x0c, 0x97, 0xbc, 0xbc,
  0x56, 0xc7, 0x6a, 0xbe, 0x2a, 0x62, 0x73, 0xbe, 0xae, 0x18, 0x4e, 0xbe,
  0xba, 0xb5, 0xd1, 0x3c, 0xfd, 0x75, 0xdd, 0xbd, 0xf5, 0xc7, 0xa7, 0x3e,
  0x21, 0x19, 0x78, 0xbe, 0x70, 0xf0, 0x95, 0xbe, 0x9b, 0xa6, 0xaf, 0xbe,
  0x7d, 0x8f, 0xde, 0x3d, 0x38, 0x6e, 0x8e, 0x3e, 0xa8, 0x3f, 0x23, 0xbe,
  0x29, 0x24, 0x85, 0x3e, 0x16, 0x80, 0x4b, 0x3e, 0xf8, 0xc1, 0x91, 0xb9,
  0xd2, 0xfa, 0x29, 0x3b, 0x3b, 0x01, 0x33, 0xbe, 0x1c, 0x4a, 0x09, 0x3e,
  0xe0, 0x1d, 0x5d, 0xbd, 0xfa, 0x5b, 0xb9, 0x3d, 0xb8, 0xc9, 0x1d, 0xbe,
  0x6f, 0xd9, 0x07, 0xbe, 0x4a, 0xee, 0x4e, 0xbe, 0x87, 0xc0, 0xcd, 0xbd,
  0xed, 0xab, 0x96, 0xbe, 0xd4, 0xdd, 0x7e, 0xbe, 0x4b, 0x92, 0x28, 0xbe,
  0x9b, 0xc3, 0x6c, 0x3e, 0x53, 0xbc, 0x7d, 0x3d, 0xfe, 0xc0, 0xff, 0xbd,
  0x8b, 0x99, 0x53, 0xbe, 0x5c, 0xb8, 0xb6, 0x3c, 0xe0, 0x91, 0x61, 0x3e,
  0x7e, 0xa2, 0x81, 0x3e, 0x60, 0x49, 0x5e, 0xbd, 0x56, 0x4b, 0x0d, 0xbe,
  0x19, 0xfa, 0xac, 0xbe, 0x60, 0x70, 0x8e, 0xbe, 0xe6, 0x79, 0x86, 0x3d,
  0x70, 0x71, 0x76, 0xbc, 0xbe, 0xf8, 0x17, 0xbd, 0x08, 0x38, 0xdd, 0xbd,
  0xeb, 0x94, 0x97, 0x3d, 0x7d, 0xee, 0x8d, 0xbe, 0x68, 0x6b, 0x78, 0xbe,
  0x3e, 0xd6, 0xb9, 0xbe, 0x47, 0x8d, 0x1f, 0x3e, 0x11, 0x64, 0x81, 0x3e,
  0x20, 0x52, 0x33, 0x3e, 0x5a, 0x19, 0x39, 0x3e, 0x07, 0x90, 0x9b, 0x3e,
  0x8d, 0x0b, 0x28, 0x3e, 0x87, 0x11, 0x2c, 0x3e, 0xf1, 0xb4, 0x2e, 0x3e,
  0x68, 0xad, 0x1e, 0xbe, 0x86, 0x80, 0xac, 0xbd, 0xb2, 0xeb, 0x21, 0x3e,
  0x5c, 0x49, 0xac, 0x3c, 0x95, 0x13, 0x67, 0x3e, 0x33, 0xca, 0xf2, 0xbd,
  0x77, 0x27, 0x49, 0xbe, 0x92, 0x16, 0x6d, 0xbe, 0xb6, 0x6e, 0x3a, 0xbe,
  0x28, 0x54, 0x9f, 0x3e, 0x81, 0x99, 0x17, 0x3e, 0xea, 0x61, 0x8c, 0xbe,
  0x40, 0x2c, 0x51, 0xbe, 0xbb, 0x8a, 0x00, 0xbe, 0x38, 0x98, 0x79, 0x3e,
  0xc7, 0x72, 0x8b, 0xbd, 0x9a, 0x1e, 0x3b, 0x3e, 0x14, 0xd1, 0x79, 0x3e,
  0x44, 0xb9, 0x20, 0x3e, 0xbd, 0x8b, 0x6d, 0xbe, 0x33, 0x5d, 0x8c, 0xbe,
  0x09, 0x51, 0x61, 0xbe, 0x10, 0xcc, 0x8e, 0xbe, 0x32, 0x25, 0x32, 0x3e,
  0xbb, 0x91, 0x33, 0xbd, 0x3d, 0x35, 0x25, 0x3e, 0x0a, 0x20, 0x7e, 0x3e,
  0x5d, 0x6a, 0x19, 0xbe, 0x8d, 0xc3, 0xb6, 0xbe, 0x4d, 0x0a, 0x8f, 0x3e,
  0x23, 0xf0, 0x5b, 0xba, 0x0f, 0x99, 0xec, 0x3d, 0x92, 0x01, 0xab, 0xbc,
  0x72, 0x6b, 0x14, 0xbd, 0x32, 0xe1, 0xa7, 0x3e, 0x2d, 0x3c, 0x25, 0x3e,
  0xaa, 0xae, 0x6b, 0xbe, 0xa8, 0xa2, 0xab, 0xbe, 0xe6, 0xe6, 0xff, 0x3b,
  0x2c, 0x87, 0xf6, 0x3b, 0x53, 0x81, 0x79, 0x3d, 0x5f, 0xaa, 0x79, 0x3e,
  0x12, 0x74, 0x6b, 0x3e, 0xab, 0x1d, 0x5d, 0x3d, 0xf7, 0x04, 0x12, 0x3d,
  0x64, 0x8a, 0xc9, 0xba, 0xd1, 0xf4, 0x07, 0x3d, 0x37, 0x6a, 0x6b, 0xbe,
  0xc4, 0x21, 0x34, 0x3e, 0x84, 0xd9, 0x3f, 0xbe, 0xb5, 0x08, 0xf3, 0xbd,
  0x7e, 0x1f, 0x5e, 0x3e, 0x0e, 0xbb, 0xb2, 0xbe, 0xb9, 0x32, 0xc0, 0xbe,
  0x4b, 0xb6, 0x6c, 0x3e, 0x2d, 0x80, 0x1f, 0x3d, 0xf1, 0xa3, 0x55, 0x3e,
  0x08, 0x52, 0x55, 0xbe, 0x11, 0x30, 0x08, 0xbe, 0x8b, 0xa2, 0x7c, 0xbe,
  0xce, 0x83, 0x49, 0xbe, 0x65, 0xc0, 0x1e, 0xbe, 0x35, 0xa0, 0x9c, 0x3e,
  0x40, 0xa8, 0x9a, 0x3d, 0x38, 0xc7, 0x6e, 0x3e, 0x87, 0xb2, 0x39, 0x3e,
  0x02, 0x6e, 0xdd, 0xbd, 0x73, 0x7f, 0x71, 0x3e, 0xbe, 0x2f, 0x5b, 0xbe,
  0xa7, 0xfd, 0x51, 0x3e, 0xbc, 0x50, 0x5a, 0xbd, 0x95, 0xcd, 0x8e, 0x3e,
  0xef, 0x9d, 0x7c, 0x3e, 0xc0, 0x7c, 0x26, 0x3d, 0x3d, 0x9c, 0x10, 0xbe,
  0x62, 0xa8, 0xcb, 0x3c, 0x46, 0x98, 0xf6, 0x3c, 0xa0, 0x9f, 0xf7, 0x3d,
  0xcf, 0x10, 0x94, 0x3e, 0xfc, 0xd4, 0x2a, 0x3e, 0x18, 0x1f, 0x9d, 0xbd,
  0x3b, 0xe7, 0x0f, 0x3e, 0x9b, 0x11, 0x9c, 0xbe, 0x1a, 0x9c, 0x50, 0x3e,
  0x9a, 0x17, 0x34, 0xbb, 0x69, 0x48, 0xa7, 0xbe, 0x34, 0x98, 0x8d, 0xbe,
  0xc1, 0x25, 0x7f, 0x3e, 0x84, 0x3e, 0x67, 0x3e, 0x44, 0x32, 0xa2, 0x3d,
  0x5e, 0xc9, 0xee, 0xbc, 0x63, 0xc8, 0x14, 0x3e, 0x44, 0x6b, 0xde, 0x3d,
  0x95, 0xf9, 0x1d, 0xbe, 0x26, 0xfe, 0xaa, 0x3d, 0x25, 0xc5, 0x89, 0x3e,
  0x8d, 0x5d, 0x63, 0x3c, 0xf1, 0xb1, 0x84, 0xbc, 0x38, 0x69, 0x18, 0xbe,
  0x20, 0xfa, 0x87, 0xbe, 0x22, 0x2f, 0x2e, 0xbe, 0xfe, 0x05, 0x55, 0x3e,
  0xca, 0xc3, 0x4e, 0x3e, 0x1a, 0x08, 0x98, 0xbc, 0x08, 0xa0, 0x06, 0xbe,
  0x11, 0xbe, 0xbc, 0xbd, 0x21, 0x39, 0xcf, 0xbd, 0x01, 0xa7, 0x2e, 0x3e,
  0x6e, 0x91, 0x52, 0x3d, 0x2d, 0xad, 0x31, 0x3e, 0xf0, 0xd2, 0x12, 0xbe,
  0x5d, 0x68, 0x4d, 0x3e, 0x8d, 0xda, 0xa5, 0xbe, 0x0e, 0xd7, 0xbd, 0xbd,
  0x91, 0x87, 0x78, 0xbe, 0x37, 0x8b, 0x75, 0x3d, 0x19, 0x9f, 0x60, 0xbc,
  0x7e, 0x2c, 0x9f, 0xbe, 0x7a, 0x77, 0x51, 0xbe, 0xf1, 0xd5, 0x1b, 0xbe,
  0x52, 0xfa, 0x2b, 0xbe, 0x05, 0x04, 0x17, 0xbe, 0xc1, 0x32, 0x13, 0xbe,
  0x42, 0x6b, 0x88, 0xbe, 0x61, 0xe9, 0x45, 0xbe, 0xbf, 0x72, 0x20, 0xbd,
  0x92, 0x19, 0x3e, 0x3e, 0x2a, 0x46, 0xa1, 0xbe, 0x50, 0x99, 0xa3, 0xbe,
  0x3b, 0x6f, 0xf7, 0xbc, 0xde, 0x14, 0x30, 0xbd, 0x79, 0xe6, 0x9d, 0xbe,
  0x0a, 0x1b, 0x2b, 0x3e, 0x74, 0xe3, 0x97, 0x3e, 0xf2, 0x23, 0x3d, 0xbe,
  0x5b, 0x07, 0x8e, 0xbe, 0x3c, 0x93, 0x4c, 0xbe, 0x4f, 0x25, 0x30, 0xbe,
  0x60, 0xf8, 0x5f, 0xbd, 0x1d, 0xfa, 0x3c, 0xbe, 0x30, 0x29, 0x6a, 0x3e,
  0x1e, 0xeb, 0x87, 0xbe, 0xc7, 0x00, 0xe7, 0x3c, 0xf0, 0xa3, 0xac, 0x3d,
  0xba, 0xa4, 0x63, 0xbe, 0x96, 0xbc, 0x3a, 0x3e, 0x63, 0x60, 0x9e, 0xbe,
  0x71, 0x27, 0x4c, 0x3e, 0x85, 0xc3, 0x47, 0xbd, 0x6b, 0x16, 0xd8, 0xbc,
  0x66, 0x6b, 0xdb, 0xbd, 0x17, 0x8c, 0xc3, 0x3d, 0x0e, 0x5b, 0x66, 0x3e,
  0xe4, 0x06, 0x1f, 0xbe, 0x3a, 0x29, 0x2d, 0xbd, 0xed, 0x46, 0xff, 0xbd,
  0x79, 0x7f, 0xba, 0x3d, 0xcc, 0x9e, 0x52, 0xbe, 0xb3, 0x07, 0x16, 0xbd,
  0x28, 0x9f, 0x88, 0xbe, 0x85, 0x9e, 0x6e, 0x3e, 0xf8, 0x45, 0x46, 0x3e,
  0x34, 0xfa, 0x7d, 0xbe, 0x8c, 0x20, 0x53, 0xbe, 0x4d, 0x62, 0x62, 0x3e,
  0x04, 0x9e, 0x84, 0x3d, 0x98, 0xcb, 0x3f, 0xbe, 0x29, 0x77, 0xae, 0xbd,
  0x7b, 0x81, 0xfa, 0x3d, 0x5b, 0xe2, 0xa4, 0x3d, 0xbd, 0x7b, 0x50, 0x3e,
  0xb1, 0x0c, 0x9f, 0x3d, 0x29, 0xc2, 0x59, 0xbd, 0xb3, 0xff, 0xef, 0x3d,
  0x3d, 0xf9, 0x53, 0x3d, 0x5a, 0xbb, 0x74, 0x3e, 0xc5, 0xf8, 0x72, 0xbe,
  0x1e, 0xf3, 0xff, 0xff, 0x34, 0x00, 0x00, 0x00, 0x06, 0x00, 0x00, 0x00,
  0x08, 0x00, 0x00, 0x00, 0x34, 0x00, 0x00, 0x00, 0x1e, 0x00, 0x00, 0x00,
  0x73, 0x65, 0x71, 0x75, 0x65, 0x6e, 0x74, 0x69, 0x61, 0x6c, 0x5f, 0x35,
  0x34, 0x2f, 0x64, 0x65, 0x6e, 0x73, 0x65, 0x5f, 0x32, 0x35, 0x36, 0x2f,
  0x4d, 0x61, 0x74, 0x4d, 0x75, 0x6c, 0x00, 0x00, 0x02, 0x00, 0x00, 0x00,
  0x32, 0x00, 0x00, 0x00, 0x0a, 0x00, 0x00, 0x00, 0x1c, 0xf3, 0xff, 0xff,
  0xfa, 0xf3, 0xff, 0xff, 0x04, 0x00, 0x00, 0x00, 0x00, 0x0a, 0x00, 0x00,
  0x5d, 0x6b, 0x66, 0xbe, 0xe0, 0x93, 0x23, 0xbe, 0x91, 0xad, 0x93, 0x3d,
  0xce, 0x1d, 0x5d, 0x3d, 0xe2, 0x6e, 0x21, 0x3e, 0x31, 0x22, 0x9d, 0xbd,
  0x04, 0x3d, 0x60, 0x3e, 0x5f, 0x0d, 0x90, 0x3e, 0xbc, 0x64, 0x64, 0x3d,
  0x7d, 0xe8, 0x6a, 0x3e, 0x40, 0x79, 0xeb, 0xbd, 0xa2, 0xf1, 0x49, 0xbd,
  0xdc, 0xce, 0x45, 0x3e, 0x89, 0xa7, 0x59, 0xbe, 0xe0, 0xb1, 0xa7, 0xbd,
  0x59, 0xfb, 0xbe, 0x3d, 0x6e, 0xd9, 0x0c, 0xbe, 0x59, 0x26, 0x33, 0xbe,
  0xe4, 0x60, 0x66, 0xbe, 0xeb, 0x21, 0x83, 0xbd, 0xd8, 0x2f, 0x76, 0x3d,
  0xf5, 0xf5, 0xd8, 0x3d, 0x2a, 0x14, 0x1a, 0xbb, 0x6b, 0x88, 0x64, 0xbe,
  0x82, 0x43, 0x27, 0x3e, 0xde, 0x19, 0x66, 0xbe, 0xe6, 0x5e, 0x19, 0x3d,
  0xac, 0x46, 0x2a, 0x3e, 0xe7, 0xfd, 0x39, 0x3e, 0x95, 0xc1, 0x39, 0x3e,
  0x12, 0x53, 0x1a, 0xbe, 0xe3, 0xef, 0x7f, 0xbe, 0x80, 0x69, 0x8a, 0xbd,
  0x71, 0x5d, 0x30, 0xbd, 0x98, 0xcd, 0x51, 0xbe, 0x07, 0x96, 0x14, 0x3d,
  0xd4, 0x46, 0x87, 0xbe, 0x8d, 0xd6, 0x58, 0x3e, 0x81, 0xc8, 0xeb, 0x3d,
  0x7e, 0x73, 0x01, 0x3e, 0x80, 0xd9, 0x80, 0xbe, 0xef, 0x50, 0x85, 0x3e,
  0xa5, 0x69, 0xdc, 0xbc, 0x46, 0x2c, 0x61, 0xbe, 0x2c, 0x59, 0x02, 0xbe,
  0xdc, 0xa7, 0x43, 0xbe, 0x5c, 0x67, 0x75, 0x3e, 0xeb, 0xb2, 0x10, 0x3e,
  0x5c, 0x43, 0x84, 0xbe, 0xf9, 0x51, 0x08, 0x3e, 0xf9, 0x55, 0x40, 0xbe,
  0x85, 0x28, 0x3e, 0xbe, 0x42, 0x78, 0x08, 0xbe, 0x1e, 0x93, 0x78, 0x39,
  0x74, 0x83, 0x90, 0x3e, 0x1a, 0x4a, 0xca, 0x3d, 0xf8, 0xfc, 0x70, 0x3e,
  0x95, 0xf5, 0x11, 0x3d, 0x55, 0xdf, 0x47, 0xbe, 0xc6, 0xdb, 0x4c, 0xbc,
  0x85, 0xa2, 0x8c, 0x3d, 0xab, 0xf4, 0x40, 0xbe, 0xd2, 0x33, 0xbc, 0xbb,
  0xe3, 0xff, 0x4e, 0x3e, 0x52, 0xca, 0x04, 0x3e, 0x3b, 0xc0, 0x95, 0xbd,
  0xbc, 0x93, 0xbd, 0x3c, 0x0b, 0x2a, 0xfe, 0xbd, 0x72, 0xd1, 0xfe, 0xbd,
  0x3c, 0x51, 0x9b, 0xbe, 0xd6, 0x55, 0xb6, 0xbc, 0x94, 0x36, 0xa3, 0xbd,
  0x63, 0x59, 0x69, 0x3d, 0xe2, 0x03, 0x9d, 0x3d, 0xc3, 0x08, 0x30, 0x3e,
  0xa4, 0x75, 0x7c, 0x3e, 0x62, 0xd7, 0xc1, 0xbd, 0x3b, 0xec, 0x4e, 0xbe,
  0x31, 0xc8, 0x48, 0x3e, 0xaa, 0x72, 0x19, 0xbe, 0x49, 0x4d, 0x84, 0x3e,
  0x83, 0x79, 0x89, 0xbd, 0x28, 0x61, 0x32, 0x3e, 0x30, 0xcd, 0x5e, 0xbe,
  0x30, 0x10, 0x22, 0x3e, 0xbb, 0xec, 0xc6, 0x3c, 0x0d, 0x37, 0xf2, 0xbc,
  0x21, 0x62, 0x8f, 0xbe, 0x8b, 0xe0, 0xd7, 0x3d, 0x36, 0xb2, 0x9d, 0x3d,
  0xb9, 0x45, 0xba, 0xbc, 0xe5, 0x7f, 0x66, 0x3e, 0x21, 0x0c, 0x17, 0xbe,
  0x81, 0x53, 0x2c, 0x3e, 0xb2, 0xed, 0x61, 0x3e, 0xf5, 0x2e, 0xae, 0xbd,
  0x96, 0x35, 0x77, 0x3e, 0x1f, 0x9a, 0x89, 0x3e, 0x7a, 0x3f, 0x0c, 0x3e,
  0xf2, 0x5e, 0xbc, 0x3d, 0x5d, 0xeb, 0x90, 0xbe, 0x71, 0xf7, 0x78, 0x3e,
  0xc0, 0x8e, 0x25, 0xbe, 0x30, 0xda, 0x0c, 0x3d, 0xff, 0x03, 0x80, 0x3d,
  0x74, 0x83, 0xc6, 0xbd, 0xe5, 0xdf, 0xfe, 0xbd, 0x05, 0x01, 0x74, 0xbe,
  0x10, 0x6a, 0x86, 0xbc, 0x38, 0xd1, 0x4b, 0xbe, 0xee, 0x40, 0xa1, 0x3e,
  0x17, 0xeb, 0xd3, 0xbc, 0x20, 0x6c, 0x09, 0xbe, 0xe4, 0xdd, 0x96, 0x3e,
  0x68, 0x79, 0xfa, 0x3c, 0x77, 0x0e, 0x0d, 0xbe, 0xd3, 0x66, 0x03, 0x3e,
  0xca, 0xdf, 0x83, 0x3e, 0x78, 0x7c, 0x2e, 0xbe, 0xc5, 0xcf, 0x8a, 0xbe,
  0x15, 0xdd, 0xdf, 0xbd, 0xd7, 0xb2, 0x41, 0xbe, 0xbb, 0xc0, 0xd3, 0xbc,
  0x0d, 0x3d, 0x26, 0x3e, 0x30, 0xab, 0x36, 0x3d, 0xf1, 0xbf, 0x38, 0xbe,
  0x74, 0x52, 0x25, 0x3e, 0xec, 0xca, 0x1f, 0x3b, 0x8c, 0x10, 0xd7, 0xbd,
  0xce, 0x18, 0xce, 0x3d, 0x63, 0xbc, 0x7d, 0x3e, 0x3f, 0x5e, 0x30, 0xbe,
  0x20, 0x41, 0x96, 0xbd, 0x2f, 0xac, 0x0c, 0x3e, 0x2b, 0xea, 0x7b, 0x3e,
  0xf9, 0x2a, 0xda, 0x3d, 0xbf, 0x1b, 0x71, 0xbe, 0x15, 0xea, 0x93, 0xbd,
  0x87, 0x69, 0x83, 0xbd, 0xef, 0xf0, 0xb7, 0x3d, 0x8e, 0x1d, 0x40, 0x3e,
  0x8f, 0x05, 0x52, 0x39, 0xc1, 0x24, 0xea, 0xbd, 0x02, 0x8b, 0x8c, 0xbe,
  0xf8, 0x5b, 0x83, 0x3e, 0x3f, 0x4c, 0x41, 0xbe, 0xb0, 0xde, 0xa8, 0x3d,
  0x9d, 0xf2, 0x7e, 0x3d, 0x21, 0x49, 0x14, 0x3d, 0x74, 0x48, 0x2f, 0xbe,
  0xc1, 0x58, 0xc0, 0xbc, 0xed, 0xbd, 0x8c, 0xbe, 0xb8, 0x35, 0x8d, 0x3e,
  0x66, 0xf1, 0xd2, 0x3c, 0x2c, 0x1d, 0x79, 0xbe, 0x20, 0x0b, 0x29, 0x3d,
  0x0c, 0x1f, 0xdf, 0x3d, 0xb5, 0x94, 0x99, 0xbe, 0x59, 0x51, 0xee, 0xbd,
  0x2f, 0x91, 0x78, 0x3d, 0xcc, 0xe5, 0x3c, 0x3e, 0x78, 0x7d, 0x17, 0xbd,
  0x27, 0x3c, 0x41, 0xbe, 0x4f, 0x89, 0x8e, 0x3e, 0xe5, 0x73, 0x0b, 0xbe,
  0xa8, 0x66, 0xfb, 0x3d, 0x9d, 0x58, 0x8a, 0xbc, 0xa2, 0xe0, 0x93, 0xbd,
  0xa4, 0xa4, 0x97, 0xbd, 0x92, 0x90, 0xdd, 0xbd, 0x01, 0xad, 0x51, 0xbe,
  0x9b, 0x22, 0x61, 0xbe, 0x30, 0x40, 0xe9, 0xbd, 0x02, 0x3e, 0x38, 0x3e,
  0x36, 0xaa, 0x64, 0x3e, 0x3a, 0x1b, 0x01, 0x3d, 0x1f, 0x9c, 0x0a, 0x3e,
  0xf3, 0x0e, 0x96, 0xbc, 0x9a, 0xf1, 0x85, 0x3e, 0x8d, 0xe6, 0x09, 0xbe,
  0x3f, 0x69, 0x60, 0x3e, 0x3d, 0x3b, 0xfb, 0x3d, 0xc8, 0xaa, 0x35, 0x3d,
  0x15, 0xe8, 0x2b, 0x3e, 0xa5, 0xa4, 0x4b, 0xbe, 0xe7, 0xff, 0x2a, 0xbe,
  0xca, 0xcb, 0x28, 0x3e, 0x9f, 0x8a, 0x14, 0xbd, 0x5b, 0xb8, 0x06, 0xbd,
  0x86, 0x36, 0xe3, 0x3d, 0x09, 0x21, 0x2c, 0xbe, 0x3d, 0x7b, 0xbb, 0xbc,
  0x96, 0x32, 0x0e, 0xbe, 0x6d, 0x37, 0x1f, 0x3e, 0xd3, 0xfa, 0xcf, 0xbb,
  0x13, 0xeb, 0xa2, 0x3d, 0x4b, 0xa2, 0x33, 0xbe, 0xc9, 0xd4, 0x6b, 0xbe,
  0xa2, 0x10, 0xc7, 0xbe, 0xcc, 0xde, 0xd1, 0xbd, 0xc8, 0x08, 0x7e, 0xbe,
  0x2b, 0x2d, 0x56, 0x3e, 0xa5, 0x9e, 0xe9, 0x39, 0xae, 0x11, 0x13, 0xbe,
  0xa4, 0xdf, 0x7d, 0x3e, 0xf7, 0x9e, 0x22, 0x3e, 0xe7, 0x6b, 0x96, 0x3c,
  0xd9, 0x7b, 0xb9, 0xbe, 0x5e, 0xdb, 0xc8, 0x3d, 0x04, 0x14, 0x7f, 0x3d,
  0xeb, 0xd4, 0x78, 0x3e, 0x6f, 0x2e, 0x4d, 0x3e, 0x95, 0xdf, 0x86, 0xbe,
  0x0b, 0xb0, 0xa3, 0x3e, 0xb0, 0xfa, 0x83, 0xbe, 0x0b, 0xde, 0xfb, 0x3c,
  0x69, 0x4c, 0x91, 0x3e, 0x0b, 0x5b, 0x89, 0xbd, 0x65, 0x10, 0x15, 0xbe,
  0xbd, 0xdb, 0x33, 0xbe, 0xd2, 0x37, 0x16, 0x3e, 0x1c, 0x65, 0x8c, 0xbe,
  0x17, 0x7a, 0x8b, 0x3e, 0x46, 0x9a, 0x84, 0x3e, 0x0e, 0x65, 0x11, 0x3e,
  0xc0, 0x14, 0x4b, 0xbe, 0x1d, 0x96, 0x83, 0xbd, 0xd8, 0x76, 0xb7, 0xbe,
  0xee, 0xa8, 0x85, 0xbe, 0xc5, 0xbb, 0xa0, 0x3d, 0x01, 0xa1, 0xb7, 0xbd,
  0x9a, 0xeb, 0x98, 0xbd, 0x85, 0x80, 0x33, 0xbe, 0xa2, 0xf6, 0x54, 0xbc,
  0x5e, 0xa9, 0x88, 0x3c, 0x86, 0x48, 0xd3, 0x3d, 0x6d, 0xe6, 0x53, 0x3e,
  0x70, 0x26, 0x2c, 0x3e, 0x22, 0xea, 0xf9, 0xbd, 0xe3, 0x08, 0xc2, 0x3c,
  0x1c, 0x73, 0xf5, 0x3d, 0xba, 0xc5, 0x3f, 0xbe, 0x6f, 0x8b, 0x0d, 0x3e,
  0x54, 0xf5, 0x4d, 0x3e, 0x9d, 0xed, 0x23, 0xbe, 0x33, 0x10, 0x93, 0x3e,
  0xf5, 0x25, 0x03, 0xbe, 0x5c, 0x5b, 0x97, 0xbc, 0x61, 0x34, 0xb8, 0xbd,
  0xb0, 0x38, 0x7d, 0x3e, 0xfd, 0x58, 0x1c, 0xbe, 0x08, 0x33, 0xd5, 0x3d,
  0xb1, 0x95, 0x2f, 0x3e, 0x84, 0xad, 0x02, 0xbe, 0x7a, 0x13, 0x00, 0x3e,
  0x5d, 0x93, 0x8e, 0x3d, 0x08, 0x99, 0x80, 0x3d, 0xc0, 0xaa, 0xd6, 0xbc,
  0x99, 0xb2, 0x7e, 0xbe, 0xdf, 0xbb, 0xac, 0xbd, 0x79, 0x09, 0x9e, 0xbe,
  0x04, 0x3f, 0x61, 0x3e, 0x2f, 0x60, 0xe5, 0xbc, 0xec, 0xd6, 0x42, 0xbe,
  0x6e, 0xf7, 0x56, 0x3e, 0xd2, 0xaa, 0x18, 0xbe, 0x70, 0x51, 0x0d, 0xbd,
  0x3d, 0x82, 0xae, 0x3c, 0x08, 0x2f, 0x31, 0xbe, 0xe7, 0xa4, 0xff, 0xbd,
  0xf9, 0x1e, 0x89, 0xbe, 0x7d, 0x28, 0x3b, 0x3e, 0xf4, 0xfc, 0x66, 0x3e,
  0x2d, 0xeb, 0xd2, 0xbd, 0xf5, 0x1a, 0x6e, 0xbd, 0x6d, 0xbf, 0xa0, 0xbd,
  0x34, 0xff, 0x45, 0x3e, 0x56, 0x27, 0xf9, 0x3c, 0xe5, 0x9c, 0x01, 0x3e,
  0xfa, 0xac, 0xb2, 0x3d, 0x9b, 0x75, 0x34, 0x3e, 0x3c, 0x4d, 0xcb, 0x3e,
  0x35, 0x24, 0xd6, 0x3d, 0xcc, 0x89, 0xb0, 0x3e, 0x1e, 0x78, 0x88, 0xbc,
  0x49, 0x74, 0xfd, 0xbc, 0xdf, 0x60, 0xa0, 0x3e, 0xb2, 0x36, 0x82, 0xbb,
  0xb8, 0x4b, 0x27, 0x3d, 0xce, 0x1a, 0x98, 0x3e, 0x54, 0x14, 0x66, 0x3e,
  0x8c, 0xf6, 0x2e, 0xbd, 0xfe, 0x88, 0x04, 0x3d, 0x12, 0xef, 0x3f, 0x3e,
  0x6f, 0xc3, 0x85, 0x3e, 0xb8, 0x87, 0x84, 0x3d, 0xac, 0x72, 0x4a, 0xbe,
  0x42, 0x7f, 0x12, 0x3e, 0x4c, 0x75, 0xa0, 0xbd, 0x41, 0xb1, 0x1f, 0xbe,
  0x4c, 0xf3, 0x7a, 0x3e, 0x62, 0xdb, 0x5d, 0x3e, 0x76, 0xd7, 0x45, 0x3e,
  0x29, 0x45, 0x3a, 0x3d, 0x6a, 0x29, 0x40, 0x3d, 0x1e, 0xe6, 0x07, 0x3e,
  0x36, 0x63, 0x2f, 0x3d, 0xb5, 0x32, 0x9d, 0xbe, 0xf5, 0x52, 0x54, 0x3e,
  0xd5, 0x3b, 0x8e, 0xbe, 0x09, 0x6d, 0x73, 0xbe, 0x8c, 0xf3, 0x62, 0xbe,
  0xcc, 0xce, 0x06, 0x3e, 0x7e, 0xd0, 0xb3, 0xbe, 0xd5, 0x5d, 0x35, 0xbe,
  0x4a, 0xd6, 0xe9, 0xbd, 0x9c, 0xbc, 0x6a, 0x3e, 0x7c, 0x1f, 0x92, 0xbe,
  0x0d, 0xef, 0xbe, 0xbd, 0x16, 0x1b, 0x1b, 0x3e, 0xe0, 0xf9, 0xb3, 0xbd,
  0xd4, 0x1d, 0xb9, 0x3d, 0x73, 0x0f, 0x1a, 0xbe, 0x5f, 0xb9, 0x75, 0x3e,
  0xe2, 0x61, 0x0c, 0x3e, 0xd8, 0xd4, 0x4a, 0xbe, 0x85, 0x9f, 0x16, 0xbe,
  0x0f, 0xcd, 0xad, 0x3d, 0x36, 0x45, 0x9a, 0x3d, 0xfc, 0x49, 0x10, 0x3e,
  0x50, 0xc5, 0x0d, 0xbe, 0xe5, 0x9a, 0x8a, 0x3d, 0x14, 0x2a, 0x15, 0x3e,
  0x0a, 0x15, 0xd1, 0x3d, 0x57, 0xdc, 0xf2, 0xbd, 0x5b, 0x7e, 0xd2, 0x3d,
  0x27, 0x72, 0xf4, 0x3d, 0x3f, 0x23, 0x57, 0xbe, 0x11, 0xff, 0x39, 0x3d,
  0x44, 0x6e, 0x1b, 0x3e, 0x7a, 0xa2, 0x8e, 0x3e, 0xd0, 0x9f, 0x53, 0x3e,
  0x57, 0x3e, 0xbc, 0x3e, 0xf1, 0xba, 0x04, 0x3e, 0xe3, 0xd4, 0x8c, 0x3e,
  0xbc, 0xf6, 0xb4, 0xbe, 0x14, 0x0a, 0x6e, 0xbe, 0xee, 0x4e, 0x80, 0xbe,
  0x67, 0x4d, 0x80, 0x3e, 0x15, 0x51, 0x03, 0x3d, 0x4e, 0xe6, 0x0b, 0xbd,
  0xa6, 0xf8, 0x99, 0xbe, 0x58, 0x06, 0x9e, 0xbd, 0x7c, 0x55, 0xa8, 0xbe,
  0x55, 0xce, 0xce, 0xbd, 0xc4, 0xbb, 0xe2, 0x3d, 0x8e, 0x52, 0x4a, 0x3e,
  0x03, 0xba, 0xa8, 0xbe, 0x55, 0x80, 0x4b, 0x3d, 0x10, 0x44, 0xaa, 0x3d,
  0xb3, 0x88, 0x32, 0xbe, 0x23, 0x5c, 0x47, 0x3e, 0x7e, 0x2f, 0xcc, 0x3c,
  0xaf, 0x79, 0x38, 0xbe, 0x8a, 0xe8, 0x3d, 0xbe, 0x7a, 0x2c, 0xbc, 0x3d,
  0x0c, 0x5b, 0xa4, 0xbe, 0xcb, 0xf0, 0x83, 0xbe, 0xd4, 0x95, 0x33, 0x3e,
  0x5c, 0x49, 0x12, 0x3c, 0xca, 0xe5, 0xe6, 0xbd, 0x70, 0xba, 0xfc, 0xbc,
  0xe5, 0xa8, 0x0b, 0xbe, 0x95, 0x0c, 0x24, 0x3d, 0xfe, 0x48, 0x10, 0x3e,
  0x24, 0x8d, 0x2f, 0xbd, 0xbe, 0x0f, 0x46, 0xbd, 0x8d, 0x22, 0xd5, 0xbd,
  0x3d, 0xc3, 0x09, 0xbe, 0x6a, 0x59, 0xa2, 0x3c, 0x95, 0xb2, 0x65, 0xbe,
  0x94, 0x7a, 0xd6, 0xbd, 0xf1, 0x7d, 0x27, 0xbd, 0xa5, 0x5e, 0x48, 0x3d,
  0x16, 0xc7, 0x73, 0x3e, 0xff, 0x52, 0xb7, 0x3d, 0x21, 0x9c, 0x83, 0x3d,
  0x76, 0x98, 0x19, 0x3d, 0x02, 0xe1, 0x48, 0xba, 0xfb, 0x60, 0xfe, 0x3d,
  0x78, 0x15, 0x93, 0x3c, 0xbc, 0x2a, 0x26, 0x3c, 0xb1, 0xde, 0x1a, 0x3d,
  0xc7, 0x57, 0x6a, 0x3e, 0xa4, 0x81, 0x8d, 0x3e, 0xde, 0x36, 0xc4, 0xbd,
  0x61, 0x57, 0x64, 0xbe, 0x6b, 0x19, 0x34, 0x3e, 0x95, 0xbe, 0x9c, 0x3e,
  0x86, 0x03, 0x8e, 0x38, 0x0a, 0xbb, 0x72, 0x3d, 0xa3, 0xb3, 0x55, 0x3e,
  0x59, 0xf3, 0x23, 0xbe, 0xcf, 0xc8, 0x15, 0x3e, 0x23, 0xe7, 0xd8, 0x3d,
  0x83, 0x81, 0x7d, 0x3e, 0xf2, 0x63, 0x9c, 0x3d, 0x5c, 0x2e, 0x87, 0x3e,
  0xf8, 0x42, 0x42, 0xbe, 0x3b, 0x97, 0x09, 0xbe, 0x94, 0x02, 0x10, 0x3c,
  0x8c, 0x35, 0x52, 0xbe, 0xc2, 0x3a, 0x0d, 0xbe, 0xeb, 0xe2, 0x32, 0x3e,
  0x3c, 0x77, 0x50, 0xbe, 0xa3, 0x33, 0x77, 0x3e, 0xf1, 0x0f, 0x8c, 0x3e,
  0xf2, 0x2e, 0x73, 0x3d, 0x98, 0x7f, 0x69, 0xbd, 0x1f, 0xa5, 0xc9, 0x3d,
  0xd4, 0xa5, 0x25, 0x3e, 0x11, 0x92, 0xbb, 0x3d, 0xde, 0x40, 0xba, 0x3d,
  0xad, 0x3e, 0x8d, 0xbe, 0x50, 0xf3, 0x3a, 0xbe, 0x72, 0xa7, 0x6c, 0x3e,
  0x1a, 0x62, 0x62, 0xbe, 0x20, 0x05, 0x0a, 0xbd, 0x4f, 0xd2, 0x61, 0xbe,
  0xd3, 0xc3, 0x65, 0xbe, 0x5e, 0x80, 0x7b, 0xbd, 0x73, 0x57, 0x43, 0xbe,
  0x1f, 0xd2, 0xef, 0x3d, 0x0a, 0x4c, 0xd2, 0xbc, 0x0a, 0x69, 0x21, 0xbd,
  0xce, 0xfc, 0x3c, 0xbe, 0xd1, 0xc6, 0x7b, 0xbd, 0xe3, 0x52, 0x2c, 0x3e,
  0x5a, 0x88, 0x34, 0xbd, 0x4a, 0xb5, 0x43, 0x3e, 0x8b, 0x4c, 0x12, 0xbe,
  0x5b, 0xdf, 0x4a, 0xbe, 0x3e, 0x05, 0xf9, 0x3d, 0xd2, 0x13, 0x83, 0xbd,
  0xaa, 0xcd, 0x24, 0xbe, 0x39, 0x79, 0x84, 0x3d, 0x90, 0xfe, 0x24, 0x3e,
  0x87, 0xc1, 0x96, 0x3d, 0x20, 0x0a, 0x62, 0x3c, 0x30, 0x83, 0x88, 0x3d,
  0xc7, 0xeb, 0x75, 0x3e, 0x9d, 0x75, 0x27, 0xbc, 0xd6, 0x16, 0x04, 0x3e,
  0x51, 0xc2, 0x75, 0x3e, 0x32, 0xe2, 0x5b, 0xbd, 0x69, 0x73, 0x3e, 0x3e,
  0xee, 0xd0, 0x6e, 0x3e, 0xbd, 0x0f, 0xb9, 0x3c, 0x16, 0x62, 0x06, 0xbe,
  0xcc, 0x12, 0xb8, 0x3d, 0xf9, 0x6a, 0x98, 0xbc, 0x4a, 0x6d, 0x59, 0xbe,
  0xca, 0x07, 0xe8, 0x3d, 0x0f, 0xa1, 0x9f, 0x3b, 0x21, 0x6d, 0x36, 0x3e,
  0x06, 0x4c, 0xc2, 0x3d, 0xf1, 0xe6, 0xc6, 0x3c, 0x62, 0x86, 0x4f, 0xbe,
  0xc6, 0x2c, 0x49, 0x3e, 0x86, 0x8a, 0x34, 0xbe, 0x4e, 0x56, 0x9a, 0xbe,
  0x79, 0xbe, 0x71, 0x3a, 0x19, 0x77, 0x18, 0x3c, 0xe9, 0xb4, 0x6f, 0x3d,
  0xff, 0x15, 0xa9, 0x3b, 0x9e, 0xaa, 0x3a, 0xbe, 0x01, 0xdb, 0x3f, 0x3e,
  0x00, 0x1e, 0x96, 0x3d, 0x24, 0x59, 0x84, 0xbe, 0x99, 0xc2, 0xf6, 0x3d,
  0x08, 0x3c, 0x4f, 0xbe, 0x85, 0x44, 0xac, 0xbd, 0x4d, 0xfa, 0xce, 0xbc,
  0x11, 0x6d, 0x34, 0xbe, 0xf4, 0x25, 0x73, 0xbe, 0x0d, 0xc1, 0x6e, 0xbd,
  0x01, 0x8a, 0xe2, 0x3d, 0x00, 0xff, 0x82, 0x3c, 0xbd, 0x19, 0x6a, 0xbd,
  0xd8, 0x80, 0x8e, 0xbd, 0x98, 0x19, 0x7b, 0xbe, 0x22, 0x44, 0x05, 0xbe,
  0x08, 0xbc, 0x95, 0xbd, 0x5c, 0xd1, 0x47, 0xbe, 0x76, 0x99, 0x6d, 0xbe,
  0x47, 0xaf, 0x59, 0xbd, 0x74, 0x09, 0x87, 0x3e, 0x2b, 0x21, 0xe5, 0xbb,
  0x68, 0x80, 0x69, 0xbe, 0xb5, 0x6f, 0x4e, 0x3e, 0xca, 0x8b, 0x55, 0x3e,
  0xa1, 0x61, 0x3a, 0x3c, 0xbf, 0xf7, 0x59, 0x3e, 0xe6, 0x8e, 0x3f, 0xbe,
  0x1f, 0x2a, 0xc5, 0x3c, 0x75, 0x35, 0xd5, 0x3d, 0xfb, 0x52, 0xde, 0x3d,
  0x16, 0x64, 0x80, 0xbc, 0x54, 0xc3, 0xca, 0xbd, 0x79, 0x54, 0x3e, 0xbd,
  0x22, 0x6c, 0xc5, 0x3d, 0xe0, 0x5e, 0xb7, 0xbd, 0x1b, 0xe0, 0x05, 0xbe,
  0x44, 0xa2, 0x40, 0x3e, 0xba, 0x25, 0x70, 0xbe, 0x6e, 0xc3, 0x3c, 0xbe,
  0x23, 0x73, 0x2d, 0xbe, 0x13, 0xc5, 0x02, 0x3d, 0xa4, 0x13, 0x7f, 0x3d,
  0x2f, 0x57, 0x3b, 0xbe, 0xc2, 0x8b, 0xa3, 0xbd, 0xd7, 0x11, 0x29, 0x3e,
  0x01, 0x4a, 0x14, 0xbe, 0xb0, 0x62, 0xcd, 0x3d, 0x74, 0x94, 0x74, 0xbc,
  0xf4, 0x49, 0x6b, 0xbd, 0x14, 0xe5, 0x0e, 0xbe, 0x42, 0xc2, 0x92, 0x3e,
  0x32, 0xbb, 0x86, 0xbe, 0x9d, 0x11, 0x52, 0xbe, 0x50, 0x38, 0x53, 0xbe,
  0x9d, 0x4e, 0x9d, 0x3d, 0xf3, 0x01, 0x76, 0xbe, 0x87, 0xc5, 0x4d, 0xbd,
  0x6d, 0xee, 0x91, 0xbe, 0x0e, 0x9d, 0xfa, 0xbd, 0x98, 0xe8, 0x48, 0xbe,
  0x9c, 0xe4, 0x22, 0x3e, 0xf9, 0xa1, 0x06, 0xbe, 0xe7, 0x71, 0x47, 0x3c,
  0xb8, 0xd9, 0x40, 0xbe, 0xd8, 0xa7, 0xb7, 0xbd, 0x28, 0x67, 0x97, 0x3d,
  0x5c, 0xcb, 0x02, 0xbe, 0x80, 0x69, 0x7d, 0xbb, 0xe4, 0x73, 0xc1, 0xbd,
  0xe1, 0xdf, 0x69, 0x3e, 0xd2, 0x4e, 0x39, 0x3e, 0x1e, 0x23, 0xda, 0xbd,
  0xf9, 0x93, 0xe9, 0xbd, 0x16, 0x9f, 0x2a, 0xbe, 0x04, 0xee, 0x29, 0x3e,
  0xab, 0x2f, 0x68, 0xbe, 0xaf, 0x68, 0x5c, 0x3e, 0xf3, 0xca, 0x86, 0x3e,
  0x4a, 0xe5, 0x99, 0x3b, 0x74, 0x4c, 0x67, 0xbd, 0x8e, 0xe6, 0xfb, 0xbd,
  0xd9, 0x69, 0x74, 0x3d, 0xd5, 0x98, 0xea, 0x3d, 0xc5, 0xb1, 0x2c, 0xbe,
  0x7c, 0x1c, 0xf0, 0x3d, 0x3c, 0x88, 0xd8, 0xbd, 0x38, 0x6e, 0x4e, 0x3e,
  0x8a, 0x70, 0xa4, 0xbd, 0xe4, 0xa9, 0xc6, 0xbd, 0x1b, 0x78, 0xa7, 0x3d,
  0xcb, 0x9c, 0x63, 0x3e, 0x1d, 0x45, 0x67, 0xbd, 0x81, 0x11, 0x6c, 0x3e,
  0xd2, 0x13, 0x33, 0xbe, 0xaa, 0x6d, 0x05, 0x3e, 0x76, 0x77, 0x06, 0xbe,
  0x18, 0x57, 0x40, 0xbd, 0x05, 0x82, 0x3f, 0xbe, 0x17, 0x7f, 0x74, 0x3d,
  0xcb, 0x6c, 0x00, 0xbe, 0xe0, 0xfa, 0xc2, 0xbd, 0xd6, 0xee, 0x5a, 0x3b,
  0x59, 0x57, 0xa2, 0xbd, 0x66, 0x2a, 0x76, 0xbe, 0x50, 0x6d, 0xdb, 0xbd,
  0xbe, 0xd5, 0x0b, 0xbe, 0x58, 0x62, 0x0b, 0x3e, 0xdb, 0xd8, 0x70, 0xbd,
  0x39, 0xef, 0x70, 0xbd, 0x00, 0xce, 0x48, 0xbe, 0x33, 0x15, 0x0d, 0x3e,
  0xb0, 0x8e, 0xd5, 0xbd, 0x76, 0xa0, 0xcf, 0x3d, 0xdd, 0xf7, 0x22, 0x3e,
  0x6a, 0x53, 0x7a, 0xbe, 0xd0, 0xba, 0x25, 0xbe, 0x12, 0x82, 0xda, 0x3d,
  0x08, 0xce, 0x25, 0xbe, 0x36, 0x32, 0x88, 0x3e, 0x1d, 0x9d, 0xad, 0xbd,
  0xfa, 0x4b, 0x95, 0xbc, 0x8b, 0x97, 0x1a, 0x3d, 0x5b, 0x0b, 0xc2, 0x3d,
  0x7c, 0xdd, 0xc7, 0x3d, 0x4d, 0xae, 0x9e, 0xbd, 0x73, 0xb6, 0x55, 0x3c,
  0x1c, 0x2a, 0x4b, 0x3e, 0xfd, 0xb7, 0x56, 0xbd, 0xd7, 0xd6, 0x6c, 0x3d,
  0xaf, 0x7f, 0x99, 0xbd, 0xfe, 0x84, 0xfe, 0xbd, 0xa1, 0xd9, 0x02, 0xbe,
  0x39, 0x74, 0x80, 0xbd, 0x1b, 0xaf, 0x2c, 0xbd, 0xb1, 0xf0, 0x1c, 0xbe,
  0x09, 0xce, 0x73, 0xbe, 0x41, 0x10, 0x67, 0x3d, 0x09, 0xd3, 0x3e, 0xbc,
  0x8a, 0xe1, 0x2f, 0x3e, 0x0f, 0xaa, 0xd3, 0xbd, 0xea, 0xfb, 0x04, 0xbe,
  0x96, 0x80, 0xb0, 0x3d, 0x77, 0x50, 0x13, 0x3e, 0xbe, 0x89, 0x84, 0xbe,
  0x7c, 0x46, 0x86, 0xbe, 0x9b, 0x1a, 0x06, 0x3e, 0xdc, 0xa3, 0xc2, 0x3d,
  0x0a, 0xf4, 0x46, 0xbe, 0x33, 0x9b, 0x9c, 0x3e, 0x24, 0x84, 0xd5, 0xbd,
  0x36, 0xbc, 0xca, 0x3d, 0x56, 0x5b, 0x64, 0x3e, 0xf1, 0x8e, 0xf3, 0x3d,
  0xc9, 0xe4, 0x4b, 0x3e, 0xdc, 0xdd, 0x8b, 0x3d, 0x58, 0xa5, 0x11, 0xbd,
  0x67, 0xa9, 0x88, 0xbe, 0x40, 0xa3, 0xc9, 0x3d, 0xde, 0xb9, 0xb4, 0x3c,
  0xc0, 0x3d, 0x23, 0x3d, 0x78, 0xcb, 0xb1, 0x3e, 0xba, 0x67, 0x97, 0x3e,
  0x25, 0x24, 0xdc, 0x3d, 0x72, 0xfd, 0xff, 0xff, 0x34, 0x00, 0x00, 0x00,
  0x05, 0x00, 0x00, 0x00, 0x08, 0x00, 0x00, 0x00, 0x34, 0x00, 0x00, 0x00,
  0x1e, 0x00, 0x00, 0x00, 0x73, 0x65, 0x71, 0x75, 0x65, 0x6e, 0x74, 0x69,
  0x61, 0x6c, 0x5f, 0x35, 0x34, 0x2f, 0x64, 0x65, 0x6e, 0x73, 0x65, 0x5f,
  0x32, 0x35, 0x35, 0x2f, 0x4d, 0x61, 0x74, 0x4d, 0x75, 0x6c, 0x00, 0x00,
  0x02, 0x00, 0x00, 0x00, 0x0a, 0x00, 0x00, 0x00, 0x40, 0x00, 0x00, 0x00,
  0x70, 0xfd, 0xff, 0xff, 0x4e, 0xfe, 0xff, 0xff, 0x04, 0x00, 0x00, 0x00,
  0x28, 0x00, 0x00, 0x00, 0xd8, 0xd3, 0x19, 0xbd, 0x07, 0x5e, 0x98, 0x3b,
  0x81, 0xb6, 0x89, 0x3c, 0x57, 0x83, 0xaf, 0xbc, 0x8d, 0x22, 0x94, 0x3b,
  0x20, 0xa6, 0x1b, 0x3d, 0xfc, 0x13, 0x86, 0x39, 0xe3, 0xbe, 0x93, 0x3c,
  0x6b, 0xcc, 0x62, 0xbb, 0x62, 0xb8, 0x8f, 0xbc, 0xee, 0xfd, 0xff, 0xff,
  0x44, 0x00, 0x00, 0x00, 0x04, 0x00, 0x00, 0x00, 0x08, 0x00, 0x00, 0x00,
  0x40, 0x00, 0x00, 0x00, 0x2e, 0x00, 0x00, 0x00, 0x73, 0x65, 0x71, 0x75,
  0x65, 0x6e, 0x74, 0x69, 0x61, 0x6c, 0x5f, 0x35, 0x34, 0x2f, 0x64, 0x65,
  0x6e, 0x73, 0x65, 0x5f, 0x32, 0x35, 0x37, 0x2f, 0x42, 0x69, 0x61, 0x73,
  0x41, 0x64, 0x64, 0x2f, 0x52, 0x65, 0x61, 0x64, 0x56, 0x61, 0x72, 0x69,
  0x61, 0x62, 0x6c, 0x65, 0x4f, 0x70, 0x00, 0x00, 0x01, 0x00, 0x00, 0x00,
  0x0a, 0x00, 0x00, 0x00, 0xf8, 0xfd, 0xff, 0xff, 0xd6, 0xfe, 0xff, 0xff,
  0x04, 0x00, 0x00, 0x00, 0xc8, 0x00, 0x00, 0x00, 0x91, 0xec, 0x23, 0x3c,
  0xfc, 0x4c, 0xa5, 0x3c, 0x14, 0x5a, 0x9c, 0xbc, 0xd4, 0x2b, 0x25, 0x3c,
  0x23, 0x9f, 0xba, 0xbc, 0x4b, 0x45, 0x19, 0xbc, 0xd4, 0x9c, 0x39, 0xbc,
  0xce, 0xd5, 0xe0, 0xbb, 0x10, 0x93, 0xaa, 0x3a, 0xdf, 0xec, 0xc1, 0xbc,
  0xeb, 0xef, 0xb7, 0xbc, 0x3b, 0xeb, 0x8e, 0x3c, 0xc8, 0x94, 0xbd, 0xbb,
  0x97, 0x51, 0xe8, 0xbc, 0x4b, 0x3c, 0x9c, 0x3c, 0x7a, 0xda, 0x3b, 0x3c,
  0xc2, 0x39, 0x19, 0xbc, 0xa0, 0x8f, 0xf4, 0xba, 0x91, 0xf5, 0x5f, 0x3c,
  0x6b, 0x21, 0x5d, 0x3c, 0x7d, 0x5e, 0x3a, 0x3c, 0x06, 0x92, 0x3b, 0xbc,
  0xe8, 0x72, 0x40, 0x3b, 0x9d, 0x31, 0x90, 0xbc, 0x60, 0x76, 0xa9, 0xbc,
  0x4a, 0x4d, 0x27, 0x3c, 0xce, 0x88, 0x15, 0x3a, 0x48, 0xb3, 0x10, 0xbc,
  0x57, 0x17, 0x07, 0x3d, 0x63, 0x77, 0x9d, 0x3c, 0xe6, 0x21, 0x49, 0x3c,
  0x0f, 0xf0, 0x79, 0xbc, 0x96, 0x04, 0x85, 0xbc, 0x6a, 0xe0, 0x85, 0x3c,
  0x34, 0x23, 0x33, 0xbc, 0x96, 0x31, 0x38, 0x3a, 0x49, 0xd1, 0xb8, 0xbc,
  0xa3, 0xba, 0x9b, 0x3c, 0x7e, 0x73, 0x32, 0x3c, 0x84, 0xc2, 0x21, 0x3c,
  0x61, 0x82, 0xbe, 0x3b, 0x38, 0x6e, 0xda, 0xbc, 0x0a, 0x9d, 0xfd, 0xba,
  0x82, 0x9a, 0xc9, 0x3c, 0xab, 0x4e, 0xb5, 0xbc, 0x13, 0x2b, 0x04, 0xbd,
  0x6b, 0xfa, 0xb3, 0x3c, 0x02, 0xc1, 0x97, 0xbc, 0x31, 0x96, 0x12, 0xbd,
  0xab, 0x63, 0x7f, 0x3c, 0x16, 0xff, 0xff, 0xff, 0x44, 0x00, 0x00, 0x00,
  0x03, 0x00, 0x00, 0x00, 0x08, 0x00, 0x00, 0x00, 0x40, 0x00, 0x00, 0x00,
  0x2e, 0x00, 0x00, 0x00, 0x73, 0x65, 0x71, 0x75, 0x65, 0x6e, 0x74, 0x69,
  0x61, 0x6c, 0x5f, 0x35, 0x34, 0x2f, 0x64, 0x65, 0x6e, 0x73, 0x65, 0x5f,
  0x32, 0x35, 0x36, 0x2f, 0x42, 0x69, 0x61, 0x73, 0x41, 0x64, 0x64, 0x2f,
  0x52, 0x65, 0x61, 0x64, 0x56, 0x61, 0x72, 0x69, 0x61, 0x62, 0x6c, 0x65,
  0x4f, 0x70, 0x00, 0x00, 0x01, 0x00, 0x00, 0x00, 0x32, 0x00, 0x00, 0x00,
  0x70, 0xff, 0xff, 0xff, 0x00, 0x00, 0x06, 0x00, 0x08, 0x00, 0x04, 0x00,
  0x06, 0x00, 0x00, 0x00, 0x04, 0x00, 0x00, 0x00, 0x28, 0x00, 0x00, 0x00,
  0x0b, 0x9d, 0x7b, 0xbc, 0xab, 0x94, 0x5a, 0x3a, 0xb9, 0xa9, 0xa8, 0x3c,
  0xf7, 0xda, 0xe8, 0xbc, 0x94, 0xf3, 0xda, 0x3a, 0x0e, 0x63, 0x7c, 0xbc,
  0x7e, 0xae, 0x93, 0x3c, 0x5f, 0x7f, 0x17, 0x3d, 0x0b, 0x53, 0xa6, 0x3c,
  0x8e, 0x1f, 0xc9, 0xbc, 0xa6, 0xff, 0xff, 0xff, 0x44, 0x00, 0x00, 0x00,
  0x02, 0x00, 0x00, 0x00, 0x08, 0x00, 0x00, 0x00, 0x44, 0x00, 0x00, 0x00,
  0x2e, 0x00, 0x00, 0x00, 0x73, 0x65, 0x71, 0x75, 0x65, 0x6e, 0x74, 0x69,
  0x61, 0x6c, 0x5f, 0x35, 0x34, 0x2f, 0x64, 0x65, 0x6e, 0x73, 0x65, 0x5f,
  0x32, 0x35, 0x35, 0x2f, 0x42, 0x69, 0x61, 0x73, 0x41, 0x64, 0x64, 0x2f,
  0x52, 0x65, 0x61, 0x64, 0x56, 0x61, 0x72, 0x69, 0x61, 0x62, 0x6c, 0x65,
  0x4f, 0x70, 0x00, 0x00, 0x01, 0x00, 0x00, 0x00, 0x0a, 0x00, 0x00, 0x00,
  0x04, 0x00, 0x06, 0x00, 0x04, 0x00, 0x00, 0x00, 0x00, 0x00, 0x0e, 0x00,
  0x14, 0x00, 0x04, 0x00, 0x00, 0x00, 0x08, 0x00, 0x0c, 0x00, 0x10, 0x00,
  0x0e, 0x00, 0x00, 0x00, 0x24, 0x00, 0x00, 0x00, 0x01, 0x00, 0x00, 0x00,
  0x08, 0x00, 0x00, 0x00, 0x24, 0x00, 0x00, 0x00, 0x0f, 0x00, 0x00, 0x00,
  0x64, 0x65, 0x6e, 0x73, 0x65, 0x5f, 0x32, 0x35, 0x35, 0x5f, 0x69, 0x6e,
  0x70, 0x75, 0x74, 0x00, 0x02, 0x00, 0x00, 0x00, 0x01, 0x00, 0x00, 0x00,
  0x40, 0x00, 0x00, 0x00, 0xfc, 0xff, 0xff, 0xff, 0x04, 0x00, 0x04, 0x00,
  0x04, 0x00, 0x00, 0x00
};
unsigned int g_model_len = 8368;
