unsigned char g_model[] = {
  0x1c, 0x00, 0x00, 0x00, 0x54, 0x46, 0x4c, 0x33, 0x00, 0x00, 0x12, 0x00,
  0x1c, 0x00, 0x04, 0x00, 0x08, 0x00, 0x0c, 0x00, 0x10, 0x00, 0x14, 0x00,
  0x00, 0x00, 0x18, 0x00, 0x12, 0x00, 0x00, 0x00, 0x03, 0x00, 0x00, 0x00,
  0x54, 0x00, 0x00, 0x00, 0x48, 0x00, 0x00, 0x00, 0xa8, 0x00, 0x00, 0x00,
  0x08, 0x00, 0x00, 0x00, 0x50, 0x00, 0x00, 0x00, 0x0d, 0x00, 0x00, 0x00,
  0x7c, 0x11, 0x00, 0x00, 0x78, 0x11, 0x00, 0x00, 0x9c, 0x10, 0x00, 0x00,
  0x68, 0x0f, 0x00, 0x00, 0xf8, 0x0e, 0x00, 0x00, 0x00, 0x0e, 0x00, 0x00,
  0xd8, 0x05, 0x00, 0x00, 0x28, 0x03, 0x00, 0x00, 0x5c, 0x11, 0x00, 0x00,
  0x58, 0x11, 0x00, 0x00, 0x54, 0x11, 0x00, 0x00, 0x50, 0x11, 0x00, 0x00,
  0x4c, 0x00, 0x00, 0x00, 0x01, 0x00, 0x00, 0x00, 0x84, 0x00, 0x00, 0x00,
  0x02, 0x00, 0x00, 0x00, 0xb0, 0x02, 0x00, 0x00, 0x30, 0x01, 0x00, 0x00,
  0x01, 0x00, 0x00, 0x00, 0x0c, 0x00, 0x00, 0x00, 0x08, 0x00, 0x0c, 0x00,
  0x04, 0x00, 0x08, 0x00, 0x08, 0x00, 0x00, 0x00, 0x08, 0x00, 0x00, 0x00,
  0x0c, 0x00, 0x00, 0x00, 0x13, 0x00, 0x00, 0x00, 0x6d, 0x69, 0x6e, 0x5f,
  0x72, 0x75, 0x6e, 0x74, 0x69, 0x6d, 0x65, 0x5f, 0x76, 0x65, 0x72, 0x73,
  0x69, 0x6f, 0x6e, 0x00, 0xde, 0xef, 0xff, 0xff, 0x04, 0x00, 0x00, 0x00,
  0x10, 0x00, 0x00, 0x00, 0x31, 0x2e, 0x35, 0x2e, 0x30, 0x00, 0x00, 0x00,
  0x00, 0x00, 0x00, 0x00, 0x00, 0x00, 0x00, 0x00, 0x0f, 0x00, 0x00, 0x00,
  0x4d, 0x4c, 0x49, 0x52, 0x20, 0x43, 0x6f, 0x6e, 0x76, 0x65, 0x72, 0x74,
  0x65, 0x64, 0x2e, 0x00, 0x00, 0x00, 0x0e, 0x00, 0x18, 0x00, 0x04, 0x00,
  0x08, 0x00, 0x0c, 0x00, 0x10, 0x00, 0x14, 0x00, 0x0e, 0x00, 0x00, 0x00,
  0x44, 0x00, 0x00, 0x00, 0x38, 0x00, 0x00, 0x00, 0x2c, 0x00, 0x00, 0x00,
  0x14, 0x00, 0x00, 0x00, 0x04, 0x00, 0x00, 0x00, 0x04, 0x00, 0x00, 0x00,
  0x6d, 0x61, 0x69, 0x6e, 0x00, 0x00, 0x00, 0x00, 0x04, 0x00, 0x00, 0x00,
  0xd0, 0x01, 0x00, 0x00, 0x44, 0x01, 0x00, 0x00, 0xc8, 0x00, 0x00, 0x00,
  0x54, 0x00, 0x00, 0x00, 0x01, 0x00, 0x00, 0x00, 0x0a, 0x00, 0x00, 0x00,
  0x01, 0x00, 0x00, 0x00, 0x00, 0x00, 0x00, 0x00, 0x0b, 0x00, 0x00, 0x00,
  0x38, 0x10, 0x00, 0x00, 0xcc, 0x0f, 0x00, 0x00, 0x38, 0x0f, 0x00, 0x00,
  0x0c, 0x0e, 0x00, 0x00, 0xa8, 0x0d, 0x00, 0x00, 0xb0, 0x0c, 0x00, 0x00,
  0x88, 0x04, 0x00, 0x00, 0xd8, 0x01, 0x00, 0x00, 0x34, 0x01, 0x00, 0x00,
  0xb8, 0x00, 0x00, 0x00, 0x50, 0x00, 0x00, 0x00, 0x00, 0x00, 0x0e, 0x00,
  0x18, 0x00, 0x08, 0x00, 0x0c, 0x00, 0x10, 0x00, 0x07, 0x00, 0x14, 0x00,
  0x0e, 0x00, 0x00, 0x00, 0x00, 0x00, 0x00, 0x09, 0x01, 0x00, 0x00, 0x00,
  0x1c, 0x00, 0x00, 0x00, 0x10, 0x00, 0x00, 0x00, 0x04, 0x00, 0x00, 0x00,
  0xbe, 0xf0, 0xff, 0xff, 0x00, 0x00, 0x80, 0x3f, 0x01, 0x00, 0x00, 0x00,
  0x0a, 0x00, 0x00, 0x00, 0x01, 0x00, 0x00, 0x00, 0x09, 0x00, 0x00, 0x00,
  0x8e, 0xfe, 0xff, 0xff, 0x00, 0x00, 0x00, 0x19, 0x01, 0x00, 0x00, 0x00,
  0x4e, 0xf0, 0xff, 0xff, 0x20, 0x00, 0x00, 0x00, 0x0b, 0x00, 0x00, 0x00,
  0x08, 0x00, 0x00, 0x00, 0x20, 0x00, 0x00, 0x00, 0x08, 0x00, 0x00, 0x00,
  0x49, 0x64, 0x65, 0x6e, 0x74, 0x69, 0x74, 0x79, 0x00, 0x00, 0x00, 0x00,
  0x02, 0x00, 0x00, 0x00, 0x01, 0x00, 0x00, 0x00, 0x03, 0x00, 0x00, 0x00,
  0x38, 0xf0, 0xff, 0xff, 0x0e, 0xff, 0xff, 0xff, 0x00, 0x00, 0x00, 0x08,
  0x18, 0x00, 0x00, 0x00, 0x0c, 0x00, 0x00, 0x00, 0x04, 0x00, 0x00, 0x00,
  0x50, 0xf0, 0xff, 0xff, 0x01, 0x00, 0x00, 0x00, 0x09, 0x00, 0x00, 0x00,
  0x03, 0x00, 0x00, 0x00, 0x08, 0x00, 0x00, 0x00, 0x06, 0x00, 0x00, 0x00,
  0x03, 0x00, 0x00, 0x00, 0xb2, 0xf0, 0xff, 0xff, 0x34, 0x00, 0x00, 0x00,
  0x0a, 0x00, 0x00, 0x00, 0x08, 0x00, 0x00, 0x00, 0x34, 0x00, 0x00, 0x00,
  0x1f, 0x00, 0x00, 0x00, 0x73, 0x65, 0x71, 0x75, 0x65, 0x6e, 0x74, 0x69,
  0x61, 0x6c, 0x5f, 0x35, 0x31, 0x2f, 0x64, 0x65, 0x6e, 0x73, 0x65, 0x5f,
  0x32, 0x34, 0x38, 0x2f, 0x42, 0x69, 0x61, 0x73, 0x41, 0x64, 0x64, 0x00,
  0x02, 0x00, 0x00, 0x00, 0x01, 0x00, 0x00, 0x00, 0x03, 0x00, 0x00, 0x00,
  0xb0, 0xf0, 0xff, 0xff, 0x86, 0xff, 0xff, 0xff, 0x00, 0x00, 0x00, 0x08,
  0x18, 0x00, 0x00, 0x00, 0x0c, 0x00, 0x00, 0x00, 0x04, 0x00, 0x00, 0x00,
  0xc8, 0xf0, 0xff, 0xff, 0x01, 0x00, 0x00, 0x00, 0x08, 0x00, 0x00, 0x00,
  0x03, 0x00, 0x00, 0x00, 0x07, 0x00, 0x00, 0x00, 0x05, 0x00, 0x00, 0x00,
  0x02, 0x00, 0x00, 0x00, 0x2a, 0xf1, 0xff, 0xff, 0x34, 0x00, 0x00, 0x00,
  0x09, 0x00, 0x00, 0x00, 0x08, 0x00, 0x00, 0x00, 0x34, 0x00, 0x00, 0x00,
  0x1f, 0x00, 0x00, 0x00, 0x73, 0x65, 0x71, 0x75, 0x65, 0x6e, 0x74, 0x69,
  0x61, 0x6c, 0x5f, 0x35, 0x31, 0x2f, 0x64, 0x65, 0x6e, 0x73, 0x65, 0x5f,
  0x32, 0x34, 0x37, 0x2f, 0x42, 0x69, 0x61, 0x73, 0x41, 0x64, 0x64, 0x00,
  0x02, 0x00, 0x00, 0x00, 0x01, 0x00, 0x00, 0x00, 0x32, 0x00, 0x00, 0x00,
  0x78, 0xf1, 0xff, 0xff, 0x00, 0x00, 0x0e, 0x00, 0x14, 0x00, 0x00, 0x00,
  0x08, 0x00, 0x0c, 0x00, 0x07, 0x00, 0x10, 0x00, 0x0e, 0x00, 0x00, 0x00,
  0x00, 0x00, 0x00, 0x08, 0x18, 0x00, 0x00, 0x00, 0x0c, 0x00, 0x00, 0x00,
  0x04, 0x00, 0x00, 0x00, 0x50, 0xf1, 0xff, 0xff, 0x01, 0x00, 0x00, 0x00,
  0x07, 0x00, 0x00, 0x00, 0x03, 0x00, 0x00, 0x00, 0x00, 0x00, 0x00, 0x00,
  0x04, 0x00, 0x00, 0x00, 0x01, 0x00, 0x00, 0x00, 0x00, 0x00, 0x0a, 0x00,
  0x0c, 0x00, 0x07, 0x00, 0x00, 0x00, 0x08, 0x00, 0x0a, 0x00, 0x00, 0x00,
  0x00, 0x00, 0x00, 0x09, 0x01, 0x00, 0x00, 0x00, 0xca, 0xf1, 0xff, 0xff,
  0x34, 0x00, 0x00, 0x00, 0x08, 0x00, 0x00, 0x00, 0x08, 0x00, 0x00, 0x00,
  0x34, 0x00, 0x00, 0x00, 0x1f, 0x00, 0x00, 0x00, 0x73, 0x65, 0x71, 0x75,
  0x65, 0x6e, 0x74, 0x69, 0x61, 0x6c, 0x5f, 0x35, 0x31, 0x2f, 0x64, 0x65,
  0x6e, 0x73, 0x65, 0x5f, 0x32, 0x34, 0x36, 0x2f, 0x42, 0x69, 0x61, 0x73,
  0x41, 0x64, 0x64, 0x00, 0x02, 0x00, 0x00, 0x00, 0x01, 0x00, 0x00, 0x00,
  0x0a, 0x00, 0x00, 0x00, 0xc8, 0xf1, 0xff, 0xff, 0xa6, 0xf2, 0xff, 0xff,
  0x04, 0x00, 0x00, 0x00, 0x58, 0x02, 0x00, 0x00, 0xbd, 0x12, 0x3f, 0xbd,
  0x2d, 0x57, 0x35, 0x3e, 0x6c, 0xd9, 0xe3, 0x3d, 0x74, 0xfe, 0x8f, 0xbe,
  0x76, 0x72, 0xa3, 0xbe, 0x83, 0xda, 0x40, 0x3e, 0xf1, 0x31, 0xbc, 0xbd,
  0x32, 0xcf, 0xfc, 0x3d, 0x80, 0xd7, 0xf5, 0xbd, 0x73, 0xc9, 0x3c, 0x3a,
  0xe7, 0x2e, 0x7d, 0xbe, 0x99, 0x3a, 0x5c, 0xbe, 0x62, 0xed, 0xaa, 0xbe,
  0x06, 0xce, 0xb3, 0xbd, 0x36, 0x06, 0x8c, 0x3e, 0x34, 0x9c, 0x25, 0xbd,
  0x5c, 0x97, 0x69, 0x3e, 0x23, 0x3f, 0x14, 0xbe, 0x97, 0x38, 0x91, 0xbe,
  0xfa, 0x54, 0xb3, 0x3d, 0x7d, 0x2f, 0x7a, 0x3e, 0x1e, 0xcc, 0x65, 0x3d,
  0xc9, 0x49, 0x75, 0x3e, 0x9b, 0x79, 0x46, 0xbe, 0x97, 0xb9, 0x8c, 0xbe,
  0xdb, 0xf4, 0xe1, 0xbd, 0x58, 0x5b, 0xab, 0xbe, 0x58, 0xc5, 0x53, 0xbe,
  0xa4, 0xdb, 0xbb, 0xbe, 0x3a, 0x06, 0xd6, 0x3c, 0xdb, 0xf1, 0x08, 0xbe,
  0xb6, 0xfb, 0x86, 0xbd, 0xae, 0x27, 0xb8, 0x3d, 0x3d, 0xb9, 0x4b, 0x3e,
  0xa5, 0x1f, 0xc5, 0xbd, 0xfc, 0xcc, 0x6f, 0xbe, 0x8b, 0xe8, 0xb0, 0xbe,
  0x0d, 0xf5, 0xe5, 0xbd, 0x59, 0xa0, 0x4c, 0xbd, 0xe4, 0x29, 0xea, 0x3d,
  0x8b, 0x87, 0x83, 0x3d, 0xf1, 0x0b, 0x8f, 0xbd, 0x2a, 0x74, 0xd9, 0x3d,
  0x82, 0xe2, 0x3f, 0xbc, 0x45, 0x2d, 0x3f, 0xbe, 0x82, 0x95, 0x42, 0x3e,
  0xd1, 0xa2, 0x4d, 0xbe, 0x4b, 0x71, 0x27, 0xbe, 0xf8, 0xf7, 0xdd, 0x3d,
  0x25, 0x86, 0xf5, 0x3d, 0x89, 0x2f, 0xd7, 0x3d, 0xa7, 0xa5, 0x9d, 0x3e,
  0x5c, 0xf3, 0x8b, 0x3d, 0x87, 0x2a, 0x8b, 0x3e, 0x43, 0x2a, 0x01, 0xbe,
  0x76, 0xef, 0x53, 0x3e, 0x45, 0x04, 0x80, 0xbe, 0x19, 0xac, 0x59, 0x3d,
  0x81, 0x8c, 0xfc, 0x3d, 0xa5, 0x3b, 0x88, 0xbd, 0x01, 0x05, 0x8f, 0x3e,
  0x6b, 0x42, 0x7c, 0xbe, 0xa0, 0xcb, 0x9f, 0xbe, 0xd5, 0x5e, 0x37, 0x3e,
  0x7d, 0x82, 0xce, 0xbd, 0xeb, 0x97, 0x1b, 0xbe, 0xfd, 0x97, 0x0f, 0x3d,
  0xff, 0xaa, 0xf9, 0x3d, 0x5a, 0x93, 0x57, 0x3e, 0xfb, 0x05, 0x31, 0x3c,
  0xd1, 0xbe, 0x92, 0xbe, 0x66, 0xa9, 0x12, 0x3e, 0x54, 0x0d, 0x99, 0xbe,
  0xf8, 0xf5, 0x76, 0x3e, 0x36, 0x40, 0xa3, 0xbe, 0x62, 0x70, 0x9c, 0x3e,
  0x45, 0x6c, 0xf7, 0xbd, 0x1f, 0xd3, 0x47, 0xbe, 0x22, 0x51, 0x41, 0xbe,
  0xb8, 0x1f, 0xa8, 0xbe, 0x5c, 0xd6, 0xf8, 0xbd, 0x03, 0x22, 0xa8, 0xbe,
  0xc2, 0xc6, 0x4e, 0x3e, 0x50, 0x00, 0x20, 0xbe, 0xcd, 0xfc, 0xad, 0x3d,
  0x32, 0xf5, 0x9a, 0x3e, 0xad, 0x52, 0x2f, 0x3e, 0xf9, 0x34, 0x82, 0xbe,
  0x7d, 0xf5, 0x50, 0x3d, 0x94, 0xb0, 0x1c, 0x3e, 0xbb, 0x78, 0x34, 0x3d,
  0xca, 0xf7, 0x96, 0x3e, 0x13, 0x97, 0x67, 0xbe, 0x32, 0x31, 0x23, 0xbe,
  0x15, 0x4c, 0x16, 0xbd, 0x59, 0xd5, 0x8d, 0xbe, 0xca, 0x9d, 0x50, 0xbe,
  0x17, 0xe7, 0xfe, 0xbd, 0xb2, 0xea, 0xa2, 0x3c, 0xdc, 0xe5, 0x83, 0x3e,
  0x97, 0x3d, 0x92, 0xbe, 0x14, 0xa2, 0x95, 0xbe, 0x6d, 0x4e, 0x46, 0xbd,
  0x72, 0x31, 0x82, 0x3e, 0xd9, 0x79, 0x05, 0xbe, 0x18, 0x66, 0x82, 0x3e,
  0xa9, 0x12, 0x6e, 0x3e, 0x75, 0x9c, 0x68, 0x3e, 0x09, 0xe6, 0x57, 0x3e,
  0x07, 0xf8, 0xd2, 0xbc, 0x5d, 0xbb, 0x73, 0xbe, 0x4f, 0xb7, 0x23, 0x3d,
  0x7e, 0xf3, 0x9f, 0x3e, 0xaf, 0x1a, 0x85, 0x3e, 0x0c, 0xab, 0x72, 0x3e,
  0xe1, 0x73, 0x80, 0xbe, 0xc1, 0x3a, 0x0c, 0x3e, 0x17, 0x04, 0x69, 0x3e,
  0xeb, 0x53, 0xe4, 0x3d, 0xd4, 0x1f, 0x96, 0x3e, 0x55, 0x2b, 0x6d, 0x3e,
  0xa3, 0xd3, 0x0e, 0xbe, 0xd6, 0x19, 0x26, 0xbe, 0x8f, 0x60, 0x26, 0xbc,
  0xfb, 0xc6, 0x05, 0xbe, 0xf1, 0x85, 0xba, 0xbd, 0xcd, 0xd3, 0x14, 0x3e,
  0xa4, 0x42, 0x40, 0x3e, 0xc2, 0xb9, 0xf4, 0xbd, 0x3f, 0x28, 0x82, 0x3e,
  0x99, 0x6a, 0x4c, 0x3d, 0x5a, 0x53, 0xdd, 0xbc, 0x16, 0x8c, 0x02, 0x3e,
  0xb8, 0x18, 0x8d, 0xbe, 0x93, 0xfb, 0xf3, 0xbd, 0x70, 0x87, 0x27, 0xbe,
  0xf8, 0x38, 0x4a, 0xbe, 0x42, 0xbe, 0xab, 0x3d, 0x43, 0x9f, 0x94, 0x3e,
  0x1c, 0x69, 0x57, 0xbd, 0xbb, 0xfe, 0x3c, 0xbe, 0xdf, 0x09, 0xa4, 0xbe,
  0x99, 0x2c, 0xe9, 0xbd, 0x2f, 0x05, 0x84, 0x3e, 0x4c, 0x08, 0xac, 0xbe,
  0x9e, 0xe4, 0x00, 0xbc, 0x3f, 0xc3, 0xa6, 0xbe, 0x21, 0xa9, 0x68, 0xbe,
  0x0a, 0x7c, 0x83, 0x3d, 0x0a, 0xc0, 0x0a, 0x3e, 0x76, 0xf4, 0xff, 0xff,
  0x34, 0x00, 0x00, 0x00, 0x07, 0x00, 0x00, 0x00, 0x08, 0x00, 0x00, 0x00,
  0x34, 0x00, 0x00, 0x00, 0x1e, 0x00, 0x00, 0x00, 0x73, 0x65, 0x71, 0x75,
  0x65, 0x6e, 0x74, 0x69, 0x61, 0x6c, 0x5f, 0x35, 0x31, 0x2f, 0x64, 0x65,
  0x6e, 0x73, 0x65, 0x5f, 0x32, 0x34, 0x38, 0x2f, 0x4d, 0x61, 0x74, 0x4d,
  0x75, 0x6c, 0x00, 0x00, 0x02, 0x00, 0x00, 0x00, 0x03, 0x00, 0x00, 0x00,
  0x32, 0x00, 0x00, 0x00, 0x74, 0xf4, 0xff, 0xff, 0x52, 0xf5, 0xff, 0xff,
  0x04, 0x00, 0x00, 0x00, 0xd0, 0x07, 0x00, 0x00, 0xc9, 0x64, 0x10, 0x3d,
  0x00, 0xc0, 0x95, 0xbe, 0x49, 0xb8, 0x5c, 0xbe, 0xab, 0x5a, 0x31, 0x3e,
  0xbb, 0x97, 0x8c, 0x3e, 0x81, 0xc2, 0x7f, 0x3e, 0xec, 0x72, 0x53, 0x3e,
  0x43, 0x86, 0xa1, 0x3e, 0x06, 0x88, 0x61, 0x3e, 0x38, 0xec, 0x52, 0x3e,
  0xe1, 0xc1, 0x5f, 0xbe, 0x1e, 0xe4, 0x1e, 0xbe, 0x63, 0x8e, 0x6f, 0x3e,
  0xea, 0xe6, 0x23, 0x3d, 0x26, 0x25, 0x07, 0x3e, 0x4c, 0x60, 0x21, 0x3e,
  0x23, 0xf5, 0x66, 0x3e, 0x7c, 0x56, 0x57, 0xbe, 0xb4, 0x77, 0xae, 0x3e,
  0xe5, 0xaf, 0xdc, 0xbd, 0xf7, 0xe5, 0x88, 0xbd, 0x19, 0xb1, 0x10, 0xbe,
  0x55, 0x85, 0x5b, 0xbd, 0x0a, 0x39, 0xee, 0xbd, 0x36, 0x2a, 0xc0, 0x3d,
  0x41, 0x26, 0x01, 0xbc, 0xdc, 0x57, 0x2e, 0x3e, 0x55, 0xfe, 0xfd, 0xbd,
  0x07, 0x7d, 0x11, 0xbe, 0xb7, 0xa5, 0xf0, 0x3d, 0x39, 0x07, 0x5d, 0x3e,
  0xaf, 0xe5, 0xc6, 0x3d, 0x47, 0x06, 0x46, 0x3e, 0xe4, 0xc1, 0x59, 0x3c,
  0xc7, 0x6f, 0x8f, 0xbc, 0x57, 0x36, 0x89, 0x3e, 0xd9, 0xd1, 0x94, 0x3e,
  0xcc, 0x77, 0x8e, 0x3e, 0x3a, 0xa7, 0x56, 0x3e, 0xb2, 0x48, 0x95, 0xbb,
  0x7b, 0x0a, 0x50, 0x3b, 0xc8, 0x67, 0x77, 0xbc, 0xa5, 0xd2, 0x95, 0xbd,
  0x05, 0xf5, 0xb1, 0xbd, 0xe1, 0x92, 0x77, 0xbd, 0xb2, 0xf0, 0x85, 0xbe,
  0x3b, 0x5b, 0x50, 0xbc, 0x6e, 0x59, 0x1b, 0xbd, 0x23, 0x8a, 0x04, 0x3e,
  0x85, 0x86, 0x99, 0x3c, 0xea, 0x3d, 0x8b, 0xbe, 0x00, 0x1a, 0x71, 0x3d,
  0xb9, 0xb8, 0xa0, 0xbe, 0xfe, 0x08, 0x29, 0x3c, 0x00, 0xfc, 0x65, 0x3e,
  0x85, 0xb5, 0x51, 0x3e, 0x61, 0xc4, 0xa2, 0x3d, 0x12, 0x68, 0xd4, 0xbd,
  0x54, 0xb2, 0x40, 0xbd, 0x08, 0x2f, 0x21, 0x3e, 0x8f, 0x8c, 0x4a, 0xbe,
  0xd5, 0x66, 0xd2, 0xbc, 0x8a, 0xb8, 0x9f, 0xbe, 0x11, 0x16, 0x5b, 0xbe,
  0x90, 0x0b, 0x30, 0x3d, 0x5d, 0x44, 0xa0, 0x3e, 0xe4, 0xf0, 0x9b, 0x3e,
  0x80, 0xdf, 0x92, 0x3d, 0x89, 0x89, 0x83, 0x3d, 0x45, 0x50, 0x61, 0x3d,
  0x53, 0xec, 0x9e, 0xbe, 0xd2, 0xd6, 0x84, 0x3d, 0xd0, 0x9f, 0x53, 0x3d,
  0x09, 0x40, 0xe2, 0x3d, 0x71, 0xae, 0x8c, 0xbe, 0x50, 0xb0, 0x4e, 0x3e,
  0x21, 0x10, 0x52, 0x3e, 0x0d, 0xbe, 0x86, 0xbd, 0x1e, 0x60, 0x9d, 0x3e,
  0x6c, 0xf7, 0x5f, 0xbe, 0x7a, 0xa7, 0x93, 0xbe, 0x60, 0x51, 0x94, 0x3d,
  0xbc, 0xd3, 0x94, 0x3e, 0x6d, 0x9c, 0x5b, 0x3e, 0x70, 0xf3, 0x16, 0x3d,
  0xc2, 0xd9, 0x3d, 0x3e, 0x61, 0x50, 0x5d, 0x3e, 0x41, 0x76, 0x3d, 0x3a,
  0xc5, 0x4a, 0x31, 0x3e, 0xb0, 0x74, 0x82, 0x3e, 0x47, 0x7b, 0x8b, 0xbd,
  0x9a, 0x79, 0x32, 0xbe, 0x3a, 0x5f, 0x57, 0x3e, 0x62, 0x9c, 0xcb, 0xbd,
  0xd4, 0x92, 0x0d, 0xbe, 0xaa, 0x83, 0xa1, 0x3d, 0x07, 0xd6, 0x70, 0xbe,
  0x51, 0xa6, 0x56, 0xbd, 0xf1, 0x20, 0xa3, 0x3e, 0xde, 0x98, 0x3f, 0x3c,
  0x0c, 0x30, 0xf0, 0x3d, 0x66, 0x29, 0x12, 0xbd, 0xb4, 0xae, 0x93, 0xbe,
  0xba, 0xa7, 0x3d, 0xbe, 0xd6, 0x63, 0xcd, 0x3c, 0x4e, 0xed, 0x33, 0x3e,
  0x80, 0xa4, 0x8b, 0xbe, 0xbc, 0xe4, 0x60, 0x3d, 0x5c, 0xe9, 0x20, 0xbe,
  0x8e, 0x3f, 0xa4, 0x3e, 0x37, 0xfa, 0x93, 0xbe, 0x88, 0x8b, 0x88, 0xbe,
  0x99, 0xcb, 0x3e, 0x3e, 0x83, 0x9d, 0xfe, 0xbd, 0xde, 0xe0, 0x8d, 0xbe,
  0xe4, 0x35, 0x1d, 0x3e, 0x39, 0x66, 0xe7, 0x3d, 0x17, 0x8c, 0x5f, 0x3d,
  0x3c, 0x96, 0x8a, 0x3e, 0xa5, 0xc1, 0x22, 0xbe, 0x0c, 0x20, 0x6e, 0x3e,
  0xc9, 0xf7, 0x31, 0x3e, 0x2e, 0xd8, 0x92, 0x3d, 0x8e, 0xbd, 0x23, 0x3e,
  0x81, 0x89, 0x3a, 0x3e, 0x07, 0x7e, 0x9f, 0x3e, 0x6d, 0x6d, 0x1b, 0xbe,
  0x79, 0xdc, 0x9d, 0x3e, 0x82, 0x83, 0xb8, 0x3c, 0xa8, 0x64, 0x51, 0xbe,
  0x74, 0x3e, 0xa6, 0x3d, 0xb7, 0x2c, 0x5c, 0xbe, 0x16, 0xc6, 0x99, 0x3e,
  0x1f, 0x7b, 0x10, 0xbe, 0xa6, 0xd5, 0x78, 0xbe, 0xc5, 0xe0, 0x2e, 0x3e,
  0x23, 0x7b, 0x6e, 0xbe, 0xf1, 0x7c, 0x6d, 0x3e, 0x4e, 0xdd, 0x33, 0x3e,
  0xfe, 0xcd, 0x95, 0xbe, 0x8b, 0xdd, 0x76, 0x3e, 0x7d, 0x34, 0x0d, 0xbd,
  0x68, 0xc8, 0xa3, 0xbc, 0x13, 0x86, 0x4a, 0xbe, 0x5c, 0xfb, 0x77, 0x3e,
  0xd3, 0xcd, 0x84, 0xbe, 0xd9, 0x8d, 0x69, 0xbc, 0x07, 0xc0, 0x86, 0x3d,
  0x88, 0x5a, 0xb4, 0xb9, 0x64, 0x5b, 0x9c, 0xbe, 0xa7, 0x5b, 0x9d, 0x3e,
  0x2c, 0x00, 0x03, 0x3e, 0xa3, 0x5f, 0x49, 0x3e, 0x50, 0x7e, 0x8c, 0x3e,
  0xc1, 0xa1, 0x09, 0x3c, 0xba, 0xe2, 0x0f, 0xbe, 0x6d, 0xd5, 0x91, 0x3e,
  0x61, 0x84, 0x1c, 0x3e, 0x99, 0x27, 0x99, 0xbd, 0x34, 0x71, 0x39, 0xbe,
  0x1d, 0x77, 0x6b, 0x3e, 0xd6, 0xc2, 0x39, 0xbe, 0x28, 0x08, 0x57, 0x3e,
  0x91, 0x85, 0x66, 0xbd, 0x92, 0x10, 0x8e, 0x3c, 0xdd, 0xd6, 0x23, 0x3e,
  0xc2, 0x7a, 0x6a, 0xbe, 0xea, 0x50, 0x21, 0xbe, 0xd7, 0xbe, 0x82, 0xbd,
  0x8c, 0x0b, 0x23, 0x3e, 0x5e, 0x6d, 0x98, 0x3e, 0x20, 0x39, 0xd1, 0x3d,
  0x1e, 0xb6, 0xd9, 0xbd, 0xac, 0x09, 0x17, 0x3e, 0x92, 0x6b, 0x24, 0x3e,
  0xb8, 0xf6, 0x68, 0xbe, 0x29, 0xaf, 0x00, 0xbd, 0xa8, 0x5c, 0x8a, 0xbe,
  0x98, 0xb9, 0x0e, 0x3e, 0x2f, 0xc5, 0x07, 0xbe, 0x0d, 0x20, 0xbb, 0x3c,
  0x35, 0xe6, 0x36, 0x3e, 0x12, 0x85, 0x16, 0xbe, 0x34, 0x30, 0x12, 0xbe,
  0x7e, 0x78, 0x78, 0xbd, 0x10, 0x31, 0x8e, 0xbb, 0x10, 0xa7, 0x90, 0xbe,
  0x8a, 0x28, 0xf1, 0x3c, 0x57, 0x48, 0x49, 0x3d, 0xa7, 0x5c, 0x71, 0x3c,
  0xc3, 0xa5, 0x05, 0x3d, 0x55, 0x5b, 0xbb, 0xbc, 0xfc, 0x8d, 0x5f, 0x3e,
  0x04, 0xfd, 0x05, 0x3e, 0x79, 0x5e, 0xa8, 0xbe, 0x4e, 0xbe, 0x4c, 0xbe,
  0x0a, 0xec, 0x73, 0xbe, 0x86, 0xc2, 0x36, 0x3e, 0xb3, 0x28, 0x84, 0xbe,
  0xe5, 0x45, 0xa4, 0xbc, 0x02, 0xc7, 0x5b, 0xbe, 0x17, 0x2c, 0x56, 0xbd,
  0xdf, 0xff, 0x9b, 0xbe, 0xe0, 0xbe, 0x02, 0x3e, 0x5a, 0x79, 0x70, 0xbe,
  0x83, 0xef, 0xcd, 0x3c, 0xa2, 0xd6, 0x82, 0x3e, 0xce, 0xe6, 0x23, 0xbe,
  0xec, 0xa7, 0xaa, 0x3d, 0xda, 0x8b, 0x3e, 0xbe, 0x76, 0x7c, 0x14, 0xbe,
  0x64, 0x65, 0x32, 0xbe, 0x3a, 0xcd, 0x88, 0xbe, 0xf9, 0x33, 0x98, 0xbb,
  0xfd, 0x16, 0x69, 0xbe, 0x9a, 0x5d, 0xe8, 0x3d, 0x11, 0x75, 0x98, 0x3e,
  0x0f, 0xc0, 0x3a, 0x3d, 0xa6, 0x06, 0x8c, 0x3d, 0x20, 0x0a, 0x5b, 0x3e,
  0x30, 0x69, 0x5c, 0x3e, 0xf7, 0x37, 0x0c, 0x3e, 0x5f, 0xc2, 0x95, 0x3e,
  0xdf, 0xb0, 0xb8, 0xbd, 0x81, 0x2e, 0x2d, 0x3e, 0x94, 0xde, 0x0c, 0x3e,
  0x10, 0x56, 0x5f, 0x3e, 0x6b, 0xc4, 0x36, 0xbe, 0x28, 0x48, 0x48, 0x3e,
  0x1a, 0xe2, 0xcd, 0xbd, 0xf7, 0x4b, 0xa3, 0x3c, 0xab, 0x3b, 0x17, 0x3e,
  0xd2, 0x23, 0x7a, 0x3e, 0x70, 0xb2, 0x10, 0xbe, 0xfc, 0x4d, 0x2a, 0xbe,
  0x6c, 0x20, 0x01, 0x3d, 0x45, 0x5f, 0x5c, 0xbe, 0x5f, 0xed, 0xb1, 0xbd,
  0x9d, 0x9d, 0x88, 0xbc, 0xd9, 0xd8, 0x61, 0xbe, 0xcc, 0xe4, 0x99, 0x3e,
  0xb9, 0x26, 0x5a, 0x3e, 0xfd, 0xa4, 0x80, 0x3c, 0x44, 0x37, 0x14, 0x3d,
  0x6b, 0x96, 0x89, 0xbe, 0xf0, 0xbf, 0x02, 0xbe, 0x4b, 0xec, 0x19, 0x3e,
  0xdf, 0x02, 0x9c, 0xbe, 0x46, 0x66, 0x1e, 0xbe, 0x43, 0x27, 0x14, 0xbe,
  0x7c, 0x58, 0x26, 0xbd, 0x56, 0x4e, 0x85, 0xbe, 0x77, 0x12, 0x99, 0xbd,
  0x6d, 0x44, 0x7e, 0x3e, 0xb4, 0x67, 0x6e, 0x3e, 0x96, 0x98, 0xde, 0xbc,
  0x68, 0x09, 0x03, 0xbc, 0xae, 0xc9, 0x27, 0x3c, 0x6f, 0xb0, 0x58, 0x3d,
  0xea, 0x8c, 0x54, 0xbe, 0x45, 0x0a, 0x37, 0x3e, 0x8f, 0xdc, 0x8c, 0x3e,
  0xbc, 0x90, 0x90, 0x3e, 0xb4, 0xeb, 0xd1, 0x3d, 0x75, 0x61, 0xb3, 0xbd,
  0x66, 0xfe, 0x18, 0xbe, 0xcf, 0x05, 0x00, 0x3e, 0xe0, 0xbc, 0x8d, 0xbe,
  0x75, 0x9b, 0xb7, 0x3d, 0x75, 0x36, 0xa0, 0xbb, 0x86, 0xbb, 0xd3, 0xbd,
  0xb5, 0x7c, 0x0c, 0xbe, 0xea, 0x4b, 0x90, 0x3c, 0xd4, 0x57, 0x5e, 0xbe,
  0x8f, 0x88, 0x53, 0xbc, 0x83, 0xd7, 0x70, 0x3d, 0xce, 0x99, 0x97, 0xbe,
  0xb3, 0x59, 0x11, 0xbe, 0xa6, 0xf7, 0x5d, 0xbd, 0x49, 0xa7, 0xa2, 0x3d,
  0x81, 0x85, 0x7f, 0xbe, 0xf3, 0x66, 0x6b, 0x3e, 0x00, 0x6e, 0x24, 0x3e,
  0xf4, 0x91, 0x2b, 0x3e, 0xe1, 0x39, 0x25, 0x3e, 0x1b, 0x6d, 0x8f, 0x3d,
  0x02, 0x07, 0xb7, 0xbd, 0x68, 0x85, 0x1a, 0xbe, 0x96, 0x51, 0x2b, 0xbe,
  0xed, 0x7d, 0xb2, 0xbc, 0xad, 0x67, 0x67, 0x3e, 0x78, 0x36, 0xd8, 0x3d,
  0xd3, 0x17, 0x96, 0xbe, 0xf0, 0x72, 0x92, 0x3e, 0x61, 0x3c, 0xcf, 0xbd,
  0xbf, 0x67, 0x8a, 0x3e, 0x14, 0x96, 0xc1, 0x3d, 0xf9, 0xcc, 0x09, 0xbe,
  0x68, 0x2f, 0x5b, 0x3e, 0x2e, 0x73, 0x96, 0xbd, 0xec, 0x7c, 0x7f, 0xbe,
  0x47, 0x88, 0x2d, 0x3e, 0xf8, 0x5f, 0x39, 0xbe, 0xa0, 0x15, 0xba, 0x3d,
  0x56, 0x8e, 0x3b, 0x3e, 0x33, 0xc4, 0xec, 0x3d, 0xce, 0xdf, 0xc0, 0x3c,
  0x02, 0x99, 0x23, 0x3e, 0x98, 0x6b, 0x6d, 0xbe, 0x3f, 0xcf, 0x13, 0x3e,
  0x93, 0xd0, 0x53, 0xbe, 0xab, 0x2f, 0xd8, 0x3d, 0x1d, 0x85, 0x32, 0x3e,
  0x78, 0x8a, 0xbb, 0x3d, 0xc4, 0x17, 0x74, 0x3e, 0xd5, 0x39, 0x47, 0x3e,
  0x4b, 0x45, 0xa0, 0x3d, 0xed, 0x93, 0x92, 0xbe, 0x3c, 0x8e, 0x02, 0x3e,
  0xd8, 0x94, 0x99, 0xbe, 0xdd, 0xbb, 0x5c, 0x3e, 0x0f, 0x74, 0xb5, 0xbc,
  0xc8, 0xc7, 0xa3, 0xbe, 0x49, 0x74, 0x91, 0x3e, 0xbd, 0xa0, 0x8c, 0xbe,
  0xb4, 0x64, 0x73, 0x3e, 0xe8, 0x60, 0x9f, 0xbe, 0x18, 0xba, 0x34, 0xbe,
  0x59, 0x29, 0x5f, 0xbe, 0xcb, 0x63, 0x1d, 0x3e, 0xc1, 0xdc, 0x5d, 0xbd,
  0x21, 0x28, 0xf4, 0x3c, 0x24, 0xe3, 0xeb, 0x3d, 0xb7, 0x7d, 0x55, 0xbe,
  0xfa, 0x09, 0xa3, 0x3e, 0x1e, 0xe6, 0x73, 0xbd, 0x8b, 0xc3, 0x3f, 0x3d,
  0xab, 0x5b, 0xfe, 0xbd, 0x34, 0xaf, 0x8d, 0xbd, 0x33, 0x2d, 0x57, 0xbe,
  0xad, 0xd5, 0x58, 0xbc, 0x13, 0xdd, 0x1b, 0xbd, 0x5d, 0xf3, 0x6b, 0xbc,
  0x51, 0xef, 0x01, 0x3e, 0x24, 0x9b, 0x88, 0xbe, 0xcf, 0x66, 0x80, 0xbd,
  0x99, 0xac, 0x64, 0xbd, 0x95, 0xab, 0x9e, 0x3e, 0xd7, 0x10, 0x08, 0xbe,
  0x16, 0x9d, 0x2a, 0x3e, 0x79, 0x20, 0xc7, 0x3d, 0x3c, 0x45, 0x14, 0xbd,
  0xc1, 0x42, 0x9c, 0x3e, 0x3e, 0xb9, 0x11, 0x3d, 0xdf, 0xd2, 0x4d, 0x3e,
  0x0c, 0xa0, 0x9c, 0xbe, 0x63, 0x98, 0xc6, 0x3d, 0xf4, 0x57, 0x77, 0xbe,
  0x34, 0x19, 0xa8, 0x39, 0x90, 0xf1, 0x79, 0x3e, 0x4e, 0x94, 0x7a, 0xbc,
  0xe8, 0xbe, 0x89, 0x3e, 0x2d, 0xea, 0x81, 0xbc, 0x22, 0x5e, 0x22, 0xbe,
  0xfe, 0xc0, 0x59, 0xbd, 0xde, 0x29, 0xad, 0x3d, 0x61, 0xeb, 0x8e, 0xbe,
  0x70, 0xc4, 0xa7, 0xbb, 0x04, 0x9a, 0x1c, 0xbe, 0x25, 0xb5, 0x87, 0x3a,
  0x21, 0x09, 0xed, 0x3d, 0x50, 0x2c, 0x30, 0xbd, 0xcf, 0x56, 0xd1, 0xbd,
  0x31, 0xe1, 0x5b, 0x3e, 0x32, 0x31, 0x9c, 0xbe, 0xdb, 0xb5, 0x0d, 0x3e,
  0xd0, 0x06, 0x9e, 0x3e, 0x14, 0xb9, 0x86, 0xbe, 0xed, 0x73, 0x73, 0x3e,
  0x50, 0xa3, 0xa0, 0x3e, 0x8c, 0x91, 0x75, 0x3e, 0x42, 0xe9, 0x82, 0xbe,
  0xf9, 0xb4, 0x5a, 0x3e, 0x9f, 0xfc, 0x60, 0x3e, 0x4a, 0xbc, 0xb8, 0x3b,
  0xc9, 0x51, 0x63, 0xbe, 0x14, 0x78, 0x4a, 0xbe, 0xfd, 0xe6, 0x6b, 0x3e,
  0x36, 0x2e, 0xc6, 0x3d, 0xf3, 0xc2, 0x37, 0x3e, 0xc5, 0x8c, 0x64, 0xbe,
  0x0c, 0xb3, 0x41, 0x3e, 0x7b, 0x97, 0xa0, 0xbe, 0xc9, 0xaf, 0x62, 0xbe,
  0xe8, 0x72, 0x56, 0x3e, 0xf2, 0x8a, 0x42, 0xbe, 0x72, 0xbe, 0x58, 0xbe,
  0xae, 0x8b, 0x0b, 0x3d, 0x32, 0x88, 0x83, 0xbd, 0xe2, 0x30, 0x21, 0xbe,
  0x93, 0x57, 0x32, 0xbe, 0x18, 0x98, 0x3b, 0xbe, 0xd1, 0x2e, 0x86, 0x3e,
  0xea, 0x21, 0x03, 0xbe, 0xcb, 0xeb, 0xf9, 0xbd, 0xae, 0xb9, 0x92, 0xbe,
  0xd7, 0x42, 0x38, 0x3e, 0x99, 0x9f, 0x2e, 0x3e, 0x23, 0xfc, 0x72, 0x3d,
  0x79, 0x33, 0x39, 0x3e, 0xa9, 0x09, 0xb4, 0xbd, 0xe0, 0x0f, 0x69, 0x3d,
  0x21, 0x1f, 0x66, 0x3d, 0x88, 0x68, 0x6c, 0xbe, 0x52, 0xd6, 0x91, 0x3d,
  0x0b, 0x9a, 0x66, 0x3d, 0x32, 0x98, 0x97, 0xbe, 0x5a, 0x67, 0xbd, 0x3d,
  0x96, 0x44, 0xd7, 0x3c, 0xaf, 0x1d, 0xbd, 0x3d, 0x55, 0xdf, 0x26, 0x3e,
  0x75, 0x42, 0x63, 0xbe, 0x36, 0x4b, 0x28, 0x3e, 0x3b, 0xda, 0xb6, 0xbd,
  0xed, 0x5a, 0x53, 0x3e, 0xe2, 0x3d, 0x85, 0xbe, 0xd0, 0x26, 0x8c, 0xbe,
  0xea, 0x9b, 0x8b, 0xbe, 0xf8, 0x77, 0xc0, 0xbd, 0x65, 0x3a, 0x0c, 0x3e,
  0xb9, 0x95, 0x48, 0x3d, 0x0f, 0x78, 0x07, 0x3d, 0x5a, 0x96, 0x8e, 0xbe,
  0xa9, 0x25, 0x87, 0x3e, 0x90, 0x58, 0x19, 0xbe, 0xf8, 0xee, 0x05, 0xbe,
  0x14, 0x15, 0xb9, 0xbd, 0x4b, 0x6d, 0xce, 0xbd, 0xa1, 0x21, 0x95, 0xbe,
  0x1e, 0x4e, 0x61, 0xbe, 0xf2, 0x1e, 0x7b, 0x3e, 0xe2, 0x04, 0x21, 0xbe,
  0xfb, 0x19, 0xb6, 0x3d, 0x7b, 0x10, 0x92, 0xbd, 0x7d, 0xcb, 0x89, 0xbe,
  0xed, 0x9c, 0xa2, 0xbe, 0x97, 0x8d, 0x57, 0xbd, 0xbe, 0xee, 0x54, 0xbe,
  0x0e, 0xe4, 0x86, 0xbe, 0xf0, 0xb6, 0xd2, 0xb9, 0x99, 0x43, 0x0b, 0x3e,
  0x64, 0xbc, 0x99, 0xbe, 0x75, 0xe6, 0x84, 0xbe, 0x41, 0x81, 0x12, 0xbe,
  0x6c, 0x3f, 0xcf, 0xbd, 0xcb, 0xa4, 0x98, 0xbd, 0x98, 0xa1, 0x01, 0xbe,
  0x73, 0x40, 0x0c, 0x3e, 0x25, 0x2c, 0x2d, 0x3e, 0x1c, 0xcb, 0x3c, 0xbe,
  0xc7, 0xe1, 0x11, 0xbe, 0x9f, 0x11, 0x4d, 0xbe, 0x49, 0x94, 0x04, 0x3e,
  0x2c, 0xde, 0xea, 0x3c, 0x38, 0xf0, 0xd2, 0xbc, 0xb9, 0x80, 0x4d, 0x3e,
  0x9d, 0xf2, 0x05, 0xbe, 0xfc, 0xc6, 0x30, 0x3e, 0x55, 0x4c, 0x1d, 0x3e,
  0x7e, 0x9f, 0xa8, 0xbe, 0x89, 0x8a, 0x90, 0xbc, 0xda, 0x39, 0x74, 0x3d,
  0x9c, 0x65, 0x8e, 0x3e, 0xd3, 0x30, 0xeb, 0xbc, 0x8b, 0x8a, 0xb7, 0xbc,
  0xfe, 0x0b, 0x28, 0x3e, 0x32, 0xe3, 0xfe, 0xbc, 0x77, 0xce, 0x81, 0x3e,
  0x64, 0xdc, 0x9b, 0xbd, 0xd2, 0x25, 0x8b, 0x3e, 0xba, 0x1e, 0x6d, 0xbe,
  0x6b, 0xfe, 0x6a, 0xbe, 0x83, 0x39, 0x2e, 0x3e, 0x29, 0x76, 0x8f, 0xbe,
  0x04, 0x22, 0x1a, 0xbe, 0x6e, 0xad, 0xbc, 0x3d, 0xb9, 0x16, 0x52, 0xbd,
  0x8c, 0x07, 0xc3, 0xbd, 0x9e, 0x8b, 0x4b, 0xbd, 0xce, 0xf8, 0x8a, 0x3d,
  0x46, 0xb6, 0x20, 0xbe, 0x12, 0x78, 0x89, 0x3d, 0xd2, 0x2f, 0x02, 0x3e,
  0xc5, 0x30, 0x87, 0xbe, 0x1d, 0x2c, 0x8d, 0xbd, 0x5e, 0x61, 0x8d, 0x3e,
  0xcf, 0xb5, 0x6f, 0xbe, 0x67, 0xf4, 0x5f, 0x3e, 0x9a, 0xfa, 0x33, 0xbe,
  0xbf, 0x45, 0x09, 0xbe, 0x9a, 0xfc, 0xff, 0xff, 0x34, 0x00, 0x00, 0x00,
  0x06, 0x00, 0x00, 0x00, 0x08, 0x00, 0x00, 0x00, 0x34, 0x00, 0x00, 0x00,
  0x1e, 0x00, 0x00, 0x00, 0x73, 0x65, 0x71, 0x75, 0x65, 0x6e, 0x74, 0x69,
  0x61, 0x6c, 0x5f, 0x35, 0x31, 0x2f, 0x64, 0x65, 0x6e, 0x73, 0x65, 0x5f,
  0x32, 0x34, 0x37, 0x2f, 0x4d, 0x61, 0x74, 0x4d, 0x75, 0x6c, 0x00, 0x00,
  0x02, 0x00, 0x00, 0x00, 0x32, 0x00, 0x00, 0x00, 0x0a, 0x00, 0x00, 0x00,
  0x98, 0xfc, 0xff, 0xff, 0x76, 0xfd, 0xff, 0xff, 0x04, 0x00, 0x00, 0x00,
  0xa0, 0x00, 0x00, 0x00, 0x1c, 0x20, 0xa7, 0x3e, 0x24, 0x71, 0x11, 0xbd,
  0x12, 0x0e, 0xe6, 0xbb, 0x3c, 0x64, 0x25, 0x3f, 0x9b, 0xcc, 0x17, 0xbf,
  0x80, 0xe0, 0x10, 0xbf, 0x14, 0x95, 0xdb, 0xbe, 0x20, 0xd9, 0x06, 0x3f,
  0x86, 0x9d, 0x24, 0x3f, 0x47, 0x5a, 0x94, 0xbd, 0x0a, 0x8c, 0xa3, 0x3e,
  0xf1, 0x88, 0xc8, 0x3e, 0x14, 0x32, 0x8b, 0x3c, 0x84, 0xd2, 0xe1, 0xbb,
  0x32, 0xec, 0xeb, 0x3e, 0x04, 0x73, 0x7c, 0x3e, 0x91, 0xd0, 0xb5, 0x3e,
  0xcd, 0x6d, 0xf0, 0xbc, 0xdc, 0xbb, 0xe7, 0xbe, 0x71, 0xf3, 0x0d, 0x3e,
  0x19, 0xbc, 0x89, 0x3e, 0x83, 0xd4, 0x10, 0x3e, 0xb0, 0x25, 0x14, 0x3f,
  0xb2, 0x26, 0x20, 0x3f, 0x60, 0xf2, 0x23, 0xbf, 0x7f, 0x6b, 0x25, 0x3f,
  0x1c, 0xff, 0x25, 0xbf, 0x9e, 0x6e, 0xf9, 0x3d, 0x6b, 0xbc, 0x0d, 0x3e,
  0x8c, 0xf1, 0x05, 0xbf, 0x52, 0xd0, 0x05, 0xbf, 0x06, 0x6a, 0x48, 0x3e,
  0x33, 0xd8, 0x49, 0xbe, 0xf7, 0x3c, 0xcd, 0x3e, 0x14, 0x73, 0xcb, 0xbd,
  0x0f, 0x14, 0x9f, 0x3e, 0xe2, 0xaf, 0xcf, 0x3d, 0x96, 0xa6, 0xdd, 0xbe,
  0xfb, 0x1f, 0xa5, 0xbe, 0xa3, 0xe8, 0x0e, 0x3f, 0x8e, 0xfd, 0xff, 0xff,
  0x34, 0x00, 0x00, 0x00, 0x05, 0x00, 0x00, 0x00, 0x08, 0x00, 0x00, 0x00,
  0x34, 0x00, 0x00, 0x00, 0x1e, 0x00, 0x00, 0x00, 0x73, 0x65, 0x71, 0x75,
  0x65, 0x6e, 0x74, 0x69, 0x61, 0x6c, 0x5f, 0x35, 0x31, 0x2f, 0x64, 0x65,
  0x6e, 0x73, 0x65, 0x5f, 0x32, 0x34, 0x36, 0x2f, 0x4d, 0x61, 0x74, 0x4d,
  0x75, 0x6c, 0x00, 0x00, 0x02, 0x00, 0x00, 0x00, 0x0a, 0x00, 0x00, 0x00,
  0x04, 0x00, 0x00, 0x00, 0x8c, 0xfd, 0xff, 0xff, 0x6a, 0xfe, 0xff, 0xff,
  0x04, 0x00, 0x00, 0x00, 0x0c, 0x00, 0x00, 0x00, 0x97, 0x8c, 0x9a, 0x3c,
  0x7b, 0x28, 0xd8, 0xbb, 0x3a, 0xce, 0x86, 0xbc, 0xee, 0xfd, 0xff, 0xff,
  0x44, 0x00, 0x00, 0x00, 0x04, 0x00, 0x00, 0x00, 0x08, 0x00, 0x00, 0x00,
  0x40, 0x00, 0x00, 0x00, 0x2e, 0x00, 0x00, 0x00, 0x73, 0x65, 0x71, 0x75,
  0x65, 0x6e, 0x74, 0x69, 0x61, 0x6c, 0x5f, 0x35, 0x31, 0x2f, 0x64, 0x65,
  0x6e, 0x73, 0x65, 0x5f, 0x32, 0x34, 0x38, 0x2f, 0x42, 0x69, 0x61, 0x73,
  0x41, 0x64, 0x64, 0x2f, 0x52, 0x65, 0x61, 0x64, 0x56, 0x61, 0x72, 0x69,
  0x61, 0x62, 0x6c, 0x65, 0x4f, 0x70, 0x00, 0x00, 0x01, 0x00, 0x00, 0x00,
  0x03, 0x00, 0x00, 0x00, 0xf8, 0xfd, 0xff, 0xff, 0xd6, 0xfe, 0xff, 0xff,
  0x04, 0x00, 0x00, 0x00, 0xc8, 0x00, 0x00, 0x00, 0x5f, 0x37, 0xbb, 0x3b,
  0xb5, 0xbc, 0x3e, 0x3c, 0x21, 0xa5, 0x9b, 0x3c, 0x82, 0x98, 0x97, 0xbc,
  0x5c, 0x93, 0x9a, 0xbc, 0xca, 0x0e, 0x99, 0xbc, 0x05, 0x4c, 0x1f, 0xbc,
  0x49, 0x66, 0x91, 0xbb, 0xfd, 0xd8, 0xa6, 0xbc, 0x53, 0x4c, 0x48, 0x3c,
  0x81, 0xc2, 0xaa, 0xbb, 0x24, 0x49, 0x80, 0xbc, 0xfb, 0x3b, 0x8c, 0xbc,
  0x08, 0xaa, 0xa5, 0xbc, 0x65, 0xfe, 0xc6, 0x3b, 0x5f, 0xb2, 0xae, 0x3c,
  0x9e, 0xbe, 0x60, 0x3c, 0xee, 0xa9, 0xa5, 0xbc, 0xbf, 0x9e, 0x8d, 0xbc,
  0x15, 0xe0, 0x1b, 0xbc, 0x29, 0x8b, 0xe5, 0x3b, 0xff, 0xb0, 0x2d, 0x3c,
  0x12, 0x25, 0x8a, 0x3c, 0x36, 0x22, 0x52, 0xbc, 0x68, 0x63, 0x19, 0xbc,
  0x30, 0xeb, 0x02, 0xbc, 0x5e, 0x31, 0xb4, 0xbc, 0xff, 0x3c, 0x8e, 0xbc,
  0xdd, 0x0c, 0xad, 0xbc, 0x5d, 0x63, 0x36, 0x39, 0x05, 0x06, 0x85, 0xbc,
  0xcb, 0x88, 0x6c, 0x3b, 0x96, 0x1d, 0x17, 0xbc, 0xaf, 0x32, 0xaa, 0x3c,
  0x5b, 0xc1, 0xd8, 0xba, 0xba, 0xbe, 0x19, 0xbc, 0xf7, 0x68, 0x25, 0xbc,
  0x04, 0xa3, 0x80, 0xbb, 0x30, 0x8d, 0xb1, 0xbc, 0xbf, 0x90, 0x63, 0x3c,
  0x99, 0x66, 0x8f, 0x3c, 0xc4, 0xa3, 0x5c, 0x3b, 0x21, 0x59, 0x82, 0x3c,
  0x47, 0x51, 0xf4, 0xbb, 0x5e, 0xd4, 0x80, 0x3b, 0x40, 0xf6, 0x48, 0x3c,
  0x0f, 0x02, 0x7a, 0x3c, 0x63, 0x9b, 0x3f, 0x3c, 0xd4, 0x16, 0x57, 0x3c,
  0x4e, 0x08, 0xed, 0xbb, 0x16, 0xff, 0xff, 0xff, 0x44, 0x00, 0x00, 0x00,
  0x03, 0x00, 0x00, 0x00, 0x08, 0x00, 0x00, 0x00, 0x40, 0x00, 0x00, 0x00,
  0x2e, 0x00, 0x00, 0x00, 0x73, 0x65, 0x71, 0x75, 0x65, 0x6e, 0x74, 0x69,
  0x61, 0x6c, 0x5f, 0x35, 0x31, 0x2f, 0x64, 0x65, 0x6e, 0x73, 0x65, 0x5f,
  0x32, 0x34, 0x37, 0x2f, 0x42, 0x69, 0x61, 0x73, 0x41, 0x64, 0x64, 0x2f,
  0x52, 0x65, 0x61, 0x64, 0x56, 0x61, 0x72, 0x69, 0x61, 0x62, 0x6c, 0x65,
  0x4f, 0x70, 0x00, 0x00, 0x01, 0x00, 0x00, 0x00, 0x32, 0x00, 0x00, 0x00,
  0x70, 0xff, 0xff, 0xff, 0x00, 0x00, 0x06, 0x00, 0x08, 0x00, 0x04, 0x00,
  0x06, 0x00, 0x00, 0x00, 0x04, 0x00, 0x00, 0x00, 0x28, 0x00, 0x00, 0x00,
  0x6e, 0xa2, 0xaa, 0xbc, 0x82, 0xef, 0xb7, 0xbc, 0xbc, 0x2a, 0x1a, 0xbc,
  0x45, 0xcc, 0x50, 0xbc, 0x4d, 0x5e, 0xe2, 0x3b, 0x5c, 0xd9, 0xb3, 0xbc,
  0xb1, 0xdb, 0x4d, 0x3c, 0x5c, 0x0d, 0x45, 0xbc, 0x07, 0x98, 0xa1, 0xbc,
  0x92, 0x5f, 0x1d, 0x39, 0xa6, 0xff, 0xff, 0xff, 0x44, 0x00, 0x00, 0x00,
  0x02, 0x00, 0x00, 0x00, 0x08, 0x00, 0x00, 0x00, 0x44, 0x00, 0x00, 0x00,
  0x2e, 0x00, 0x00, 0x00, 0x73, 0x65, 0x71, 0x75, 0x65, 0x6e, 0x74, 0x69,
  0x61, 0x6c, 0x5f, 0x35, 0x31, 0x2f, 0x64, 0x65, 0x6e, 0x73, 0x65, 0x5f,
  0x32, 0x34, 0x36, 0x2f, 0x42, 0x69, 0x61, 0x73, 0x41, 0x64, 0x64, 0x2f,
  0x52, 0x65, 0x61, 0x64, 0x56, 0x61, 0x72, 0x69, 0x61, 0x62, 0x6c, 0x65,
  0x4f, 0x70, 0x00, 0x00, 0x01, 0x00, 0x00, 0x00, 0x0a, 0x00, 0x00, 0x00,
  0x04, 0x00, 0x06, 0x00, 0x04, 0x00, 0x00, 0x00, 0x00, 0x00, 0x0e, 0x00,
  0x14, 0x00, 0x04, 0x00, 0x00, 0x00, 0x08, 0x00, 0x0c, 0x00, 0x10, 0x00,
  0x0e, 0x00, 0x00, 0x00, 0x24, 0x00, 0x00, 0x00, 0x01, 0x00, 0x00, 0x00,
  0x08, 0x00, 0x00, 0x00, 0x24, 0x00, 0x00, 0x00, 0x0f, 0x00, 0x00, 0x00,
  0x64, 0x65, 0x6e, 0x73, 0x65, 0x5f, 0x32, 0x34, 0x36, 0x5f, 0x69, 0x6e,
  0x70, 0x75, 0x74, 0x00, 0x02, 0x00, 0x00, 0x00, 0x01, 0x00, 0x00, 0x00,
  0x04, 0x00, 0x00, 0x00, 0xfc, 0xff, 0xff, 0xff, 0x04, 0x00, 0x04, 0x00,
  0x04, 0x00, 0x00, 0x00
};
unsigned int g_model_len = 4540;
