unsigned char g_model[] = {
  0x1c, 0x00, 0x00, 0x00, 0x54, 0x46, 0x4c, 0x33, 0x00, 0x00, 0x12, 0x00,
  0x1c, 0x00, 0x04, 0x00, 0x08, 0x00, 0x0c, 0x00, 0x10, 0x00, 0x14, 0x00,
  0x00, 0x00, 0x18, 0x00, 0x12, 0x00, 0x00, 0x00, 0x03, 0x00, 0x00, 0x00,
  0xb4, 0x00, 0x00, 0x00, 0xa8, 0x00, 0x00, 0x00, 0x08, 0x01, 0x00, 0x00,
  0x08, 0x00, 0x00, 0x00, 0xb0, 0x00, 0x00, 0x00, 0x25, 0x00, 0x00, 0x00,
  0x24, 0x22, 0x00, 0x00, 0x20, 0x22, 0x00, 0x00, 0x44, 0x21, 0x00, 0x00,
  0xb0, 0x20, 0x00, 0x00, 0x24, 0x20, 0x00, 0x00, 0x98, 0x1f, 0x00, 0x00,
  0x0c, 0x1f, 0x00, 0x00, 0x80, 0x1e, 0x00, 0x00, 0xf4, 0x1d, 0x00, 0x00,
  0x68, 0x1d, 0x00, 0x00, 0xdc, 0x1c, 0x00, 0x00, 0x50, 0x1c, 0x00, 0x00,
  0xe0, 0x1b, 0x00, 0x00, 0x80, 0x19, 0x00, 0x00, 0x98, 0x17, 0x00, 0x00,
  0xb0, 0x15, 0x00, 0x00, 0xc8, 0x13, 0x00, 0x00, 0xe0, 0x11, 0x00, 0x00,
  0xf8, 0x0f, 0x00, 0x00, 0x10, 0x0e, 0x00, 0x00, 0x28, 0x0c, 0x00, 0x00,
  0x40, 0x0a, 0x00, 0x00, 0x58, 0x08, 0x00, 0x00, 0x88, 0x07, 0x00, 0x00,
  0xc4, 0x21, 0x00, 0x00, 0xc0, 0x21, 0x00, 0x00, 0xbc, 0x21, 0x00, 0x00,
  0xb8, 0x21, 0x00, 0x00, 0xb4, 0x21, 0x00, 0x00, 0xb0, 0x21, 0x00, 0x00,
  0xac, 0x21, 0x00, 0x00, 0xa8, 0x21, 0x00, 0x00, 0xa4, 0x21, 0x00, 0x00,
  0xa0, 0x21, 0x00, 0x00, 0x9c, 0x21, 0x00, 0x00, 0x98, 0x21, 0x00, 0x00,
  0x4c, 0x00, 0x00, 0x00, 0x01, 0x00, 0x00, 0x00, 0x84, 0x00, 0x00, 0x00,
  0x02, 0x00, 0x00, 0x00, 0xf0, 0x06, 0x00, 0x00, 0xb0, 0x01, 0x00, 0x00,
  0x01, 0x00, 0x00, 0x00, 0x0c, 0x00, 0x00, 0x00, 0x08, 0x00, 0x0c, 0x00,
  0x04, 0x00, 0x08, 0x00, 0x08, 0x00, 0x00, 0x00, 0x08, 0x00, 0x00, 0x00,
  0x24, 0x00, 0x00, 0x00, 0x13, 0x00, 0x00, 0x00, 0x6d, 0x69, 0x6e, 0x5f,
  0x72, 0x75, 0x6e, 0x74, 0x69, 0x6d, 0x65, 0x5f, 0x76, 0x65, 0x72, 0x73,
  0x69, 0x6f, 0x6e, 0x00, 0x96, 0xdf, 0xff, 0xff, 0x04, 0x00, 0x00, 0x00,
  0x10, 0x00, 0x00, 0x00, 0x31, 0x2e, 0x35, 0x2e, 0x30, 0x00, 0x00, 0x00,
  0x00, 0x00, 0x00, 0x00, 0x00, 0x00, 0x00, 0x00, 0x0f, 0x00, 0x00, 0x00,
  0x4d, 0x4c, 0x49, 0x52, 0x20, 0x43, 0x6f, 0x6e, 0x76, 0x65, 0x72, 0x74,
  0x65, 0x64, 0x2e, 0x00, 0x00, 0x00, 0x0e, 0x00, 0x18, 0x00, 0x04, 0x00,
  0x08, 0x00, 0x0c, 0x00, 0x10, 0x00, 0x14, 0x00, 0x0e, 0x00, 0x00, 0x00,
  0x64, 0x00, 0x00, 0x00, 0x58, 0x00, 0x00, 0x00, 0x4c, 0x00, 0x00, 0x00,
  0x14, 0x00, 0x00, 0x00, 0x04, 0x00, 0x00, 0x00, 0x04, 0x00, 0x00, 0x00,
  0x6d, 0x61, 0x69, 0x6e, 0x00, 0x00, 0x00, 0x00, 0x0c, 0x00, 0x00, 0x00,
  0x10, 0x06, 0x00, 0x00, 0x84, 0x05, 0x00, 0x00, 0x08, 0x05, 0x00, 0x00,
  0x8c, 0x04, 0x00, 0x00, 0x10, 0x04, 0x00, 0x00, 0x94, 0x03, 0x00, 0x00,
  0x18, 0x03, 0x00, 0x00, 0x9c, 0x02, 0x00, 0x00, 0x20, 0x02, 0x00, 0x00,
  0xa4, 0x01, 0x00, 0x00, 0x28, 0x01, 0x00, 0x00, 0xb4, 0x00, 0x00, 0x00,
  0x01, 0x00, 0x00, 0x00, 0x22, 0x00, 0x00, 0x00, 0x01, 0x00, 0x00, 0x00,
  0x00, 0x00, 0x00, 0x00, 0x23, 0x00, 0x00, 0x00, 0x60, 0x20, 0x00, 0x00,
  0xf4, 0x1f, 0x00, 0x00, 0x60, 0x1f, 0x00, 0x00, 0xd4, 0x1e, 0x00, 0x00,
  0x48, 0x1e, 0x00, 0x00, 0xbc, 0x1d, 0x00, 0x00, 0x30, 0x1d, 0x00, 0x00,
  0xa4, 0x1c, 0x00, 0x00, 0x18, 0x1c, 0x00, 0x00, 0x8c, 0x1b, 0x00, 0x00,
  0x00, 0x1b, 0x00, 0x00, 0x74, 0x1a, 0x00, 0x00, 0x10, 0x1a, 0x00, 0x00,
  0xb0, 0x17, 0x00, 0x00, 0xc8, 0x15, 0x00, 0x00, 0xe0, 0x13, 0x00, 0x00,
  0xf8, 0x11, 0x00, 0x00, 0x10, 0x10, 0x00, 0x00, 0x28, 0x0e, 0x00, 0x00,
  0x40, 0x0c, 0x00, 0x00, 0x58, 0x0a, 0x00, 0x00, 0x70, 0x08, 0x00, 0x00,
  0x88, 0x06, 0x00, 0x00, 0xb8, 0x05, 0x00, 0x00, 0x14, 0x05, 0x00, 0x00,
  0x98, 0x04, 0x00, 0x00, 0x1c, 0x04, 0x00, 0x00, 0xa0, 0x03, 0x00, 0x00,
  0x24, 0x03, 0x00, 0x00, 0xa8, 0x02, 0x00, 0x00, 0x2c, 0x02, 0x00, 0x00,
  0xb0, 0x01, 0x00, 0x00, 0x34, 0x01, 0x00, 0x00, 0xb8, 0x00, 0x00, 0x00,
  0x50, 0x00, 0x00, 0x00, 0x00, 0x00, 0x0e, 0x00, 0x18, 0x00, 0x08, 0x00,
  0x0c, 0x00, 0x10, 0x00, 0x07, 0x00, 0x14, 0x00, 0x0e, 0x00, 0x00, 0x00,
  0x00, 0x00, 0x00, 0x09, 0x01, 0x00, 0x00, 0x00, 0x1c, 0x00, 0x00, 0x00,
  0x10, 0x00, 0x00, 0x00, 0x04, 0x00, 0x00, 0x00, 0xf6, 0xe0, 0xff, 0xff,
  0x00, 0x00, 0x80, 0x3f, 0x01, 0x00, 0x00, 0x00, 0x22, 0x00, 0x00, 0x00,
  0x01, 0x00, 0x00, 0x00, 0x21, 0x00, 0x00, 0x00, 0xce, 0xfa, 0xff, 0xff,
  0x00, 0x00, 0x00, 0x19, 0x01, 0x00, 0x00, 0x00, 0x86, 0xe0, 0xff, 0xff,
  0x20, 0x00, 0x00, 0x00, 0x23, 0x00, 0x00, 0x00, 0x08, 0x00, 0x00, 0x00,
  0x20, 0x00, 0x00, 0x00, 0x08, 0x00, 0x00, 0x00, 0x49, 0x64, 0x65, 0x6e,
  0x74, 0x69, 0x74, 0x79, 0x00, 0x00, 0x00, 0x00, 0x02, 0x00, 0x00, 0x00,
  0x01, 0x00, 0x00, 0x00, 0x03, 0x00, 0x00, 0x00, 0x70, 0xe0, 0xff, 0xff,
  0x4e, 0xfb, 0xff, 0xff, 0x00, 0x00, 0x00, 0x08, 0x18, 0x00, 0x00, 0x00,
  0x0c, 0x00, 0x00, 0x00, 0x04, 0x00, 0x00, 0x00, 0x88, 0xe0, 0xff, 0xff,
  0x01, 0x00, 0x00, 0x00, 0x21, 0x00, 0x00, 0x00, 0x03, 0x00, 0x00, 0x00,
  0x20, 0x00, 0x00, 0x00, 0x16, 0x00, 0x00, 0x00, 0x0b, 0x00, 0x00, 0x00,
  0xea, 0xe0, 0xff, 0xff, 0x34, 0x00, 0x00, 0x00, 0x22, 0x00, 0x00, 0x00,
  0x08, 0x00, 0x00, 0x00, 0x34, 0x00, 0x00, 0x00, 0x1f, 0x00, 0x00, 0x00,
  0x73, 0x65, 0x71, 0x75, 0x65, 0x6e, 0x74, 0x69, 0x61, 0x6c, 0x5f, 0x35,
  0x36, 0x2f, 0x64, 0x65, 0x6e, 0x73, 0x65, 0x5f, 0x32, 0x37, 0x39, 0x2f,
  0x42, 0x69, 0x61, 0x73, 0x41, 0x64, 0x64, 0x00, 0x02, 0x00, 0x00, 0x00,
  0x01, 0x00, 0x00, 0x00, 0x03, 0x00, 0x00, 0x00, 0xe8, 0xe0, 0xff, 0xff,
  0xc6, 0xfb, 0xff, 0xff, 0x00, 0x00, 0x00, 0x08, 0x18, 0x00, 0x00, 0x00,
  0x0c, 0x00, 0x00, 0x00, 0x04, 0x00, 0x00, 0x00, 0x00, 0xe1, 0xff, 0xff,
  0x01, 0x00, 0x00, 0x00, 0x20, 0x00, 0x00, 0x00, 0x03, 0x00, 0x00, 0x00,
  0x1f, 0x00, 0x00, 0x00, 0x15, 0x00, 0x00, 0x00, 0x0a, 0x00, 0x00, 0x00,
  0x62, 0xe1, 0xff, 0xff, 0x34, 0x00, 0x00, 0x00, 0x21, 0x00, 0x00, 0x00,
  0x08, 0x00, 0x00, 0x00, 0x34, 0x00, 0x00, 0x00, 0x1f, 0x00, 0x00, 0x00,
  0x73, 0x65, 0x71, 0x75, 0x65, 0x6e, 0x74, 0x69, 0x61, 0x6c, 0x5f, 0x35,
  0x36, 0x2f, 0x64, 0x65, 0x6e, 0x73, 0x65, 0x5f, 0x32, 0x37, 0x38, 0x2f,
  0x42, 0x69, 0x61, 0x73, 0x41, 0x64, 0x64, 0x00, 0x02, 0x00, 0x00, 0x00,
  0x01, 0x00, 0x00, 0x00, 0x0a, 0x00, 0x00, 0x00, 0x60, 0xe1, 0xff, 0xff,
  0x3e, 0xfc, 0xff, 0xff, 0x00, 0x00, 0x00, 0x08, 0x18, 0x00, 0x00, 0x00,
  0x0c, 0x00, 0x00, 0x00, 0x04, 0x00, 0x00, 0x00, 0x78, 0xe1, 0xff, 0xff,
  0x01, 0x00, 0x00, 0x00, 0x1f, 0x00, 0x00, 0x00, 0x03, 0x00, 0x00, 0x00,
  0x1e, 0x00, 0x00, 0x00, 0x14, 0x00, 0x00, 0x00, 0x09, 0x00, 0x00, 0x00,
  0xda, 0xe1, 0xff, 0xff, 0x34, 0x00, 0x00, 0x00, 0x20, 0x00, 0x00, 0x00,
  0x08, 0x00, 0x00, 0x00, 0x34, 0x00, 0x00, 0x00, 0x1f, 0x00, 0x00, 0x00,
  0x73, 0x65, 0x71, 0x75, 0x65, 0x6e, 0x74, 0x69, 0x61, 0x6c, 0x5f, 0x35,
  0x36, 0x2f, 0x64, 0x65, 0x6e, 0x73, 0x65, 0x5f, 0x32, 0x37, 0x37, 0x2f,
  0x42, 0x69, 0x61, 0x73, 0x41, 0x64, 0x64, 0x00, 0x02, 0x00, 0x00, 0x00,
  0x01, 0x00, 0x00, 0x00, 0x0a, 0x00, 0x00, 0x00, 0xd8, 0xe1, 0xff, 0xff,
  0xb6, 0xfc, 0xff, 0xff, 0x00, 0x00, 0x00, 0x08, 0x18, 0x00, 0x00, 0x00,
  0x0c, 0x00, 0x00, 0x00, 0x04, 0x00, 0x00, 0x00, 0xf0, 0xe1, 0xff, 0xff,
  0x01, 0x00, 0x00, 0x00, 0x1e, 0x00, 0x00, 0x00, 0x03, 0x00, 0x00, 0x00,
  0x1d, 0x00, 0x00, 0x00, 0x13, 0x00, 0x00, 0x00, 0x08, 0x00, 0x00, 0x00,
  0x52, 0xe2, 0xff, 0xff, 0x34, 0x00, 0x00, 0x00, 0x1f, 0x00, 0x00, 0x00,
  0x08, 0x00, 0x00, 0x00, 0x34, 0x00, 0x00, 0x00, 0x1f, 0x00, 0x00, 0x00,
  0x73, 0x65, 0x71, 0x75, 0x65, 0x6e, 0x74, 0x69, 0x61, 0x6c, 0x5f, 0x35,
  0x36, 0x2f, 0x64, 0x65, 0x6e, 0x73, 0x65, 0x5f, 0x32, 0x37, 0x36, 0x2f,
  0x42, 0x69, 0x61, 0x73, 0x41, 0x64, 0x64, 0x00, 0x02, 0x00, 0x00, 0x00,
  0x01, 0x00, 0x00, 0x00, 0x0a, 0x00, 0x00, 0x00, 0x50, 0xe2, 0xff, 0xff,
  0x2e, 0xfd, 0xff, 0xff, 0x00, 0x00, 0x00, 0x08, 0x18, 0x00, 0x00, 0x00,
  0x0c, 0x00, 0x00, 0x00, 0x04, 0x00, 0x00, 0x00, 0x68, 0xe2, 0xff, 0xff,
  0x01, 0x00, 0x00, 0x00, 0x1d, 0x00, 0x00, 0x00, 0x03, 0x00, 0x00, 0x00,
  0x1c, 0x00, 0x00, 0x00, 0x12, 0x00, 0x00, 0x00, 0x07, 0x00, 0x00, 0x00,
  0xca, 0xe2, 0xff, 0xff, 0x34, 0x00, 0x00, 0x00, 0x1e, 0x00, 0x00, 0x00,
  0x08, 0x00, 0x00, 0x00, 0x34, 0x00, 0x00, 0x00, 0x1f, 0x00, 0x00, 0x00,
  0x73, 0x65, 0x71, 0x75, 0x65, 0x6e, 0x74, 0x69, 0x61, 0x6c, 0x5f, 0x35,
  0x36, 0x2f, 0x64, 0x65, 0x6e, 0x73, 0x65, 0x5f, 0x32, 0x37, 0x35, 0x2f,
  0x42, 0x69, 0x61, 0x73, 0x41, 0x64, 0x64, 0x00, 0x02, 0x00, 0x00, 0x00,
  0x01, 0x00, 0x00, 0x00, 0x0a, 0x00, 0x00, 0x00, 0xc8, 0xe2, 0xff, 0xff,
  0xa6, 0xfd, 0xff, 0xff, 0x00, 0x00, 0x00, 0x08, 0x18, 0x00, 0x00, 0x00,
  0x0c, 0x00, 0x00, 0x00, 0x04, 0x00, 0x00, 0x00, 0xe0, 0xe2, 0xff, 0xff,
  0x01, 0x00, 0x00, 0x00, 0x1c, 0x00, 0x00, 0x00, 0x03, 0x00, 0x00, 0x00,
  0x1b, 0x00, 0x00, 0x00, 0x11, 0x00, 0x00, 0x00, 0x06, 0x00, 0x00, 0x00,
  0x42, 0xe3, 0xff, 0xff, 0x34, 0x00, 0x00, 0x00, 0x1d, 0x00, 0x00, 0x00,
  0x08, 0x00, 0x00, 0x00, 0x34, 0x00, 0x00, 0x00, 0x1f, 0x00, 0x00, 0x00,
  0x73, 0x65, 0x71, 0x75, 0x65, 0x6e, 0x74, 0x69, 0x61, 0x6c, 0x5f, 0x35,
  0x36, 0x2f, 0x64, 0x65, 0x6e, 0x73, 0x65, 0x5f, 0x32, 0x37, 0x34, 0x2f,
  0x42, 0x69, 0x61, 0x73, 0x41, 0x64, 0x64, 0x00, 0x02, 0x00, 0x00, 0x00,
  0x01, 0x00, 0x00, 0x00, 0x0a, 0x00, 0x00, 0x00, 0x40, 0xe3, 0xff, 0xff,
  0x1e, 0xfe, 0xff, 0xff, 0x00, 0x00, 0x00, 0x08, 0x18, 0x00, 0x00, 0x00,
  0x0c, 0x00, 0x00, 0x00, 0x04, 0x00, 0x00, 0x00, 0x58, 0xe3, 0xff, 0xff,
  0x01, 0x00, 0x00, 0x00, 0x1b, 0x00, 0x00, 0x00, 0x03, 0x00, 0x00, 0x00,
  0x1a, 0x00, 0x00, 0x00, 0x10, 0x00, 0x00, 0x00, 0x05, 0x00, 0x00, 0x00,
  0xba, 0xe3, 0xff, 0xff, 0x34, 0x00, 0x00, 0x00, 0x1c, 0x00, 0x00, 0x00,
  0x08, 0x00, 0x00, 0x00, 0x34, 0x00, 0x00, 0x00, 0x1f, 0x00, 0x00, 0x00,
  0x73, 0x65, 0x71, 0x75, 0x65, 0x6e, 0x74, 0x69, 0x61, 0x6c, 0x5f, 0x35,
  0x36, 0x2f, 0x64, 0x65, 0x6e, 0x73, 0x65, 0x5f, 0x32, 0x37, 0x33, 0x2f,
  0x42, 0x69, 0x61, 0x73, 0x41, 0x64, 0x64, 0x00, 0x02, 0x00, 0x00, 0x00,
  0x01, 0x00, 0x00, 0x00, 0x0a, 0x00, 0x00, 0x00, 0xb8, 0xe3, 0xff, 0xff,
  0x96, 0xfe, 0xff, 0xff, 0x00, 0x00, 0x00, 0x08, 0x18, 0x00, 0x00, 0x00,
  0x0c, 0x00, 0x00, 0x00, 0x04, 0x00, 0x00, 0x00, 0xd0, 0xe3, 0xff, 0xff,
  0x01, 0x00, 0x00, 0x00, 0x1a, 0x00, 0x00, 0x00, 0x03, 0x00, 0x00, 0x00,
  0x19, 0x00, 0x00, 0x00, 0x0f, 0x00, 0x00, 0x00, 0x04, 0x00, 0x00, 0x00,
  0x32, 0xe4, 0xff, 0xff, 0x34, 0x00, 0x00, 0x00, 0x1b, 0x00, 0x00, 0x00,
  0x08, 0x00, 0x00, 0x00, 0x34, 0x00, 0x00, 0x00, 0x1f, 0x00, 0x00, 0x00,
  0x73, 0x65, 0x71, 0x75, 0x65, 0x6e, 0x74, 0x69, 0x61, 0x6c, 0x5f, 0x35,
  0x36, 0x2f, 0x64, 0x65, 0x6e, 0x73, 0x65, 0x5f, 0x32, 0x37, 0x32, 0x2f,
  0x42, 0x69, 0x61, 0x73, 0x41, 0x64, 0x64, 0x00, 0x02, 0x00, 0x00, 0x00,
  0x01, 0x00, 0x00, 0x00, 0x0a, 0x00, 0x00, 0x00, 0x30, 0xe4, 0xff, 0xff,
  0x0e, 0xff, 0xff, 0xff, 0x00, 0x00, 0x00, 0x08, 0x18, 0x00, 0x00, 0x00,
  0x0c, 0x00, 0x00, 0x00, 0x04, 0x00, 0x00, 0x00, 0x48, 0xe4, 0xff, 0xff,
  0x01, 0x00, 0x00, 0x00, 0x19, 0x00, 0x00, 0x00, 0x03, 0x00, 0x00, 0x00,
  0x18, 0x00, 0x00, 0x00, 0x0e, 0x00, 0x00, 0x00, 0x03, 0x00, 0x00, 0x00,
  0xaa, 0xe4, 0xff, 0xff, 0x34, 0x00, 0x00, 0x00, 0x1a, 0x00, 0x00, 0x00,
  0x08, 0x00, 0x00, 0x00, 0x34, 0x00, 0x00, 0x00, 0x1f, 0x00, 0x00, 0x00,
  0x73, 0x65, 0x71, 0x75, 0x65, 0x6e, 0x74, 0x69, 0x61, 0x6c, 0x5f, 0x35,
  0x36, 0x2f, 0x64, 0x65, 0x6e, 0x73, 0x65, 0x5f, 0x32, 0x37, 0x31, 0x2f,
  0x42, 0x69, 0x61, 0x73, 0x41, 0x64, 0x64, 0x00, 0x02, 0x00, 0x00, 0x00,
  0x01, 0x00, 0x00, 0x00, 0x0a, 0x00, 0x00, 0x00, 0xa8, 0xe4, 0xff, 0xff,
  0x86, 0xff, 0xff, 0xff, 0x00, 0x00, 0x00, 0x08, 0x18, 0x00, 0x00, 0x00,
  0x0c, 0x00, 0x00, 0x00, 0x04, 0x00, 0x00, 0x00, 0xc0, 0xe4, 0xff, 0xff,
  0x01, 0x00, 0x00, 0x00, 0x18, 0x00, 0x00, 0x00, 0x03, 0x00, 0x00, 0x00,
  0x17, 0x00, 0x00, 0x00, 0x0d, 0x00, 0x00, 0x00, 0x02, 0x00, 0x00, 0x00,
  0x22, 0xe5, 0xff, 0xff, 0x34, 0x00, 0x00, 0x00, 0x19, 0x00, 0x00, 0x00,
  0x08, 0x00, 0x00, 0x00, 0x34, 0x00, 0x00, 0x00, 0x1f, 0x00, 0x00, 0x00,
  0x73, 0x65, 0x71, 0x75, 0x65, 0x6e, 0x74, 0x69, 0x61, 0x6c, 0x5f, 0x35,
  0x36, 0x2f, 0x64, 0x65, 0x6e, 0x73, 0x65, 0x5f, 0x32, 0x37, 0x30, 0x2f,
  0x42, 0x69, 0x61, 0x73, 0x41, 0x64, 0x64, 0x00, 0x02, 0x00, 0x00, 0x00,
  0x01, 0x00, 0x00, 0x00, 0x0a, 0x00, 0x00, 0x00, 0x70, 0xe5, 0xff, 0xff,
  0x00, 0x00, 0x0e, 0x00, 0x14, 0x00, 0x00, 0x00, 0x08, 0x00, 0x0c, 0x00,
  0x07, 0x00, 0x10, 0x00, 0x0e, 0x00, 0x00, 0x00, 0x00, 0x00, 0x00, 0x08,
  0x18, 0x00, 0x00, 0x00, 0x0c, 0x00, 0x00, 0x00, 0x04, 0x00, 0x00, 0x00,
  0x48, 0xe5, 0xff, 0xff, 0x01, 0x00, 0x00, 0x00, 0x17, 0x00, 0x00, 0x00,
  0x03, 0x00, 0x00, 0x00, 0x00, 0x00, 0x00, 0x00, 0x0c, 0x00, 0x00, 0x00,
  0x01, 0x00, 0x00, 0x00, 0x00, 0x00, 0x0a, 0x00, 0x0c, 0x00, 0x07, 0x00,
  0x00, 0x00, 0x08, 0x00, 0x0a, 0x00, 0x00, 0x00, 0x00, 0x00, 0x00, 0x09,
  0x01, 0x00, 0x00, 0x00, 0xc2, 0xe5, 0xff, 0xff, 0x34, 0x00, 0x00, 0x00,
  0x18, 0x00, 0x00, 0x00, 0x08, 0x00, 0x00, 0x00, 0x34, 0x00, 0x00, 0x00,
  0x1f, 0x00, 0x00, 0x00, 0x73, 0x65, 0x71, 0x75, 0x65, 0x6e, 0x74, 0x69,
  0x61, 0x6c, 0x5f, 0x35, 0x36, 0x2f, 0x64, 0x65, 0x6e, 0x73, 0x65, 0x5f,
  0x32, 0x36, 0x39, 0x2f, 0x42, 0x69, 0x61, 0x73, 0x41, 0x64, 0x64, 0x00,
  0x02, 0x00, 0x00, 0x00, 0x01, 0x00, 0x00, 0x00, 0x0a, 0x00, 0x00, 0x00,
  0xc0, 0xe5, 0xff, 0xff, 0x9e, 0xe6, 0xff, 0xff, 0x04, 0x00, 0x00, 0x00,
  0x78, 0x00, 0x00, 0x00, 0x82, 0x45, 0x83, 0xbd, 0x1d, 0xb8, 0x7c, 0x3e,
  0xf6, 0x78, 0x18, 0xbe, 0xc2, 0xbc, 0x1a, 0xbf, 0xd3, 0xeb, 0x39, 0xbd,
  0x6d, 0xfe, 0x34, 0x3d, 0x80, 0xd8, 0x64, 0xbd, 0xb6, 0x68, 0x90, 0x3d,
  0xd5, 0xfd, 0xd6, 0xbe, 0x26, 0x96, 0x06, 0xbf, 0xd8, 0x7a, 0xec, 0xbe,
  0xd6, 0x69, 0xd9, 0x3e, 0x23, 0x4a, 0x3f, 0x3d, 0xf8, 0xb8, 0x24, 0x3f,
  0xc3, 0x52, 0xe9, 0x3e, 0xf3, 0xbb, 0x01, 0x3e, 0x8e, 0x4f, 0x5b, 0x3e,
  0x15, 0x33, 0x4a, 0xbe, 0x55, 0x1c, 0xe0, 0xbe, 0x73, 0x64, 0x01, 0xbf,
  0xfa, 0xbc, 0xba, 0xbe, 0xb3, 0xbb, 0x28, 0x3f, 0x7a, 0x3b, 0x17, 0xbe,
  0xac, 0x1e, 0xc7, 0xbe, 0xb7, 0x50, 0x85, 0xbe, 0xe3, 0xe1, 0xbe, 0x3e,
  0xb1, 0x11, 0xcf, 0x3e, 0x6b, 0x18, 0x4c, 0x3d, 0x0f, 0x69, 0xea, 0x3b,
  0xbe, 0x34, 0xf4, 0x3e, 0x8e, 0xe6, 0xff, 0xff, 0x34, 0x00, 0x00, 0x00,
  0x17, 0x00, 0x00, 0x00, 0x08, 0x00, 0x00, 0x00, 0x34, 0x00, 0x00, 0x00,
  0x1e, 0x00, 0x00, 0x00, 0x73, 0x65, 0x71, 0x75, 0x65, 0x6e, 0x74, 0x69,
  0x61, 0x6c, 0x5f, 0x35, 0x36, 0x2f, 0x64, 0x65, 0x6e, 0x73, 0x65, 0x5f,
  0x32, 0x37, 0x39, 0x2f, 0x4d, 0x61, 0x74, 0x4d, 0x75, 0x6c, 0x00, 0x00,
  0x02, 0x00, 0x00, 0x00, 0x03, 0x00, 0x00, 0x00, 0x0a, 0x00, 0x00, 0x00,
  0x8c, 0xe6, 0xff, 0xff, 0x6a, 0xe7, 0xff, 0xff, 0x04, 0x00, 0x00, 0x00,
  0x90, 0x01, 0x00, 0x00, 0x5e, 0xed, 0xc5, 0xbe, 0xf5, 0x5e, 0x8c, 0xbe,
  0xc2, 0x6a, 0xd4, 0xbd, 0x1f, 0xa1, 0x55, 0x3e, 0x82, 0x9c, 0x31, 0xbe,
  0x4d, 0x1c, 0x06, 0xbf, 0xf7, 0x64, 0x88, 0x3e, 0x3d, 0x4f, 0xb4, 0x3e,
  0x97, 0xc7, 0xb0, 0xbe, 0x76, 0xe9, 0x99, 0xbd, 0xc8, 0x86, 0x3a, 0xbd,
  0x01, 0xea, 0x76, 0x3e, 0x10, 0x37, 0x2b, 0xbe, 0xec, 0x5d, 0x0d, 0x3e,
  0x63, 0x60, 0x4a, 0xbe, 0xdf, 0x81, 0xf6, 0xbe, 0xba, 0x0e, 0x1e, 0x3e,
  0x4b, 0x9c, 0xbe, 0xbd, 0xcd, 0x87, 0xd4, 0x3e, 0xc8, 0xde, 0xa5, 0x3e,
  0xe6, 0x8a, 0xa2, 0x3d, 0x0b, 0xef, 0xad, 0xbe, 0x17, 0x91, 0xbd, 0x3e,
  0x28, 0x10, 0x3b, 0xbe, 0xbc, 0x8a, 0xe6, 0x3e, 0xb7, 0x6a, 0x1d, 0xbe,
  0x27, 0x73, 0x83, 0xbe, 0xcc, 0x32, 0xb0, 0x3e, 0xae, 0x1d, 0xd5, 0xbd,
  0x1d, 0x3e, 0xc5, 0xbe, 0xdd, 0xd5, 0xde, 0x3e, 0x0a, 0x23, 0xb3, 0xbe,
  0x85, 0x70, 0x04, 0xbf, 0x39, 0xd5, 0x53, 0x3e, 0xa8, 0xd0, 0x0e, 0xbe,
  0xf8, 0x6a, 0xc0, 0x3e, 0x0b, 0x3c, 0x2b, 0x3d, 0x67, 0x00, 0xf4, 0x3e,
  0xf1, 0x3f, 0xa1, 0x3e, 0xa9, 0x60, 0x49, 0x3e, 0x70, 0xa7, 0x8e, 0x3e,
  0xe9, 0xea, 0xad, 0x3e, 0x74, 0xb3, 0xbe, 0x3e, 0x8d, 0x34, 0xdc, 0xbe,
  0x67, 0x3d, 0x07, 0xbe, 0x41, 0xd0, 0x38, 0x3e, 0x5b, 0xe7, 0xe7, 0x3e,
  0xfb, 0x3e, 0xfe, 0x3d, 0xf6, 0x8c, 0x74, 0xbe, 0x01, 0x98, 0x88, 0x3e,
  0xea, 0xdd, 0x16, 0xbc, 0x00, 0xfc, 0x09, 0x3f, 0x59, 0x26, 0x86, 0xbd,
  0x39, 0x03, 0xb9, 0xbe, 0x40, 0x67, 0x54, 0x3e, 0xd5, 0x30, 0xe9, 0x3e,
  0x1c, 0x32, 0xee, 0xbe, 0x48, 0xf4, 0x20, 0xbe, 0x96, 0x7b, 0x74, 0x3e,
  0x37, 0xf5, 0xe0, 0x3e, 0x0b, 0x17, 0x7d, 0xbe, 0x84, 0x77, 0x23, 0x3e,
  0x94, 0x03, 0x9e, 0xbe, 0x5d, 0xe0, 0x50, 0xbe, 0x61, 0xc2, 0x3f, 0x3c,
  0x88, 0xc4, 0xfb, 0x3e, 0xff, 0xdc, 0x70, 0x3e, 0x92, 0x9f, 0x6e, 0xbb,
  0x9c, 0xf8, 0x4a, 0x3e, 0x51, 0xb2, 0xf8, 0xbe, 0xd6, 0x57, 0x52, 0x3e,
  0xa4, 0x5e, 0xa7, 0xbd, 0x00, 0x63, 0xee, 0x3e, 0x68, 0xfd, 0x00, 0xbf,
  0xf6, 0x13, 0xa0, 0x3e, 0xd1, 0xf9, 0x51, 0xbb, 0x5f, 0x25, 0x22, 0xbe,
  0x5f, 0xef, 0x78, 0xbd, 0x76, 0xfd, 0xa6, 0xbe, 0x28, 0xa3, 0x1c, 0xbe,
  0xdc, 0x79, 0xff, 0xbe, 0x0f, 0xb9, 0x61, 0xbe, 0xe5, 0xf5, 0xc0, 0x3e,
  0x29, 0x0c, 0x20, 0xbe, 0x95, 0x80, 0xb6, 0x3e, 0x11, 0xa5, 0xd4, 0x3e,
  0xe8, 0xeb, 0x34, 0xbe, 0x77, 0x23, 0xb2, 0xbe, 0xc2, 0xfe, 0xd1, 0x3e,
  0x1e, 0xc0, 0xd6, 0x3d, 0xc3, 0x13, 0xc6, 0x3e, 0x02, 0x7a, 0x7e, 0xbe,
  0x2d, 0xbb, 0x47, 0x3e, 0x1f, 0xaf, 0xf2, 0xbe, 0x6a, 0x31, 0x85, 0x3e,
  0x1c, 0x63, 0x3f, 0xbe, 0x1b, 0x7d, 0x04, 0xbf, 0x61, 0x47, 0xa9, 0x3e,
  0x88, 0xb6, 0xba, 0x3e, 0x34, 0x32, 0xe4, 0x3b, 0x72, 0xe8, 0xff, 0xff,
  0x34, 0x00, 0x00, 0x00, 0x16, 0x00, 0x00, 0x00, 0x08, 0x00, 0x00, 0x00,
  0x34, 0x00, 0x00, 0x00, 0x1e, 0x00, 0x00, 0x00, 0x73, 0x65, 0x71, 0x75,
  0x65, 0x6e, 0x74, 0x69, 0x61, 0x6c, 0x5f, 0x35, 0x36, 0x2f, 0x64, 0x65,
  0x6e, 0x73, 0x65, 0x5f, 0x32, 0x37, 0x38, 0x2f, 0x4d, 0x61, 0x74, 0x4d,
  0x75, 0x6c, 0x00, 0x00, 0x02, 0x00, 0x00, 0x00, 0x0a, 0x00, 0x00, 0x00,
  0x0a, 0x00, 0x00, 0x00, 0x70, 0xe8, 0xff, 0xff, 0x4e, 0xe9, 0xff, 0xff,
  0x04, 0x00, 0x00, 0x00, 0x90, 0x01, 0x00, 0x00, 0x7e, 0xe4, 0x4c, 0xbe,
  0xb3, 0xb8, 0x83, 0xbe, 0x2c, 0x6c, 0x04, 0x3f, 0xc8, 0x36, 0x74, 0x3c,
  0xa9, 0xf8, 0x75, 0xbe, 0x6f, 0xe4, 0xc9, 0xbc, 0xc8, 0x9e, 0x41, 0x3c,
  0x9e, 0xdf, 0xdb, 0xbe, 0x99, 0x5c, 0xb8, 0x3e, 0x5a, 0xa2, 0x02, 0xbf,
  0x67, 0x5c, 0x1e, 0xbe, 0x62, 0x22, 0xb0, 0xbe, 0x73, 0x98, 0x0c, 0x3e,
  0x49, 0x83, 0x3f, 0x3e, 0x69, 0x73, 0xf3, 0x3a, 0xb5, 0xd9, 0x0c, 0xbe,
  0xb1, 0x2e, 0xf3, 0xbd, 0xff, 0x88, 0x84, 0x3e, 0xc7, 0x40, 0xf3, 0x3e,
  0x6c, 0x4a, 0x01, 0xbf, 0x47, 0x3e, 0x54, 0x3e, 0x2e, 0x3d, 0x40, 0xbe,
  0x33, 0x40, 0x6b, 0xbe, 0xb3, 0x48, 0xfd, 0xbe, 0x53, 0xec, 0xd8, 0x3d,
  0x09, 0xb6, 0xc9, 0xbe, 0x81, 0x2d, 0x03, 0xbf, 0xbe, 0x2a, 0x1f, 0xbe,
  0x09, 0xb8, 0x7d, 0xbe, 0xfd, 0xf4, 0x23, 0x3e, 0x05, 0x2b, 0xa5, 0xbe,
  0x13, 0xa0, 0xe2, 0x3e, 0xcc, 0x8f, 0x53, 0xbe, 0xf3, 0x33, 0x03, 0x3d,
  0xbd, 0x8c, 0x42, 0xbe, 0xf8, 0xd5, 0x65, 0xbe, 0x0e, 0xcb, 0x79, 0xbe,
  0x30, 0x0c, 0xf1, 0x3e, 0xfd, 0xaa, 0x88, 0x3e, 0x98, 0x14, 0x8e, 0xbd,
  0xe7, 0x7d, 0xdd, 0x3d, 0xfd, 0x5a, 0x34, 0xbd, 0x74, 0xfd, 0x2c, 0x3e,
  0xc1, 0x73, 0x80, 0x3d, 0xdd, 0x43, 0xeb, 0x3e, 0x5f, 0xd8, 0xfd, 0xbc,
  0x29, 0xc5, 0x8c, 0x3e, 0x11, 0x8f, 0xef, 0xbe, 0x88, 0x16, 0xd5, 0x3e,
  0x6c, 0xd4, 0x04, 0xbf, 0xc3, 0xd1, 0x0d, 0xbe, 0x60, 0xfb, 0x53, 0x3e,
  0xad, 0x80, 0x9c, 0xbd, 0x30, 0x9b, 0x21, 0x3e, 0x58, 0x39, 0x62, 0x3e,
  0x97, 0x72, 0xf0, 0x3e, 0x4d, 0x47, 0xcf, 0xbc, 0xbd, 0xba, 0xeb, 0xbe,
  0x00, 0xac, 0xe9, 0x3e, 0xd5, 0xa4, 0x86, 0xbe, 0x15, 0x2a, 0x93, 0xbe,
  0x27, 0x45, 0x89, 0xbe, 0x23, 0x59, 0xe8, 0x3e, 0x79, 0x20, 0x8e, 0x3d,
  0x60, 0x3a, 0x03, 0x3f, 0x4a, 0x77, 0x19, 0xbe, 0x35, 0xb1, 0x6f, 0x3e,
  0x02, 0x49, 0xc6, 0xbe, 0x17, 0xfd, 0xa3, 0x3e, 0x41, 0x4e, 0x8e, 0xbe,
  0x93, 0xdb, 0x06, 0xbd, 0xc8, 0xcc, 0x1c, 0x3e, 0x4d, 0x81, 0x87, 0xbe,
  0x16, 0xfd, 0x9d, 0xbe, 0x4e, 0x0c, 0xe4, 0xbe, 0xc1, 0x11, 0x0f, 0x3e,
  0xe1, 0xee, 0x3e, 0xbe, 0x38, 0xf3, 0x86, 0x39, 0x24, 0x79, 0x08, 0xbf,
  0x00, 0xec, 0x8a, 0xbe, 0x6d, 0x87, 0x2e, 0xbe, 0xc0, 0x08, 0x55, 0x3e,
  0x5a, 0x98, 0x0c, 0x3f, 0x78, 0xde, 0x2c, 0x3d, 0x72, 0xab, 0x83, 0xbe,
  0x4b, 0x7d, 0x04, 0xbf, 0x74, 0x1e, 0x47, 0x3e, 0x8c, 0x4e, 0x81, 0x3e,
  0x2d, 0x30, 0x3f, 0x3e, 0x9f, 0x60, 0x7e, 0x3e, 0x07, 0xa3, 0xb6, 0xbe,
  0x26, 0xa3, 0x02, 0x3f, 0x2f, 0x58, 0xe1, 0xbe, 0x69, 0x0d, 0x61, 0x3d,
  0x8a, 0xa3, 0xf3, 0xbe, 0xbf, 0xf0, 0x0d, 0xbd, 0x17, 0x81, 0x92, 0xbe,
  0x65, 0xc8, 0x69, 0x3e, 0xa0, 0x7b, 0x0b, 0x3f, 0x5f, 0xdc, 0xd2, 0x3e,
  0x56, 0xea, 0xff, 0xff, 0x34, 0x00, 0x00, 0x00, 0x15, 0x00, 0x00, 0x00,
  0x08, 0x00, 0x00, 0x00, 0x34, 0x00, 0x00, 0x00, 0x1e, 0x00, 0x00, 0x00,
  0x73, 0x65, 0x71, 0x75, 0x65, 0x6e, 0x74, 0x69, 0x61, 0x6c, 0x5f, 0x35,
  0x36, 0x2f, 0x64, 0x65, 0x6e, 0x73, 0x65, 0x5f, 0x32, 0x37, 0x37, 0x2f,
  0x4d, 0x61, 0x74, 0x4d, 0x75, 0x6c, 0x00, 0x00, 0x02, 0x00, 0x00, 0x00,
  0x0a, 0x00, 0x00, 0x00, 0x0a, 0x00, 0x00, 0x00, 0x54, 0xea, 0xff, 0xff,
  0x32, 0xeb, 0xff, 0xff, 0x04, 0x00, 0x00, 0x00, 0x90, 0x01, 0x00, 0x00,
  0xbf, 0x08, 0x6a, 0x3e, 0xc6, 0x49, 0xe4, 0xbe, 0x10, 0xc2, 0xdb, 0x3e,
  0x76, 0x9c, 0xd5, 0xbe, 0xc9, 0xb7, 0xb9, 0x3e, 0x04, 0x5e, 0x09, 0xbf,
  0x4f, 0x98, 0xf6, 0xbe, 0x76, 0x02, 0x31, 0x3e, 0x37, 0xb7, 0xcc, 0x3e,
  0x2e, 0x0e, 0x4c, 0x3e, 0xc6, 0xf1, 0x02, 0x3f, 0x8e, 0xdc, 0xda, 0xbd,
  0xb4, 0x8c, 0x14, 0x3e, 0x53, 0x8a, 0x7d, 0x3e, 0x15, 0xbc, 0x7d, 0x3e,
  0x25, 0x65, 0x0b, 0xbf, 0x21, 0x09, 0x5b, 0x3e, 0x02, 0x01, 0x90, 0x3e,
  0x22, 0x36, 0xc4, 0x3e, 0xca, 0x21, 0xd4, 0xbe, 0x04, 0xb5, 0xa0, 0xbe,
  0xac, 0x9a, 0x99, 0xbd, 0x36, 0xa6, 0xb3, 0x3d, 0xd9, 0x20, 0x48, 0x3e,
  0x69, 0x4e, 0x78, 0x3d, 0x39, 0x47, 0x55, 0xbe, 0x98, 0x3b, 0x02, 0x3f,
  0xd9, 0xc5, 0x72, 0x3e, 0x11, 0x14, 0x0a, 0x3f, 0xe4, 0x4a, 0x36, 0xbc,
  0x59, 0xec, 0x71, 0xbe, 0x04, 0xfc, 0xff, 0x3e, 0x9d, 0x4e, 0xec, 0xbd,
  0x96, 0x6f, 0xb3, 0x3e, 0x2f, 0xd7, 0xf9, 0xbe, 0xdc, 0xec, 0x6d, 0xbe,
  0xb5, 0x31, 0x60, 0x3e, 0x70, 0x9c, 0xd5, 0xbc, 0xea, 0x0f, 0x85, 0xbe,
  0x48, 0x94, 0x87, 0xbe, 0xd9, 0x0b, 0xf0, 0x3e, 0x3f, 0x0a, 0xc9, 0xbe,
  0x5b, 0x7c, 0x8b, 0xbd, 0xa9, 0x3a, 0x0c, 0x3d, 0x14, 0xdd, 0xc7, 0x3e,
  0xa1, 0x7f, 0xf3, 0x3d, 0xde, 0x48, 0x1c, 0x3e, 0x56, 0xba, 0xab, 0x3e,
  0xa1, 0x25, 0x0c, 0xbd, 0xf5, 0x40, 0x08, 0xbe, 0x25, 0x86, 0x9e, 0x3e,
  0x5c, 0x01, 0xa1, 0xbd, 0xf3, 0xec, 0xc4, 0xbe, 0x5e, 0xe6, 0x24, 0xbd,
  0xfa, 0x6c, 0x03, 0xbf, 0xfb, 0xc8, 0x1d, 0xbc, 0x9c, 0xfe, 0x05, 0xbf,
  0xb8, 0x2c, 0xee, 0x3e, 0xdc, 0xb5, 0x3c, 0xbe, 0x02, 0x07, 0x0a, 0xbf,
  0x03, 0x88, 0x16, 0x3e, 0xa0, 0xb0, 0xb5, 0xbe, 0x44, 0x84, 0x05, 0xbf,
  0x02, 0x1a, 0x07, 0x3f, 0x0f, 0xbc, 0xb9, 0x3e, 0x6b, 0xf8, 0x4d, 0x3e,
  0x5f, 0x2e, 0x6a, 0x3e, 0x88, 0x3a, 0x8c, 0xbe, 0x00, 0x1d, 0xb2, 0xbe,
  0x88, 0x01, 0x0d, 0x3e, 0xcd, 0x23, 0xa0, 0xbe, 0xfb, 0xd8, 0x05, 0xbf,
  0x3a, 0x77, 0x86, 0xbe, 0xbc, 0x52, 0xfd, 0xbe, 0x11, 0xc7, 0x85, 0xbe,
  0xef, 0x87, 0xf4, 0xbe, 0x40, 0x9c, 0x05, 0xbf, 0xba, 0xc6, 0xdb, 0xbe,
  0xa1, 0x43, 0xb3, 0xbe, 0x06, 0xc4, 0xc3, 0xbe, 0x55, 0x3f, 0x16, 0x3e,
  0x04, 0xfb, 0xce, 0xbe, 0x11, 0x24, 0xa5, 0x3d, 0x57, 0xff, 0x58, 0xbe,
  0x5a, 0xf8, 0xa7, 0xbb, 0x64, 0x8f, 0xf4, 0xbe, 0xa5, 0x27, 0xeb, 0x3c,
  0x22, 0xe0, 0x1c, 0xbe, 0xe7, 0x80, 0x77, 0xbe, 0xa6, 0x10, 0x0a, 0xbf,
  0x14, 0xdc, 0xfb, 0xbd, 0x93, 0x51, 0xe4, 0xbe, 0xd6, 0x5a, 0x01, 0x3f,
  0xba, 0xe4, 0xbe, 0xbe, 0x96, 0x3b, 0xf0, 0x3e, 0x2e, 0x3f, 0x8c, 0x3e,
  0xea, 0xab, 0x83, 0x3c, 0x26, 0xea, 0x65, 0x3e, 0x5c, 0xc4, 0xdf, 0xbe,
  0xf1, 0x53, 0xbf, 0x3d, 0x3a, 0xec, 0xff, 0xff, 0x34, 0x00, 0x00, 0x00,
  0x14, 0x00, 0x00, 0x00, 0x08, 0x00, 0x00, 0x00, 0x34, 0x00, 0x00, 0x00,
  0x1e, 0x00, 0x00, 0x00, 0x73, 0x65, 0x71, 0x75, 0x65, 0x6e, 0x74, 0x69,
  0x61, 0x6c, 0x5f, 0x35, 0x36, 0x2f, 0x64, 0x65, 0x6e, 0x73, 0x65, 0x5f,
  0x32, 0x37, 0x36, 0x2f, 0x4d, 0x61, 0x74, 0x4d, 0x75, 0x6c, 0x00, 0x00,
  0x02, 0x00, 0x00, 0x00, 0x0a, 0x00, 0x00, 0x00, 0x0a, 0x00, 0x00, 0x00,
  0x38, 0xec, 0xff, 0xff, 0x16, 0xed, 0xff, 0xff, 0x04, 0x00, 0x00, 0x00,
  0x90, 0x01, 0x00, 0x00, 0x73, 0xd0, 0x13, 0x3e, 0x5e, 0x3f, 0xe9, 0xbe,
  0x76, 0xd0, 0x17, 0x3e, 0x45, 0x68, 0xc8, 0xbe, 0x26, 0x17, 0xfa, 0xbe,
  0xa6, 0xca, 0x97, 0xbe, 0xd9, 0xba, 0x86, 0x3e, 0x85, 0xeb, 0xcd, 0xbd,
  0xf9, 0xce, 0xc7, 0xbd, 0x36, 0xe5, 0x47, 0xbd, 0xce, 0x4f, 0x50, 0x3e,
  0x99, 0xbc, 0xff, 0x3e, 0x7e, 0x74, 0x08, 0x3e, 0x00, 0x46, 0x72, 0x3d,
  0x6d, 0x71, 0xc5, 0x3e, 0xa1, 0xe5, 0xb6, 0x3e, 0x21, 0x93, 0xfd, 0xbe,
  0x71, 0x64, 0xf7, 0x3e, 0xbe, 0x1c, 0xe0, 0x3d, 0xb5, 0x19, 0x86, 0xbe,
  0xd8, 0x80, 0x80, 0x3d, 0xa0, 0xa7, 0xf7, 0xbd, 0xf5, 0xec, 0x6d, 0xbe,
  0x57, 0x9a, 0x2f, 0x3e, 0x42, 0xb9, 0x62, 0xbe, 0x61, 0x75, 0x0a, 0x3f,
  0x63, 0xad, 0xcf, 0xbe, 0x28, 0xb5, 0xf3, 0x3e, 0x73, 0xcd, 0x6a, 0xbc,
  0xf8, 0xc6, 0x83, 0x3c, 0x34, 0xb2, 0x76, 0xbe, 0x23, 0x5c, 0x09, 0x3f,
  0x9f, 0xa5, 0xe7, 0x3e, 0xc1, 0xd4, 0x32, 0xbe, 0xed, 0xf8, 0x65, 0x3e,
  0x71, 0x25, 0xdc, 0xbe, 0x59, 0x9f, 0x84, 0x3d, 0xde, 0x7c, 0xa7, 0x3e,
  0x5c, 0x49, 0x4d, 0xbe, 0xe0, 0xb5, 0x5f, 0x3c, 0x46, 0x98, 0x03, 0x3c,
  0xed, 0x50, 0x92, 0x3e, 0xe6, 0xf7, 0x31, 0x3b, 0xf9, 0xa8, 0xe4, 0x3e,
  0x89, 0xdd, 0x9a, 0xbe, 0x8a, 0x88, 0x09, 0xbd, 0x2a, 0x13, 0xf3, 0x3e,
  0xb3, 0x01, 0x69, 0x3e, 0x34, 0x6c, 0x02, 0xbf, 0xe1, 0xfd, 0xd0, 0xbe,
  0x00, 0x93, 0x93, 0x3e, 0x4e, 0x6a, 0x58, 0x3e, 0xf8, 0x6d, 0xcf, 0xbe,
  0xb2, 0x34, 0x67, 0x3e, 0xd5, 0x25, 0xff, 0x3d, 0x7a, 0x33, 0x0b, 0xbf,
  0xae, 0x7f, 0xca, 0xbe, 0x09, 0x47, 0xb5, 0xbe, 0x39, 0x9a, 0x0b, 0x3e,
  0x3c, 0xeb, 0xa9, 0xbe, 0x07, 0x23, 0xc4, 0xbe, 0x9f, 0x28, 0x04, 0x3e,
  0xec, 0xa1, 0x00, 0xbd, 0x72, 0x3b, 0x05, 0xbf, 0xb4, 0x30, 0x93, 0xbe,
  0xe0, 0xe2, 0xaa, 0xbe, 0x00, 0x4f, 0x21, 0xbe, 0xdc, 0x64, 0x35, 0x3e,
  0xd6, 0x9e, 0x02, 0xbf, 0xcd, 0xb7, 0xa3, 0xbe, 0x4e, 0xc4, 0xc4, 0x3e,
  0xe5, 0x70, 0x9d, 0xbe, 0x97, 0x6a, 0xc7, 0xbe, 0x5d, 0x03, 0xf6, 0xbe,
  0x41, 0x59, 0x88, 0x3d, 0xd0, 0x73, 0x08, 0x3f, 0xc2, 0xaf, 0xd6, 0x3e,
  0x27, 0x1e, 0xd8, 0x3e, 0x70, 0xe9, 0xc8, 0x3e, 0xef, 0x38, 0x4a, 0x3d,
  0xc2, 0xa2, 0xaf, 0x3e, 0xf0, 0x46, 0x02, 0xbf, 0xf7, 0x03, 0xc0, 0x3e,
  0x17, 0x88, 0x04, 0xbf, 0x18, 0xa0, 0x39, 0x3e, 0x1b, 0x09, 0xdf, 0xbd,
  0x2e, 0xe7, 0xbf, 0x3c, 0x23, 0x62, 0x84, 0xbe, 0x5d, 0xb6, 0x98, 0x3e,
  0x35, 0x26, 0x5a, 0x3e, 0xff, 0x1d, 0x42, 0xbc, 0xd1, 0x25, 0xf7, 0xbe,
  0x8e, 0x47, 0x80, 0xbe, 0xa3, 0x26, 0xb4, 0xbe, 0x2f, 0x0b, 0x0e, 0x3f,
  0x24, 0x66, 0xd2, 0xbe, 0x4d, 0x46, 0x78, 0x3e, 0x2b, 0xeb, 0xc3, 0x3e,
  0xe5, 0x6c, 0xe4, 0x3e, 0xd1, 0x11, 0xa4, 0x3e, 0x1e, 0xee, 0xff, 0xff,
  0x34, 0x00, 0x00, 0x00, 0x13, 0x00, 0x00, 0x00, 0x08, 0x00, 0x00, 0x00,
  0x34, 0x00, 0x00, 0x00, 0x1e, 0x00, 0x00, 0x00, 0x73, 0x65, 0x71, 0x75,
  0x65, 0x6e, 0x74, 0x69, 0x61, 0x6c, 0x5f, 0x35, 0x36, 0x2f, 0x64, 0x65,
  0x6e, 0x73, 0x65, 0x5f, 0x32, 0x37, 0x35, 0x2f, 0x4d, 0x61, 0x74, 0x4d,
  0x75, 0x6c, 0x00, 0x00, 0x02, 0x00, 0x00, 0x00, 0x0a, 0x00, 0x00, 0x00,
  0x0a, 0x00, 0x00, 0x00, 0x1c, 0xee, 0xff, 0xff, 0xfa, 0xee, 0xff, 0xff,
  0x04, 0x00, 0x00, 0x00, 0x90, 0x01, 0x00, 0x00, 0xb7, 0xaa, 0x46, 0x3d,
  0x88, 0xb5, 0xa1, 0x3e, 0x62, 0x32, 0xcc, 0xbe, 0xe1, 0x7c, 0xd0, 0xbe,
  0xf1, 0xea, 0x5f, 0x3e, 0xaf, 0x48, 0x80, 0x3e, 0x06, 0x47, 0xd8, 0xbe,
  0x47, 0x02, 0xac, 0xbe, 0x32, 0x62, 0xda, 0x3d, 0xbc, 0x56, 0x84, 0xbd,
  0x43, 0xcb, 0xaf, 0xbd, 0xee, 0x2f, 0xda, 0x3e, 0x37, 0xc2, 0x01, 0x3f,
  0xde, 0xdd, 0x3e, 0x3e, 0x80, 0xcf, 0x5a, 0xbe, 0xc6, 0x75, 0x10, 0x3e,
  0xa2, 0x4e, 0xbe, 0xbe, 0x6a, 0x3c, 0x20, 0xbd, 0xdf, 0x99, 0x02, 0xbf,
  0x0b, 0x91, 0x8c, 0xbe, 0xfa, 0x48, 0x3f, 0x3e, 0x96, 0x9f, 0x8a, 0x3d,
  0x75, 0x81, 0xfa, 0x3d, 0x66, 0x6c, 0x74, 0xbe, 0x68, 0x1e, 0x9a, 0x3d,
  0x2b, 0x43, 0x08, 0xbf, 0xfe, 0x2e, 0x03, 0xbf, 0x46, 0x70, 0x59, 0x3e,
  0x9d, 0xc8, 0x04, 0x3e, 0x1d, 0x1d, 0xf5, 0xbe, 0xf0, 0x23, 0xd3, 0xbe,
  0xf0, 0x83, 0xe5, 0x3e, 0x85, 0xe4, 0x3c, 0x3e, 0x2c, 0x97, 0x08, 0x3f,
  0x7c, 0x59, 0xcb, 0x3e, 0x5b, 0xf0, 0xe5, 0x3e, 0x02, 0x0e, 0x4e, 0x3e,
  0x27, 0x7d, 0xd5, 0x3d, 0x3b, 0x8f, 0xee, 0x3e, 0xee, 0xb1, 0x4c, 0xbe,
  0x23, 0x57, 0x4b, 0xbd, 0xe5, 0xea, 0x41, 0x3d, 0x02, 0x2a, 0x81, 0x3e,
  0xd5, 0x99, 0xf0, 0xbe, 0x96, 0x90, 0x07, 0x3c, 0x00, 0x16, 0xb4, 0x3d,
  0x61, 0xaa, 0x75, 0xbd, 0xd0, 0x9b, 0xe5, 0x3e, 0xb9, 0xaa, 0x8f, 0xbd,
  0xde, 0xad, 0xcd, 0xbe, 0x3a, 0x45, 0x9c, 0x3d, 0x6a, 0x19, 0xc3, 0xbe,
  0x50, 0x2c, 0xbe, 0xbe, 0x9b, 0x74, 0xdb, 0xbe, 0x58, 0x93, 0x02, 0xbf,
  0x1f, 0x84, 0x97, 0x3e, 0xbf, 0x90, 0x84, 0xbe, 0xcc, 0xdd, 0x87, 0x3d,
  0xd0, 0x2e, 0x89, 0xbe, 0xb3, 0x95, 0xa0, 0x3e, 0x3e, 0xf6, 0xb1, 0xbd,
  0x88, 0xc8, 0x29, 0x3e, 0x65, 0xf5, 0x07, 0x3d, 0x71, 0xde, 0xa0, 0x3d,
  0xa4, 0x26, 0x05, 0xbf, 0x7c, 0x96, 0x82, 0x3e, 0x5e, 0xdb, 0x8e, 0xbe,
  0xab, 0xd5, 0xe4, 0x3e, 0x37, 0x1e, 0x0e, 0xbd, 0xa6, 0x7b, 0x35, 0x3e,
  0xf8, 0x1a, 0x74, 0xbe, 0xd0, 0x11, 0x9d, 0xbe, 0xc9, 0xa3, 0x02, 0xbe,
  0x45, 0xfb, 0xb5, 0xbe, 0x7d, 0x47, 0x97, 0xbe, 0x36, 0x6d, 0xb3, 0x3e,
  0x06, 0x15, 0x9a, 0x3e, 0xe5, 0xbd, 0xcd, 0xbe, 0x02, 0xa2, 0xc9, 0x3e,
  0xa2, 0x71, 0xd2, 0xbe, 0xe6, 0xa7, 0x55, 0x3e, 0xb1, 0xc0, 0x3f, 0xbd,
  0x01, 0xe1, 0x68, 0x3e, 0xa4, 0x87, 0xb2, 0xbe, 0xb6, 0x32, 0xb6, 0xbc,
  0xc1, 0xaf, 0xe8, 0x3d, 0x7b, 0x6d, 0x05, 0xbf, 0x89, 0xf1, 0xd7, 0xbe,
  0x2d, 0x1b, 0x00, 0x3e, 0xec, 0xdb, 0x70, 0xbe, 0x8a, 0x0c, 0xb3, 0xbd,
  0xe7, 0xf5, 0xce, 0xbe, 0xd5, 0xdd, 0xcd, 0xbe, 0x58, 0xa0, 0x37, 0x3e,
  0x56, 0xfb, 0x22, 0xbe, 0x86, 0x66, 0xc7, 0x3e, 0x50, 0xc5, 0x82, 0xbe,
  0x5e, 0x29, 0x26, 0x3e, 0x14, 0x67, 0x6b, 0x3e, 0xc7, 0x15, 0x4b, 0x3e,
  0x02, 0xf0, 0xff, 0xff, 0x34, 0x00, 0x00, 0x00, 0x12, 0x00, 0x00, 0x00,
  0x08, 0x00, 0x00, 0x00, 0x34, 0x00, 0x00, 0x00, 0x1e, 0x00, 0x00, 0x00,
  0x73, 0x65, 0x71, 0x75, 0x65, 0x6e, 0x74, 0x69, 0x61, 0x6c, 0x5f, 0x35,
  0x36, 0x2f, 0x64, 0x65, 0x6e, 0x73, 0x65, 0x5f, 0x32, 0x37, 0x34, 0x2f,
  0x4d, 0x61, 0x74, 0x4d, 0x75, 0x6c, 0x00, 0x00, 0x02, 0x00, 0x00, 0x00,
  0x0a, 0x00, 0x00, 0x00, 0x0a, 0x00, 0x00, 0x00, 0x00, 0xf0, 0xff, 0xff,
  0xde, 0xf0, 0xff, 0xff, 0x04, 0x00, 0x00, 0x00, 0x90, 0x01, 0x00, 0x00,
  0xa7, 0x72, 0x9c, 0x3c, 0xb8, 0xc0, 0xf1, 0xbd, 0x9d, 0x33, 0x00, 0xbf,
  0x87, 0xad, 0xf7, 0x3e, 0x02, 0x05, 0xbc, 0xbd, 0x25, 0x0e, 0xae, 0xbe,
  0xed, 0x7b, 0xee, 0x3e, 0xcd, 0xd2, 0xa4, 0xbe, 0xe9, 0x7a, 0xff, 0x3e,
  0xf8, 0x01, 0x6a, 0xbe, 0x2f, 0xfc, 0xa7, 0xbd, 0x12, 0x51, 0xb9, 0x3e,
  0x9a, 0x23, 0x90, 0xbd, 0x93, 0xc8, 0xeb, 0x3e, 0x7d, 0x54, 0x4c, 0xbd,
  0x8f, 0xd0, 0xfe, 0x3e, 0xc5, 0x42, 0x8b, 0xbe, 0xb7, 0x7e, 0x32, 0x3e,
  0x4f, 0x18, 0x0c, 0x3f, 0xf4, 0xdc, 0xd6, 0x3d, 0xa3, 0x01, 0xc4, 0x3e,
  0xc5, 0xcc, 0x02, 0x3f, 0x11, 0x7c, 0xb3, 0x3d, 0xa1, 0x43, 0x9d, 0x3e,
  0x30, 0x96, 0x90, 0x3e, 0x70, 0x13, 0x09, 0xbf, 0x63, 0xf3, 0x0e, 0x3e,
  0xcb, 0xfe, 0x82, 0x3e, 0xac, 0xee, 0xd1, 0xbe, 0xc1, 0xed, 0xad, 0xbe,
  0x1e, 0xcf, 0x88, 0x3e, 0x43, 0x78, 0x3b, 0xbd, 0xec, 0x0e, 0x85, 0x3e,
  0x61, 0x61, 0x90, 0x3d, 0x30, 0x12, 0xbf, 0xbc, 0x9a, 0xfb, 0x98, 0x3d,
  0x99, 0xb4, 0x45, 0x3e, 0x53, 0xb9, 0x02, 0xbe, 0x42, 0xf8, 0xe5, 0xbe,
  0x94, 0x3a, 0x0a, 0xbe, 0xfd, 0xbd, 0xe4, 0xbd, 0x7a, 0x04, 0x8f, 0x3e,
  0x13, 0x5c, 0xb2, 0x3d, 0xbd, 0xb4, 0x47, 0xbe, 0x83, 0x3d, 0x25, 0xbe,
  0x5e, 0x38, 0x71, 0xbe, 0x68, 0x99, 0xa4, 0x3e, 0x54, 0x8e, 0x6b, 0x3e,
  0xb5, 0x2e, 0xcd, 0xbe, 0xad, 0xba, 0xe3, 0xbe, 0x43, 0x2c, 0x0a, 0xbf,
  0xca, 0x48, 0xac, 0x3e, 0xb0, 0xdb, 0xb6, 0xbd, 0x2b, 0xba, 0xfd, 0xbe,
  0xab, 0xb1, 0x87, 0xbe, 0x6a, 0x0f, 0x80, 0x3d, 0x1a, 0x35, 0xed, 0x3b,
  0x2e, 0xa0, 0x2b, 0x3e, 0x3a, 0x63, 0xb3, 0x3d, 0x9e, 0x0c, 0xb2, 0xbd,
  0xce, 0x42, 0xdf, 0x3e, 0x13, 0x9e, 0x92, 0x3e, 0x8f, 0x9c, 0x95, 0xbd,
  0xca, 0x5d, 0xad, 0xbd, 0x1c, 0x62, 0x37, 0x3e, 0xd5, 0xc7, 0xb8, 0xbd,
  0x9d, 0xff, 0xfe, 0x3e, 0x98, 0x91, 0xef, 0x3e, 0xaf, 0x8f, 0x9b, 0xbe,
  0x3c, 0xf0, 0x14, 0xbe, 0x57, 0xba, 0x0a, 0xbf, 0xe1, 0x8b, 0xef, 0x3e,
  0x21, 0x78, 0xcf, 0xbe, 0xe1, 0xe8, 0xb8, 0xbb, 0xc0, 0xe5, 0xe9, 0x3e,
  0xf8, 0x75, 0x75, 0xbe, 0x35, 0xa3, 0x31, 0xbe, 0x31, 0x49, 0x09, 0xbe,
  0xec, 0x1e, 0x3f, 0xbd, 0xd1, 0x35, 0x20, 0x3e, 0xa6, 0xa1, 0x83, 0x3e,
  0x71, 0x8a, 0x34, 0xbe, 0xe8, 0xae, 0x09, 0xbe, 0x9f, 0x18, 0x79, 0xbe,
  0xba, 0x90, 0x96, 0xbd, 0x7b, 0x46, 0xb8, 0x3e, 0xb0, 0x7a, 0xbe, 0x3e,
  0xf9, 0xb0, 0xa6, 0x3e, 0x30, 0x90, 0x32, 0x3b, 0x14, 0xb3, 0xd5, 0xbe,
  0xee, 0xcb, 0x91, 0xbe, 0x16, 0x1b, 0xa9, 0xbd, 0x42, 0xb8, 0x07, 0xbf,
  0x84, 0x3b, 0x0e, 0x3f, 0xde, 0xb0, 0x12, 0x3e, 0xac, 0xef, 0xbd, 0x3e,
  0x42, 0x8e, 0x6d, 0xbe, 0xc8, 0x11, 0xe1, 0x3e, 0xf7, 0xe7, 0xa2, 0xbe,
  0xc8, 0x6f, 0xe9, 0x3e, 0xe6, 0xf1, 0xff, 0xff, 0x34, 0x00, 0x00, 0x00,
  0x11, 0x00, 0x00, 0x00, 0x08, 0x00, 0x00, 0x00, 0x34, 0x00, 0x00, 0x00,
  0x1e, 0x00, 0x00, 0x00, 0x73, 0x65, 0x71, 0x75, 0x65, 0x6e, 0x74, 0x69,
  0x61, 0x6c, 0x5f, 0x35, 0x36, 0x2f, 0x64, 0x65, 0x6e, 0x73, 0x65, 0x5f,
  0x32, 0x37, 0x33, 0x2f, 0x4d, 0x61, 0x74, 0x4d, 0x75, 0x6c, 0x00, 0x00,
  0x02, 0x00, 0x00, 0x00, 0x0a, 0x00, 0x00, 0x00, 0x0a, 0x00, 0x00, 0x00,
  0xe4, 0xf1, 0xff, 0xff, 0xc2, 0xf2, 0xff, 0xff, 0x04, 0x00, 0x00, 0x00,
  0x90, 0x01, 0x00, 0x00, 0xae, 0x72, 0x8c, 0x3e, 0x5a, 0xad, 0xfc, 0x3e,
  0xca, 0x71, 0x01, 0xbe, 0x6c, 0x4f, 0x54, 0xbe, 0x5a, 0x01, 0xad, 0xbe,
  0x97, 0xf2, 0xd2, 0x3e, 0x3a, 0xb1, 0x0b, 0x3d, 0x04, 0xbe, 0xbe, 0x3e,
  0x1a, 0xaa, 0xd2, 0xbe, 0x5c, 0xec, 0xd1, 0xbe, 0xd9, 0xd7, 0x7a, 0xbe,
  0x20, 0xfc, 0x8b, 0xbe, 0x87, 0x17, 0xf9, 0xbd, 0x96, 0x39, 0x99, 0xbe,
  0xd2, 0x60, 0x04, 0xbf, 0xcb, 0x1a, 0x67, 0x3c, 0x51, 0x18, 0xd1, 0xbe,
  0x17, 0x43, 0xc4, 0xbe, 0xa4, 0xc0, 0xab, 0x3e, 0x39, 0xe7, 0xe6, 0xbe,
  0xb2, 0x23, 0x9d, 0xbe, 0xfe, 0x04, 0x95, 0x3e, 0xb2, 0xec, 0x72, 0x3e,
  0xb6, 0x65, 0xf7, 0x3e, 0xd8, 0x4d, 0xf6, 0x3d, 0x0b, 0x4e, 0xae, 0x3e,
  0x95, 0x16, 0xa8, 0xbe, 0xc3, 0xfb, 0xd2, 0xbe, 0x14, 0x88, 0xf3, 0xbe,
  0x98, 0x8f, 0xad, 0x3e, 0x71, 0xb5, 0x6f, 0xbd, 0x18, 0x6c, 0x28, 0xbe,
  0xea, 0x61, 0xc6, 0xbd, 0xb5, 0x9a, 0x13, 0x3e, 0xd7, 0x41, 0xc9, 0x3d,
  0x96, 0x27, 0x6d, 0x3e, 0x1f, 0x01, 0x49, 0xbd, 0xa0, 0xd9, 0xcf, 0xbe,
  0xbb, 0xfe, 0x0b, 0x3c, 0xcb, 0xd5, 0xfd, 0xbd, 0xc6, 0x89, 0x2d, 0xbd,
  0xed, 0x12, 0x40, 0x3e, 0x3c, 0x25, 0x08, 0xbe, 0x9d, 0x8e, 0xbe, 0xbe,
  0xf8, 0xa7, 0xe7, 0xbe, 0x84, 0x7e, 0x71, 0x3e, 0x09, 0x4b, 0xae, 0xbe,
  0x97, 0x74, 0xd8, 0x3e, 0x02, 0x72, 0xae, 0xbd, 0xf2, 0x42, 0xf0, 0xbe,
  0xf6, 0xb8, 0x05, 0xbd, 0xad, 0xe0, 0x03, 0x3f, 0x8c, 0xff, 0xe6, 0x3e,
  0xa8, 0x98, 0xe2, 0xbe, 0x52, 0xc1, 0x06, 0xbd, 0x61, 0x54, 0xdc, 0xbe,
  0x2b, 0x0a, 0x91, 0xbe, 0xfa, 0x6e, 0x44, 0xbe, 0xc4, 0xc7, 0x5d, 0x3e,
  0x78, 0x2f, 0x26, 0xbe, 0x0e, 0x01, 0xe2, 0xbe, 0x62, 0xfe, 0x7e, 0xbd,
  0x73, 0xfd, 0x04, 0xbf, 0x26, 0xfd, 0x07, 0x3e, 0x8b, 0xcc, 0x32, 0x3e,
  0xea, 0x34, 0x0e, 0xbc, 0x27, 0x7b, 0x3a, 0xbe, 0x22, 0x91, 0xe7, 0x3e,
  0xf6, 0x4d, 0x00, 0xbb, 0x7b, 0xba, 0x02, 0x3e, 0x08, 0x03, 0xd4, 0x3e,
  0x12, 0xfe, 0x15, 0xbe, 0xd8, 0xe1, 0x09, 0xbe, 0x3c, 0x80, 0xd3, 0x3d,
  0xeb, 0x5a, 0xe7, 0x3d, 0x09, 0xbf, 0x04, 0x3f, 0x1a, 0x06, 0xde, 0x3d,
  0xa6, 0xb0, 0x05, 0x3f, 0x1c, 0xf5, 0x09, 0xbf, 0x7a, 0xbd, 0xca, 0x3e,
  0xfe, 0x2d, 0x80, 0xbd, 0xa9, 0x39, 0xd5, 0xbe, 0x67, 0x8c, 0x47, 0xbe,
  0xef, 0xb6, 0xd0, 0xbe, 0x6a, 0xe0, 0xc2, 0xbe, 0x8a, 0x6d, 0xff, 0xbe,
  0x17, 0xe5, 0x0c, 0xbe, 0x67, 0xa1, 0xb0, 0xbe, 0x28, 0x1f, 0xd6, 0x3d,
  0x43, 0xdf, 0x0b, 0x3f, 0xdf, 0x67, 0xe1, 0x3e, 0x4b, 0x5e, 0x45, 0x3e,
  0xf0, 0x0a, 0xf2, 0x3e, 0x33, 0x08, 0xda, 0xbe, 0xe3, 0xe8, 0xa5, 0x3e,
  0xd7, 0x9d, 0xce, 0xbe, 0x9e, 0x44, 0x56, 0xbe, 0x29, 0xb4, 0xbb, 0x3e,
  0x50, 0x27, 0x33, 0x3e, 0xa9, 0xe2, 0x74, 0x3e, 0xca, 0xf3, 0xff, 0xff,
  0x34, 0x00, 0x00, 0x00, 0x10, 0x00, 0x00, 0x00, 0x08, 0x00, 0x00, 0x00,
  0x34, 0x00, 0x00, 0x00, 0x1e, 0x00, 0x00, 0x00, 0x73, 0x65, 0x71, 0x75,
  0x65, 0x6e, 0x74, 0x69, 0x61, 0x6c, 0x5f, 0x35, 0x36, 0x2f, 0x64, 0x65,
  0x6e, 0x73, 0x65, 0x5f, 0x32, 0x37, 0x32, 0x2f, 0x4d, 0x61, 0x74, 0x4d,
  0x75, 0x6c, 0x00, 0x00, 0x02, 0x00, 0x00, 0x00, 0x0a, 0x00, 0x00, 0x00,
  0x0a, 0x00, 0x00, 0x00, 0xc8, 0xf3, 0xff, 0xff, 0xa6, 0xf4, 0xff, 0xff,
  0x04, 0x00, 0x00, 0x00, 0x90, 0x01, 0x00, 0x00, 0xce, 0xc7, 0x07, 0xbe,
  0xfe, 0xf5, 0xc8, 0x3d, 0xd8, 0x06, 0xe6, 0xbe, 0xb4, 0x31, 0x18, 0xbe,
  0xc7, 0x25, 0xa2, 0x3e, 0x5d, 0x3e, 0xbd, 0x3e, 0xd9, 0xba, 0xf2, 0x3d,
  0x58, 0xdc, 0x88, 0x3e, 0x01, 0x77, 0x3e, 0x3e, 0x5b, 0x4d, 0x2f, 0xbd,
  0x18, 0x90, 0x91, 0xbd, 0xde, 0x91, 0xdf, 0x3e, 0x82, 0x11, 0xa2, 0xbd,
  0x77, 0x58, 0x9a, 0x3e, 0x40, 0x17, 0x67, 0xbe, 0x18, 0x86, 0xbc, 0x3d,
  0xae, 0xf1, 0xcf, 0x3c, 0xdc, 0x2b, 0xdf, 0xbe, 0x23, 0x4b, 0x0a, 0xbf,
  0xaf, 0xba, 0x29, 0xbe, 0x4b, 0xa7, 0x77, 0x3e, 0xa5, 0x4c, 0x98, 0x3e,
  0x84, 0x51, 0xee, 0xbd, 0x51, 0xa8, 0xee, 0xbe, 0x9c, 0x7a, 0xb6, 0x3d,
  0x19, 0xc0, 0xa7, 0x3e, 0xe7, 0x96, 0xfc, 0x3d, 0x9b, 0xa8, 0x6c, 0x3e,
  0xa7, 0x4a, 0xe2, 0xbe, 0x29, 0x9d, 0x8b, 0x3e, 0x8f, 0xd6, 0x75, 0xbe,
  0xdb, 0x1f, 0xe4, 0x3e, 0x8f, 0x2b, 0x8e, 0x3e, 0xd3, 0xc4, 0x31, 0xbe,
  0x8d, 0x61, 0xca, 0x3e, 0xde, 0xfc, 0x6f, 0xba, 0xe1, 0xa9, 0x06, 0xbe,
  0x5e, 0xf2, 0x04, 0xbf, 0x87, 0xbf, 0xde, 0xbe, 0xe6, 0xa8, 0xfe, 0xbe,
  0x88, 0x5a, 0xaf, 0x3e, 0x6b, 0xce, 0xfb, 0x3e, 0x82, 0x98, 0xa5, 0xbd,
  0x52, 0x88, 0x1a, 0xbe, 0x67, 0x94, 0xe5, 0x3c, 0x3f, 0xc0, 0xe6, 0x3e,
  0x20, 0xf7, 0xa5, 0xbe, 0x87, 0xd9, 0xe9, 0x3e, 0x48, 0xcc, 0x83, 0xbe,
  0x6b, 0x19, 0x4b, 0x3e, 0x88, 0x34, 0x07, 0xbf, 0x17, 0xa5, 0x6c, 0x3e,
  0x50, 0xb0, 0x75, 0xbe, 0xf4, 0x71, 0xe9, 0x3e, 0x95, 0x0e, 0xf8, 0x3e,
  0xcc, 0xe7, 0xaf, 0x3e, 0x25, 0xaa, 0xf3, 0x3c, 0xc6, 0x0e, 0x52, 0x3d,
  0xd1, 0x36, 0xba, 0xbe, 0x08, 0x8e, 0xb5, 0xbe, 0x26, 0xb1, 0x13, 0xbe,
  0xeb, 0x69, 0x78, 0x3e, 0x17, 0x5d, 0xb1, 0x3e, 0x35, 0xbc, 0xc5, 0xbe,
  0xb3, 0x1c, 0xd6, 0x3d, 0xef, 0x5a, 0xd6, 0xbe, 0xa5, 0x0a, 0x1e, 0x3c,
  0xf7, 0xac, 0x93, 0x3e, 0xcb, 0x43, 0xc4, 0x3d, 0xeb, 0x9c, 0x0a, 0x3e,
  0xc7, 0xc6, 0xd0, 0xbe, 0xe8, 0x93, 0x50, 0xbe, 0xf7, 0x7b, 0x08, 0xbe,
  0x14, 0xf3, 0x0b, 0xbe, 0xc9, 0x5b, 0x05, 0xbf, 0x3a, 0x02, 0x0a, 0xbf,
  0x87, 0x03, 0x89, 0xbe, 0x3c, 0x22, 0x41, 0x3d, 0xa9, 0x0b, 0x72, 0x3e,
  0x91, 0x72, 0x0b, 0x3e, 0x17, 0x43, 0x94, 0xbe, 0x16, 0x80, 0x43, 0xbe,
  0x79, 0x2e, 0xf4, 0x3a, 0xc6, 0xed, 0xfb, 0x3b, 0x7e, 0xe2, 0x92, 0xbe,
  0x1d, 0xea, 0xb5, 0xbd, 0x08, 0x08, 0xde, 0xbe, 0xe3, 0x65, 0xb7, 0x3e,
  0x89, 0x9f, 0xcd, 0x3d, 0x59, 0x9c, 0xd7, 0x3e, 0x59, 0x22, 0xba, 0xbe,
  0x09, 0x72, 0x9e, 0xbe, 0xb5, 0x36, 0x82, 0xbe, 0x39, 0x2b, 0x73, 0x3e,
  0x42, 0x43, 0x32, 0xbb, 0xed, 0x71, 0x16, 0xbd, 0x49, 0xbe, 0x01, 0xbf,
  0xfe, 0x23, 0xc4, 0xbd, 0x22, 0x5d, 0xda, 0xbe, 0x66, 0x29, 0x9d, 0xbe,
  0xae, 0xf5, 0xff, 0xff, 0x34, 0x00, 0x00, 0x00, 0x0f, 0x00, 0x00, 0x00,
  0x08, 0x00, 0x00, 0x00, 0x34, 0x00, 0x00, 0x00, 0x1e, 0x00, 0x00, 0x00,
  0x73, 0x65, 0x71, 0x75, 0x65, 0x6e, 0x74, 0x69, 0x61, 0x6c, 0x5f, 0x35,
  0x36, 0x2f, 0x64, 0x65, 0x6e, 0x73, 0x65, 0x5f, 0x32, 0x37, 0x31, 0x2f,
  0x4d, 0x61, 0x74, 0x4d, 0x75, 0x6c, 0x00, 0x00, 0x02, 0x00, 0x00, 0x00,
  0x0a, 0x00, 0x00, 0x00, 0x0a, 0x00, 0x00, 0x00, 0xac, 0xf5, 0xff, 0xff,
  0x8a, 0xf6, 0xff, 0xff, 0x04, 0x00, 0x00, 0x00, 0x90, 0x01, 0x00, 0x00,
  0x0d, 0x0a, 0x0d, 0xbf, 0xfa, 0x18, 0x37, 0xbe, 0x19, 0x8e, 0xd9, 0xbe,
  0xe2, 0x79, 0xd3, 0x3e, 0x80, 0x12, 0xcf, 0x3c, 0xe8, 0x2c, 0xdd, 0xbd,
  0x64, 0xf9, 0xa7, 0x3e, 0x52, 0x7f, 0xd2, 0xbe, 0x74, 0x56, 0x06, 0xbe,
  0x72, 0x58, 0x17, 0x3e, 0xfa, 0x6f, 0xc8, 0x3e, 0xee, 0x4d, 0xb6, 0x3d,
  0x3c, 0xaa, 0xb9, 0xbe, 0x88, 0x85, 0xda, 0x3e, 0xfa, 0xe4, 0x3f, 0x3e,
  0x59, 0xdc, 0x79, 0xbe, 0xc6, 0xe5, 0x9b, 0xbe, 0x26, 0x49, 0x1a, 0x3b,
  0xf2, 0x40, 0x51, 0xbe, 0xf1, 0x92, 0xf4, 0x3e, 0xd6, 0x15, 0x85, 0xbe,
  0xd7, 0xd8, 0xb0, 0xbe, 0xf9, 0xe4, 0xad, 0xbe, 0x34, 0xf6, 0xfe, 0x3e,
  0xab, 0x51, 0x54, 0x3e, 0xbe, 0x1a, 0x8b, 0x3d, 0x16, 0x69, 0x39, 0xbe,
  0xf9, 0x6d, 0x0d, 0xbd, 0x76, 0xbd, 0x0a, 0xbf, 0x38, 0x2a, 0x9e, 0xbd,
  0x88, 0x3b, 0xf7, 0xbe, 0xd6, 0x3c, 0x00, 0xbd, 0x75, 0x9a, 0xf7, 0x3e,
  0x50, 0x87, 0x46, 0xbd, 0x4d, 0x14, 0x01, 0x3e, 0x8c, 0x95, 0x65, 0xbe,
  0x11, 0x9e, 0x98, 0x3e, 0x96, 0xab, 0xc6, 0x3e, 0xb9, 0x9e, 0x08, 0x3f,
  0x1a, 0x5b, 0xe1, 0x3d, 0xf7, 0x04, 0x8a, 0x3e, 0x06, 0xd7, 0xa2, 0xbe,
  0x15, 0x46, 0x7a, 0xbe, 0x99, 0x8a, 0x20, 0xbd, 0xf8, 0x9e, 0x28, 0xbe,
  0x21, 0x94, 0x6a, 0x3d, 0x52, 0xbc, 0x77, 0xbe, 0xc2, 0xc8, 0x2b, 0x3e,
  0xb7, 0xcd, 0xc6, 0x3e, 0xa6, 0xa9, 0x96, 0xbe, 0xdf, 0x8c, 0xc1, 0x3b,
  0x72, 0x43, 0x0f, 0xbf, 0x26, 0x13, 0x89, 0x3e, 0x2e, 0x8e, 0x9c, 0xbe,
  0x50, 0x02, 0x34, 0xbe, 0xe9, 0x17, 0xc5, 0xbe, 0x96, 0x4d, 0x3d, 0xbd,
  0xbb, 0x4c, 0xb8, 0x3e, 0xc2, 0x9c, 0x87, 0x3e, 0x3c, 0xb5, 0xc3, 0xbe,
  0x0d, 0xe2, 0x37, 0xbe, 0xef, 0xd4, 0xb6, 0xbe, 0x01, 0xb5, 0xe1, 0xbd,
  0xea, 0xee, 0xf1, 0x3e, 0x76, 0x4c, 0xd4, 0xbe, 0x6f, 0x8f, 0xff, 0xbe,
  0x8b, 0xb1, 0x1a, 0x3e, 0xdb, 0xe6, 0xa2, 0xbe, 0x35, 0xd5, 0xea, 0x3d,
  0x5f, 0x92, 0xa6, 0xbd, 0x2c, 0x82, 0xe8, 0xbe, 0xc8, 0x17, 0xf9, 0x3e,
  0x4d, 0xfe, 0xd9, 0x3d, 0x10, 0x1e, 0x16, 0xbe, 0xae, 0x05, 0x99, 0xbd,
  0xf0, 0x3d, 0x27, 0x3e, 0xa8, 0x20, 0xe1, 0x3d, 0x70, 0xa4, 0xd4, 0xbe,
  0x4c, 0xd6, 0x9c, 0xbe, 0xc4, 0x5e, 0x3d, 0xbe, 0x6e, 0xbd, 0x02, 0xbf,
  0xa1, 0xb3, 0xdc, 0x3d, 0x7e, 0xf1, 0x14, 0xbe, 0x17, 0x50, 0xd5, 0xbe,
  0xbf, 0x4c, 0xdd, 0x3e, 0x92, 0x32, 0x0f, 0xbe, 0x14, 0xdf, 0x02, 0x3f,
  0x39, 0x2a, 0xde, 0xbd, 0xe9, 0x07, 0x85, 0x3e, 0xa9, 0xb4, 0x33, 0xbe,
  0x66, 0xc6, 0x9a, 0xbe, 0xf0, 0x76, 0x69, 0x3e, 0xfe, 0x48, 0xbc, 0x3e,
  0x5b, 0x51, 0x0b, 0xbf, 0xce, 0x10, 0xab, 0xbe, 0x87, 0xc9, 0x35, 0xbc,
  0x36, 0x19, 0xaf, 0x3e, 0x76, 0xa1, 0x1f, 0x3d, 0xd1, 0x30, 0x5c, 0xbe,
  0x91, 0x97, 0x03, 0x3f, 0x92, 0xf7, 0xff, 0xff, 0x34, 0x00, 0x00, 0x00,
  0x0e, 0x00, 0x00, 0x00, 0x08, 0x00, 0x00, 0x00, 0x34, 0x00, 0x00, 0x00,
  0x1e, 0x00, 0x00, 0x00, 0x73, 0x65, 0x71, 0x75, 0x65, 0x6e, 0x74, 0x69,
  0x61, 0x6c, 0x5f, 0x35, 0x36, 0x2f, 0x64, 0x65, 0x6e, 0x73, 0x65, 0x5f,
  0x32, 0x37, 0x30, 0x2f, 0x4d, 0x61, 0x74, 0x4d, 0x75, 0x6c, 0x00, 0x00,
  0x02, 0x00, 0x00, 0x00, 0x0a, 0x00, 0x00, 0x00, 0x0a, 0x00, 0x00, 0x00,
  0x90, 0xf7, 0xff, 0xff, 0x6e, 0xf8, 0xff, 0xff, 0x04, 0x00, 0x00, 0x00,
  0x08, 0x02, 0x00, 0x00, 0xbb, 0xa6, 0x85, 0xbe, 0xf9, 0x4c, 0x86, 0xbe,
  0x00, 0x90, 0xed, 0x3d, 0x5d, 0x41, 0x9c, 0xbe, 0x8c, 0x70, 0x06, 0xbf,
  0x7f, 0x50, 0x17, 0xbe, 0x8e, 0x3f, 0xbd, 0x3e, 0xd1, 0x0e, 0x56, 0x3e,
  0x7c, 0x99, 0x97, 0x3d, 0x5f, 0x42, 0x7a, 0x3e, 0x04, 0x63, 0xcf, 0xbe,
  0x78, 0xce, 0x31, 0x3c, 0xe1, 0xab, 0x1b, 0xbe, 0x5c, 0xb5, 0xc6, 0xbe,
  0xd5, 0xc9, 0xf6, 0xbe, 0xbf, 0xdc, 0xc7, 0x3d, 0x4c, 0x43, 0x9f, 0xbd,
  0xde, 0x2f, 0xae, 0xbd, 0x9f, 0x13, 0x13, 0xbe, 0x05, 0x65, 0xc3, 0x3e,
  0x15, 0x89, 0x98, 0xbe, 0x43, 0x8f, 0x01, 0xbf, 0x63, 0x96, 0xde, 0x3e,
  0xa8, 0xe0, 0x00, 0xbe, 0x7a, 0xba, 0xf7, 0xbe, 0x30, 0x59, 0x7a, 0xbd,
  0x99, 0xa5, 0xa0, 0xbe, 0xb1, 0x22, 0x76, 0xbe, 0x5d, 0x07, 0x88, 0x3e,
  0xf0, 0xc1, 0xfc, 0xbd, 0x4e, 0x52, 0xbd, 0x3d, 0x33, 0x8d, 0xa5, 0xbe,
  0xdd, 0x25, 0xe7, 0xbd, 0x76, 0xce, 0x11, 0xbe, 0xf5, 0xa7, 0x4a, 0xbd,
  0xa7, 0xad, 0x32, 0xbe, 0x93, 0x26, 0xc8, 0x3d, 0xca, 0xa5, 0xee, 0x3e,
  0x0d, 0x6e, 0xfc, 0x3e, 0x90, 0xc9, 0xa3, 0xbd, 0xe4, 0xcf, 0xc0, 0xbe,
  0x70, 0xcb, 0xea, 0xbe, 0x36, 0x29, 0x1e, 0x3e, 0x0e, 0xa3, 0xed, 0x3d,
  0x69, 0xfd, 0xb7, 0xbe, 0xe6, 0xaa, 0xad, 0xbe, 0x78, 0x24, 0xe7, 0x3e,
  0xad, 0x39, 0x0f, 0x3e, 0xc3, 0xbc, 0xef, 0x3e, 0x73, 0xf3, 0x2f, 0x3e,
  0x08, 0x62, 0x4f, 0x3e, 0x60, 0xdd, 0xe6, 0xbd, 0x2d, 0xf8, 0x84, 0xbe,
  0x90, 0x67, 0xbf, 0x3d, 0xd3, 0xc0, 0x97, 0xbd, 0xc4, 0xdf, 0x58, 0xbe,
  0xd3, 0x1c, 0x9c, 0x3c, 0xd1, 0x59, 0xff, 0xbe, 0x3e, 0x40, 0x96, 0xbd,
  0x6f, 0x7f, 0xf9, 0xbe, 0x7c, 0x9e, 0xd8, 0xbe, 0x05, 0x2c, 0xc3, 0x3e,
  0xd8, 0x97, 0xf0, 0x3c, 0xe6, 0x6c, 0xfc, 0x3e, 0x87, 0xf5, 0x83, 0xbd,
  0x28, 0x6b, 0xbf, 0xbe, 0xe9, 0x53, 0xa8, 0xbe, 0x18, 0xc8, 0x82, 0x3e,
  0xf3, 0x0d, 0xa3, 0xbd, 0xaf, 0xf7, 0xd4, 0xbe, 0x59, 0x3e, 0xd5, 0xbe,
  0xb5, 0x25, 0x90, 0x3e, 0xc9, 0x21, 0xa7, 0x3e, 0xa0, 0x90, 0x09, 0xbe,
  0xa4, 0xb3, 0xf3, 0x3d, 0x7d, 0x72, 0xad, 0xbe, 0x22, 0x1a, 0xc8, 0x3e,
  0xf1, 0xb6, 0x01, 0x3f, 0x10, 0xbd, 0x72, 0xbe, 0xb7, 0x30, 0xc6, 0xbc,
  0x20, 0xc1, 0xca, 0xbe, 0xab, 0xeb, 0x71, 0xbe, 0x7a, 0x7c, 0xeb, 0xbe,
  0x47, 0x2c, 0xe4, 0xbe, 0xea, 0x81, 0x8c, 0x3e, 0x19, 0x54, 0xcf, 0x3d,
  0x77, 0xe3, 0x2a, 0x3e, 0xe8, 0x53, 0xfd, 0x3e, 0x1e, 0xf8, 0xd5, 0xbe,
  0x10, 0x3c, 0x21, 0x3e, 0x79, 0x11, 0x95, 0xbe, 0xde, 0x2e, 0xcf, 0xbe,
  0x15, 0x08, 0x37, 0xbe, 0xec, 0xf2, 0x88, 0x3e, 0x6a, 0xca, 0x2a, 0xbd,
  0xba, 0x2f, 0x94, 0x3e, 0xd5, 0x26, 0xdc, 0xbc, 0xcd, 0x3c, 0x96, 0x3e,
  0x3b, 0x6b, 0x5c, 0xbe, 0xf3, 0xf4, 0x73, 0xbe, 0xd9, 0x73, 0xb2, 0x3e,
  0xcf, 0xb1, 0x47, 0x3e, 0x28, 0x12, 0xd5, 0x3e, 0x94, 0x6b, 0x81, 0x3e,
  0x8a, 0x27, 0x56, 0xbe, 0xa1, 0x47, 0xfe, 0xbe, 0xc0, 0x22, 0xac, 0x3e,
  0x9c, 0xfe, 0x9f, 0x3e, 0xdd, 0xd6, 0xe8, 0x3d, 0xa7, 0xf8, 0x02, 0xbe,
  0xb1, 0x8a, 0x66, 0x3e, 0x0a, 0x5d, 0xe1, 0xbe, 0x41, 0x86, 0x82, 0xbc,
  0x3d, 0xce, 0x23, 0xbe, 0xdd, 0x0a, 0x87, 0xbd, 0x7c, 0x1d, 0x48, 0x3d,
  0x58, 0x6f, 0x64, 0x3e, 0x74, 0x08, 0xe8, 0x3e, 0x93, 0x56, 0xa9, 0xbe,
  0x25, 0x00, 0x30, 0x3e, 0x77, 0x92, 0x90, 0xbd, 0x82, 0xfe, 0x2f, 0xbe,
  0xbb, 0xbd, 0xa4, 0x3d, 0x8b, 0x84, 0xe6, 0xbe, 0x76, 0x80, 0x48, 0x3d,
  0x23, 0xe2, 0xc1, 0x3c, 0x5f, 0x6a, 0xef, 0x3e, 0xa6, 0x3f, 0x08, 0xbe,
  0xb0, 0x21, 0xfc, 0xbe, 0x5c, 0xbe, 0x9f, 0x3d, 0xee, 0xf9, 0xff, 0xff,
  0x34, 0x00, 0x00, 0x00, 0x0d, 0x00, 0x00, 0x00, 0x08, 0x00, 0x00, 0x00,
  0x34, 0x00, 0x00, 0x00, 0x1e, 0x00, 0x00, 0x00, 0x73, 0x65, 0x71, 0x75,
  0x65, 0x6e, 0x74, 0x69, 0x61, 0x6c, 0x5f, 0x35, 0x36, 0x2f, 0x64, 0x65,
  0x6e, 0x73, 0x65, 0x5f, 0x32, 0x36, 0x39, 0x2f, 0x4d, 0x61, 0x74, 0x4d,
  0x75, 0x6c, 0x00, 0x00, 0x02, 0x00, 0x00, 0x00, 0x0a, 0x00, 0x00, 0x00,
  0x0d, 0x00, 0x00, 0x00, 0xec, 0xf9, 0xff, 0xff, 0xca, 0xfa, 0xff, 0xff,
  0x04, 0x00, 0x00, 0x00, 0x0c, 0x00, 0x00, 0x00, 0xa8, 0x63, 0x28, 0xb8,
  0x42, 0xc6, 0xe4, 0x3a, 0x50, 0x6a, 0x96, 0x3b, 0x4e, 0xfa, 0xff, 0xff,
  0x44, 0x00, 0x00, 0x00, 0x0c, 0x00, 0x00, 0x00, 0x08, 0x00, 0x00, 0x00,
  0x40, 0x00, 0x00, 0x00, 0x2e, 0x00, 0x00, 0x00, 0x73, 0x65, 0x71, 0x75,
  0x65, 0x6e, 0x74, 0x69, 0x61, 0x6c, 0x5f, 0x35, 0x36, 0x2f, 0x64, 0x65,
  0x6e, 0x73, 0x65, 0x5f, 0x32, 0x37, 0x39, 0x2f, 0x42, 0x69, 0x61, 0x73,
  0x41, 0x64, 0x64, 0x2f, 0x52, 0x65, 0x61, 0x64, 0x56, 0x61, 0x72, 0x69,
  0x61, 0x62, 0x6c, 0x65, 0x4f, 0x70, 0x00, 0x00, 0x01, 0x00, 0x00, 0x00,
  0x03, 0x00, 0x00, 0x00, 0x58, 0xfa, 0xff, 0xff, 0x36, 0xfb, 0xff, 0xff,
  0x04, 0x00, 0x00, 0x00, 0x28, 0x00, 0x00, 0x00, 0xff, 0x12, 0x89, 0xba,
  0xe0, 0xd1, 0xa5, 0x3a, 0x22, 0x35, 0xd2, 0x3a, 0x10, 0x44, 0x19, 0x3b,
  0x45, 0x5f, 0x96, 0xb9, 0x08, 0x9b, 0xb5, 0x3b, 0x30, 0x70, 0x44, 0x37,
  0xf8, 0x8b, 0x0c, 0xbb, 0x6d, 0xae, 0x92, 0x3b, 0x6a, 0xb9, 0x92, 0x3b,
  0xd6, 0xfa, 0xff, 0xff, 0x44, 0x00, 0x00, 0x00, 0x0b, 0x00, 0x00, 0x00,
  0x08, 0x00, 0x00, 0x00, 0x40, 0x00, 0x00, 0x00, 0x2e, 0x00, 0x00, 0x00,
  0x73, 0x65, 0x71, 0x75, 0x65, 0x6e, 0x74, 0x69, 0x61, 0x6c, 0x5f, 0x35,
  0x36, 0x2f, 0x64, 0x65, 0x6e, 0x73, 0x65, 0x5f, 0x32, 0x37, 0x38, 0x2f,
  0x42, 0x69, 0x61, 0x73, 0x41, 0x64, 0x64, 0x2f, 0x52, 0x65, 0x61, 0x64,
  0x56, 0x61, 0x72, 0x69, 0x61, 0x62, 0x6c, 0x65, 0x4f, 0x70, 0x00, 0x00,
  0x01, 0x00, 0x00, 0x00, 0x0a, 0x00, 0x00, 0x00, 0xe0, 0xfa, 0xff, 0xff,
  0xbe, 0xfb, 0xff, 0xff, 0x04, 0x00, 0x00, 0x00, 0x28, 0x00, 0x00, 0x00,
  0x52, 0xa9, 0xff, 0x3a, 0x27, 0xa3, 0x4d, 0xbb, 0xc5, 0x8f, 0x18, 0xbb,
  0xe8, 0xb9, 0x84, 0xbb, 0x2a, 0x53, 0x73, 0x3b, 0x5f, 0x50, 0x41, 0x3b,
  0x6a, 0xe5, 0x81, 0xbb, 0x3c, 0x7c, 0x18, 0x3b, 0xd4, 0xc5, 0xf4, 0xb8,
  0x0b, 0xcf, 0x51, 0x3b, 0x5e, 0xfb, 0xff, 0xff, 0x44, 0x00, 0x00, 0x00,
  0x0a, 0x00, 0x00, 0x00, 0x08, 0x00, 0x00, 0x00, 0x40, 0x00, 0x00, 0x00,
  0x2e, 0x00, 0x00, 0x00, 0x73, 0x65, 0x71, 0x75, 0x65, 0x6e, 0x74, 0x69,
  0x61, 0x6c, 0x5f, 0x35, 0x36, 0x2f, 0x64, 0x65, 0x6e, 0x73, 0x65, 0x5f,
  0x32, 0x37, 0x37, 0x2f, 0x42, 0x69, 0x61, 0x73, 0x41, 0x64, 0x64, 0x2f,
  0x52, 0x65, 0x61, 0x64, 0x56, 0x61, 0x72, 0x69, 0x61, 0x62, 0x6c, 0x65,
  0x4f, 0x70, 0x00, 0x00, 0x01, 0x00, 0x00, 0x00, 0x0a, 0x00, 0x00, 0x00,
  0x68, 0xfb, 0xff, 0xff, 0x46, 0xfc, 0xff, 0xff, 0x04, 0x00, 0x00, 0x00,
  0x28, 0x00, 0x00, 0x00, 0x8a, 0x86, 0x19, 0xba, 0x50, 0xb0, 0x5e, 0x3b,
  0xdc, 0x4b, 0x01, 0x3a, 0x9a, 0xb7, 0x0f, 0x3b, 0x56, 0x65, 0x97, 0xba,
  0xdf, 0xd9, 0xb3, 0x3a, 0x8a, 0xaf, 0x6b, 0xba, 0x54, 0x5e, 0xcd, 0xb9,
  0x0c, 0x78, 0x6a, 0x3b, 0xcf, 0x74, 0x48, 0xba, 0xe6, 0xfb, 0xff, 0xff,
  0x44, 0x00, 0x00, 0x00, 0x09, 0x00, 0x00, 0x00, 0x08, 0x00, 0x00, 0x00,
  0x40, 0x00, 0x00, 0x00, 0x2e, 0x00, 0x00, 0x00, 0x73, 0x65, 0x71, 0x75,
  0x65, 0x6e, 0x74, 0x69, 0x61, 0x6c, 0x5f, 0x35, 0x36, 0x2f, 0x64, 0x65,
  0x6e, 0x73, 0x65, 0x5f, 0x32, 0x37, 0x36, 0x2f, 0x42, 0x69, 0x61, 0x73,
  0x41, 0x64, 0x64, 0x2f, 0x52, 0x65, 0x61, 0x64, 0x56, 0x61, 0x72, 0x69,
  0x61, 0x62, 0x6c, 0x65, 0x4f, 0x70, 0x00, 0x00, 0x01, 0x00, 0x00, 0x00,
  0x0a, 0x00, 0x00, 0x00, 0xf0, 0xfb, 0xff, 0xff, 0xce, 0xfc, 0xff, 0xff,
  0x04, 0x00, 0x00, 0x00, 0x28, 0x00, 0x00, 0x00, 0x92, 0xa8, 0x18, 0x3c,
  0x4c, 0x89, 0x02, 0xb9, 0xb2, 0x62, 0xc5, 0xb9, 0xeb, 0x4b, 0xf9, 0x3a,
  0x98, 0x7d, 0x42, 0xba, 0xd4, 0x36, 0xa6, 0xbb, 0x27, 0x71, 0x6e, 0x3a,
  0x79, 0x66, 0xdd, 0x3b, 0x3c, 0x44, 0xa3, 0x3a, 0xe5, 0x61, 0x58, 0xbb,
  0x6e, 0xfc, 0xff, 0xff, 0x44, 0x00, 0x00, 0x00, 0x08, 0x00, 0x00, 0x00,
  0x08, 0x00, 0x00, 0x00, 0x40, 0x00, 0x00, 0x00, 0x2e, 0x00, 0x00, 0x00,
  0x73, 0x65, 0x71, 0x75, 0x65, 0x6e, 0x74, 0x69, 0x61, 0x6c, 0x5f, 0x35,
  0x36, 0x2f, 0x64, 0x65, 0x6e, 0x73, 0x65, 0x5f, 0x32, 0x37, 0x35, 0x2f,
  0x42, 0x69, 0x61, 0x73, 0x41, 0x64, 0x64, 0x2f, 0x52, 0x65, 0x61, 0x64,
  0x56, 0x61, 0x72, 0x69, 0x61, 0x62, 0x6c, 0x65, 0x4f, 0x70, 0x00, 0x00,
  0x01, 0x00, 0x00, 0x00, 0x0a, 0x00, 0x00, 0x00, 0x78, 0xfc, 0xff, 0xff,
  0x56, 0xfd, 0xff, 0xff, 0x04, 0x00, 0x00, 0x00, 0x28, 0x00, 0x00, 0x00,
  0x0a, 0x65, 0xcd, 0xba, 0x06, 0xd4, 0x33, 0x3a, 0x65, 0x4e, 0x67, 0x3b,
  0x89, 0xf3, 0x5c, 0xbb, 0x2b, 0xdb, 0xb8, 0xbb, 0x58, 0x25, 0xd0, 0x3b,
  0xb4, 0x1e, 0xaa, 0x3a, 0xbe, 0xf3, 0x30, 0xbb, 0x27, 0x6c, 0x61, 0xba,
  0xd1, 0xfe, 0x49, 0x3b, 0xf6, 0xfc, 0xff, 0xff, 0x44, 0x00, 0x00, 0x00,
  0x07, 0x00, 0x00, 0x00, 0x08, 0x00, 0x00, 0x00, 0x40, 0x00, 0x00, 0x00,
  0x2e, 0x00, 0x00, 0x00, 0x73, 0x65, 0x71, 0x75, 0x65, 0x6e, 0x74, 0x69,
  0x61, 0x6c, 0x5f, 0x35, 0x36, 0x2f, 0x64, 0x65, 0x6e, 0x73, 0x65, 0x5f,
  0x32, 0x37, 0x34, 0x2f, 0x42, 0x69, 0x61, 0x73, 0x41, 0x64, 0x64, 0x2f,
  0x52, 0x65, 0x61, 0x64, 0x56, 0x61, 0x72, 0x69, 0x61, 0x62, 0x6c, 0x65,
  0x4f, 0x70, 0x00, 0x00, 0x01, 0x00, 0x00, 0x00, 0x0a, 0x00, 0x00, 0x00,
  0x00, 0xfd, 0xff, 0xff, 0xde, 0xfd, 0xff, 0xff, 0x04, 0x00, 0x00, 0x00,
  0x28, 0x00, 0x00, 0x00, 0x37, 0x56, 0x94, 0x3b, 0xdb, 0x02, 0xd2, 0xbb,
  0x29, 0x6a, 0xa2, 0xba, 0x1e, 0xae, 0xb3, 0xbb, 0xcd, 0x3d, 0x0f, 0xbc,
  0xbb, 0x37, 0x22, 0xbb, 0x2b, 0x8c, 0x6f, 0xbb, 0x1f, 0x4a, 0xff, 0x3b,
  0x46, 0xa1, 0x23, 0xbb, 0x32, 0x96, 0x4a, 0x3a, 0x7e, 0xfd, 0xff, 0xff,
  0x44, 0x00, 0x00, 0x00, 0x06, 0x00, 0x00, 0x00, 0x08, 0x00, 0x00, 0x00,
  0x40, 0x00, 0x00, 0x00, 0x2e, 0x00, 0x00, 0x00, 0x73, 0x65, 0x71, 0x75,
  0x65, 0x6e, 0x74, 0x69, 0x61, 0x6c, 0x5f, 0x35, 0x36, 0x2f, 0x64, 0x65,
  0x6e, 0x73, 0x65, 0x5f, 0x32, 0x37, 0x33, 0x2f, 0x42, 0x69, 0x61, 0x73,
  0x41, 0x64, 0x64, 0x2f, 0x52, 0x65, 0x61, 0x64, 0x56, 0x61, 0x72, 0x69,
  0x61, 0x62, 0x6c, 0x65, 0x4f, 0x70, 0x00, 0x00, 0x01, 0x00, 0x00, 0x00,
  0x0a, 0x00, 0x00, 0x00, 0x88, 0xfd, 0xff, 0xff, 0x66, 0xfe, 0xff, 0xff,
  0x04, 0x00, 0x00, 0x00, 0x28, 0x00, 0x00, 0x00, 0xc6, 0xcb, 0x16, 0xbb,
  0x71, 0x2a, 0x04, 0xbc, 0xb5, 0x68, 0x96, 0xbb, 0xbb, 0x75, 0x56, 0x3b,
  0x2f, 0x31, 0x11, 0x3b, 0x95, 0xbd, 0x5a, 0xba, 0x5c, 0x06, 0x42, 0xbc,
  0x83, 0x6e, 0x8a, 0xbb, 0xd9, 0x30, 0xba, 0x3b, 0xcf, 0x69, 0x37, 0x3c,
  0x06, 0xfe, 0xff, 0xff, 0x44, 0x00, 0x00, 0x00, 0x05, 0x00, 0x00, 0x00,
  0x08, 0x00, 0x00, 0x00, 0x40, 0x00, 0x00, 0x00, 0x2e, 0x00, 0x00, 0x00,
  0x73, 0x65, 0x71, 0x75, 0x65, 0x6e, 0x74, 0x69, 0x61, 0x6c, 0x5f, 0x35,
  0x36, 0x2f, 0x64, 0x65, 0x6e, 0x73, 0x65, 0x5f, 0x32, 0x37, 0x32, 0x2f,
  0x42, 0x69, 0x61, 0x73, 0x41, 0x64, 0x64, 0x2f, 0x52, 0x65, 0x61, 0x64,
  0x56, 0x61, 0x72, 0x69, 0x61, 0x62, 0x6c, 0x65, 0x4f, 0x70, 0x00, 0x00,
  0x01, 0x00, 0x00, 0x00, 0x0a, 0x00, 0x00, 0x00, 0x10, 0xfe, 0xff, 0xff,
  0xee, 0xfe, 0xff, 0xff, 0x04, 0x00, 0x00, 0x00, 0x28, 0x00, 0x00, 0x00,
  0xfb, 0x4c, 0x16, 0x3b, 0x0f, 0x88, 0xec, 0xba, 0xd5, 0x56, 0x6c, 0x3b,
  0xe8, 0xf4, 0xbe, 0xbb, 0xa6, 0xdf, 0x9e, 0x3a, 0x10, 0xf3, 0xca, 0xbb,
  0xff, 0x9e, 0x9a, 0x3b, 0x24, 0xd3, 0x13, 0xbb, 0xfe, 0xb3, 0x61, 0x3c,
  0x6c, 0x14, 0xde, 0xb9, 0x8e, 0xfe, 0xff, 0xff, 0x44, 0x00, 0x00, 0x00,
  0x04, 0x00, 0x00, 0x00, 0x08, 0x00, 0x00, 0x00, 0x40, 0x00, 0x00, 0x00,
  0x2e, 0x00, 0x00, 0x00, 0x73, 0x65, 0x71, 0x75, 0x65, 0x6e, 0x74, 0x69,
  0x61, 0x6c, 0x5f, 0x35, 0x36, 0x2f, 0x64, 0x65, 0x6e, 0x73, 0x65, 0x5f,
  0x32, 0x37, 0x31, 0x2f, 0x42, 0x69, 0x61, 0x73, 0x41, 0x64, 0x64, 0x2f,
  0x52, 0x65, 0x61, 0x64, 0x56, 0x61, 0x72, 0x69, 0x61, 0x62, 0x6c, 0x65,
  0x4f, 0x70, 0x00, 0x00, 0x01, 0x00, 0x00, 0x00, 0x0a, 0x00, 0x00, 0x00,
  0x98, 0xfe, 0xff, 0xff, 0x76, 0xff, 0xff, 0xff, 0x04, 0x00, 0x00, 0x00,
  0x28, 0x00, 0x00, 0x00, 0xf3, 0xca, 0x85, 0x3c, 0x08, 0x61, 0x48, 0xbc,
  0x95, 0x5e, 0x3c, 0x3a, 0x9d, 0x53, 0xb4, 0xbb, 0x6e, 0xcb, 0x32, 0xbb,
  0x27, 0xc0, 0x22, 0x3c, 0xd8, 0x9b, 0x0d, 0x37, 0x6b, 0x80, 0xba, 0x3b,
  0x97, 0x56, 0x26, 0x3c, 0x20, 0x41, 0xd8, 0x3b, 0x16, 0xff, 0xff, 0xff,
  0x44, 0x00, 0x00, 0x00, 0x03, 0x00, 0x00, 0x00, 0x08, 0x00, 0x00, 0x00,
  0x40, 0x00, 0x00, 0x00, 0x2e, 0x00, 0x00, 0x00, 0x73, 0x65, 0x71, 0x75,
  0x65, 0x6e, 0x74, 0x69, 0x61, 0x6c, 0x5f, 0x35, 0x36, 0x2f, 0x64, 0x65,
  0x6e, 0x73, 0x65, 0x5f, 0x32, 0x37, 0x30, 0x2f, 0x42, 0x69, 0x61, 0x73,
  0x41, 0x64, 0x64, 0x2f, 0x52, 0x65, 0x61, 0x64, 0x56, 0x61, 0x72, 0x69,
  0x61, 0x62, 0x6c, 0x65, 0x4f, 0x70, 0x00, 0x00, 0x01, 0x00, 0x00, 0x00,
  0x0a, 0x00, 0x00, 0x00, 0x70, 0xff, 0xff, 0xff, 0x00, 0x00, 0x06, 0x00,
  0x08, 0x00, 0x04, 0x00, 0x06, 0x00, 0x00, 0x00, 0x04, 0x00, 0x00, 0x00,
  0x28, 0x00, 0x00, 0x00, 0xbd, 0x45, 0xad, 0xbc, 0xba, 0x1c, 0x33, 0x3b,
  0xc4, 0x73, 0x27, 0xbb, 0x0e, 0xe2, 0x2b, 0xbb, 0x9b, 0x31, 0xa1, 0xbb,
  0x58, 0x42, 0x47, 0x3a, 0xd3, 0xa3, 0x6f, 0x3c, 0xfd, 0x47, 0x2a, 0xbc,
  0x4b, 0xc3, 0xbb, 0xbb, 0xa6, 0x78, 0x08, 0x3b, 0xa6, 0xff, 0xff, 0xff,
  0x44, 0x00, 0x00, 0x00, 0x02, 0x00, 0x00, 0x00, 0x08, 0x00, 0x00, 0x00,
  0x44, 0x00, 0x00, 0x00, 0x2e, 0x00, 0x00, 0x00, 0x73, 0x65, 0x71, 0x75,
  0x65, 0x6e, 0x74, 0x69, 0x61, 0x6c, 0x5f, 0x35, 0x36, 0x2f, 0x64, 0x65,
  0x6e, 0x73, 0x65, 0x5f, 0x32, 0x36, 0x39, 0x2f, 0x42, 0x69, 0x61, 0x73,
  0x41, 0x64, 0x64, 0x2f, 0x52, 0x65, 0x61, 0x64, 0x56, 0x61, 0x72, 0x69,
  0x61, 0x62, 0x6c, 0x65, 0x4f, 0x70, 0x00, 0x00, 0x01, 0x00, 0x00, 0x00,
  0x0a, 0x00, 0x00, 0x00, 0x04, 0x00, 0x06, 0x00, 0x04, 0x00, 0x00, 0x00,
  0x00, 0x00, 0x0e, 0x00, 0x14, 0x00, 0x04, 0x00, 0x00, 0x00, 0x08, 0x00,
  0x0c, 0x00, 0x10, 0x00, 0x0e, 0x00, 0x00, 0x00, 0x24, 0x00, 0x00, 0x00,
  0x01, 0x00, 0x00, 0x00, 0x08, 0x00, 0x00, 0x00, 0x24, 0x00, 0x00, 0x00,
  0x0f, 0x00, 0x00, 0x00, 0x64, 0x65, 0x6e, 0x73, 0x65, 0x5f, 0x32, 0x36,
  0x39, 0x5f, 0x69, 0x6e, 0x70, 0x75, 0x74, 0x00, 0x02, 0x00, 0x00, 0x00,
  0x01, 0x00, 0x00, 0x00, 0x0d, 0x00, 0x00, 0x00, 0xfc, 0xff, 0xff, 0xff,
  0x04, 0x00, 0x04, 0x00, 0x04, 0x00, 0x00, 0x00
};
unsigned int g_model_len = 8804;
