unsigned char g_model[] = {
  0x1c, 0x00, 0x00, 0x00, 0x54, 0x46, 0x4c, 0x33, 0x00, 0x00, 0x12, 0x00,
  0x1c, 0x00, 0x04, 0x00, 0x08, 0x00, 0x0c, 0x00, 0x10, 0x00, 0x14, 0x00,
  0x00, 0x00, 0x18, 0x00, 0x12, 0x00, 0x00, 0x00, 0x03, 0x00, 0x00, 0x00,
  0x54, 0x00, 0x00, 0x00, 0x48, 0x00, 0x00, 0x00, 0xa8, 0x00, 0x00, 0x00,
  0x08, 0x00, 0x00, 0x00, 0x50, 0x00, 0x00, 0x00, 0x0d, 0x00, 0x00, 0x00,
  0xe4, 0x12, 0x00, 0x00, 0xe0, 0x12, 0x00, 0x00, 0x04, 0x12, 0x00, 0x00,
  0xd0, 0x10, 0x00, 0x00, 0x60, 0x10, 0x00, 0x00, 0x00, 0x0e, 0x00, 0x00,
  0xd8, 0x05, 0x00, 0x00, 0x28, 0x03, 0x00, 0x00, 0xc4, 0x12, 0x00, 0x00,
  0xc0, 0x12, 0x00, 0x00, 0xbc, 0x12, 0x00, 0x00, 0xb8, 0x12, 0x00, 0x00,
  0x4c, 0x00, 0x00, 0x00, 0x01, 0x00, 0x00, 0x00, 0x84, 0x00, 0x00, 0x00,
  0x02, 0x00, 0x00, 0x00, 0xb0, 0x02, 0x00, 0x00, 0x30, 0x01, 0x00, 0x00,
  0x01, 0x00, 0x00, 0x00, 0x0c, 0x00, 0x00, 0x00, 0x08, 0x00, 0x0c, 0x00,
  0x04, 0x00, 0x08, 0x00, 0x08, 0x00, 0x00, 0x00, 0x08, 0x00, 0x00, 0x00,
  0x0c, 0x00, 0x00, 0x00, 0x13, 0x00, 0x00, 0x00, 0x6d, 0x69, 0x6e, 0x5f,
  0x72, 0x75, 0x6e, 0x74, 0x69, 0x6d, 0x65, 0x5f, 0x76, 0x65, 0x72, 0x73,
  0x69, 0x6f, 0x6e, 0x00, 0x76, 0xee, 0xff, 0xff, 0x04, 0x00, 0x00, 0x00,
  0x10, 0x00, 0x00, 0x00, 0x31, 0x2e, 0x35, 0x2e, 0x30, 0x00, 0x00, 0x00,
  0x00, 0x00, 0x00, 0x00, 0x00, 0x00, 0x00, 0x00, 0x0f, 0x00, 0x00, 0x00,
  0x4d, 0x4c, 0x49, 0x52, 0x20, 0x43, 0x6f, 0x6e, 0x76, 0x65, 0x72, 0x74,
  0x65, 0x64, 0x2e, 0x00, 0x00, 0x00, 0x0e, 0x00, 0x18, 0x00, 0x04, 0x00,
  0x08, 0x00, 0x0c, 0x00, 0x10, 0x00, 0x14, 0x00, 0x0e, 0x00, 0x00, 0x00,
  0x44, 0x00, 0x00, 0x00, 0x38, 0x00, 0x00, 0x00, 0x2c, 0x00, 0x00, 0x00,
  0x14, 0x00, 0x00, 0x00, 0x04, 0x00, 0x00, 0x00, 0x04, 0x00, 0x00, 0x00,
  0x6d, 0x61, 0x69, 0x6e, 0x00, 0x00, 0x00, 0x00, 0x04, 0x00, 0x00, 0x00,
  0xd0, 0x01, 0x00, 0x00, 0x44, 0x01, 0x00, 0x00, 0xc8, 0x00, 0x00, 0x00,
  0x54, 0x00, 0x00, 0x00, 0x01, 0x00, 0x00, 0x00, 0x0a, 0x00, 0x00, 0x00,
  0x01, 0x00, 0x00, 0x00, 0x00, 0x00, 0x00, 0x00, 0x0b, 0x00, 0x00, 0x00,
  0xa0, 0x11, 0x00, 0x00, 0x34, 0x11, 0x00, 0x00, 0xa0, 0x10, 0x00, 0x00,
  0x74, 0x0f, 0x00, 0x00, 0x10, 0x0f, 0x00, 0x00, 0xb0, 0x0c, 0x00, 0x00,
  0x88, 0x04, 0x00, 0x00, 0xd8, 0x01, 0x00, 0x00, 0x34, 0x01, 0x00, 0x00,
  0xb8, 0x00, 0x00, 0x00, 0x50, 0x00, 0x00, 0x00, 0x00, 0x00, 0x0e, 0x00,
  0x18, 0x00, 0x08, 0x00, 0x0c, 0x00, 0x10, 0x00, 0x07, 0x00, 0x14, 0x00,
  0x0e, 0x00, 0x00, 0x00, 0x00, 0x00, 0x00, 0x09, 0x01, 0x00, 0x00, 0x00,
  0x1c, 0x00, 0x00, 0x00, 0x10, 0x00, 0x00, 0x00, 0x04, 0x00, 0x00, 0x00,
  0x56, 0xef, 0xff, 0xff, 0x00, 0x00, 0x80, 0x3f, 0x01, 0x00, 0x00, 0x00,
  0x0a, 0x00, 0x00, 0x00, 0x01, 0x00, 0x00, 0x00, 0x09, 0x00, 0x00, 0x00,
  0x8e, 0xfe, 0xff, 0xff, 0x00, 0x00, 0x00, 0x19, 0x01, 0x00, 0x00, 0x00,
  0xe6, 0xee, 0xff, 0xff, 0x20, 0x00, 0x00, 0x00, 0x0b, 0x00, 0x00, 0x00,
  0x08, 0x00, 0x00, 0x00, 0x20, 0x00, 0x00, 0x00, 0x08, 0x00, 0x00, 0x00,
  0x49, 0x64, 0x65, 0x6e, 0x74, 0x69, 0x74, 0x79, 0x00, 0x00, 0x00, 0x00,
  0x02, 0x00, 0x00, 0x00, 0x01, 0x00, 0x00, 0x00, 0x03, 0x00, 0x00, 0x00,
  0xd0, 0xee, 0xff, 0xff, 0x0e, 0xff, 0xff, 0xff, 0x00, 0x00, 0x00, 0x08,
  0x18, 0x00, 0x00, 0x00, 0x0c, 0x00, 0x00, 0x00, 0x04, 0x00, 0x00, 0x00,
  0xe8, 0xee, 0xff, 0xff, 0x01, 0x00, 0x00, 0x00, 0x09, 0x00, 0x00, 0x00,
  0x03, 0x00, 0x00, 0x00, 0x08, 0x00, 0x00, 0x00, 0x06, 0x00, 0x00, 0x00,
  0x03, 0x00, 0x00, 0x00, 0x4a, 0xef, 0xff, 0xff, 0x34, 0x00, 0x00, 0x00,
  0x0a, 0x00, 0x00, 0x00, 0x08, 0x00, 0x00, 0x00, 0x34, 0x00, 0x00, 0x00,
  0x1f, 0x00, 0x00, 0x00, 0x73, 0x65, 0x71, 0x75, 0x65, 0x6e, 0x74, 0x69,
  0x61, 0x6c, 0x5f, 0x35, 0x32, 0x2f, 0x64, 0x65, 0x6e, 0x73, 0x65, 0x5f,
  0x32, 0x35, 0x31, 0x2f, 0x42, 0x69, 0x61, 0x73, 0x41, 0x64, 0x64, 0x00,
  0x02, 0x00, 0x00, 0x00, 0x01, 0x00, 0x00, 0x00, 0x03, 0x00, 0x00, 0x00,
  0x48, 0xef, 0xff, 0xff, 0x86, 0xff, 0xff, 0xff, 0x00, 0x00, 0x00, 0x08,
  0x18, 0x00, 0x00, 0x00, 0x0c, 0x00, 0x00, 0x00, 0x04, 0x00, 0x00, 0x00,
  0x60, 0xef, 0xff, 0xff, 0x01, 0x00, 0x00, 0x00, 0x08, 0x00, 0x00, 0x00,
  0x03, 0x00, 0x00, 0x00, 0x07, 0x00, 0x00, 0x00, 0x05, 0x00, 0x00, 0x00,
  0x02, 0x00, 0x00, 0x00, 0xc2, 0xef, 0xff, 0xff, 0x34, 0x00, 0x00, 0x00,
  0x09, 0x00, 0x00, 0x00, 0x08, 0x00, 0x00, 0x00, 0x34, 0x00, 0x00, 0x00,
  0x1f, 0x00, 0x00, 0x00, 0x73, 0x65, 0x71, 0x75, 0x65, 0x6e, 0x74, 0x69,
  0x61, 0x6c, 0x5f, 0x35, 0x32, 0x2f, 0x64, 0x65, 0x6e, 0x73, 0x65, 0x5f,
  0x32, 0x35, 0x30, 0x2f, 0x42, 0x69, 0x61, 0x73, 0x41, 0x64, 0x64, 0x00,
  0x02, 0x00, 0x00, 0x00, 0x01, 0x00, 0x00, 0x00, 0x32, 0x00, 0x00, 0x00,
  0x10, 0xf0, 0xff, 0xff, 0x00, 0x00, 0x0e, 0x00, 0x14, 0x00, 0x00, 0x00,
  0x08, 0x00, 0x0c, 0x00, 0x07, 0x00, 0x10, 0x00, 0x0e, 0x00, 0x00, 0x00,
  0x00, 0x00, 0x00, 0x08, 0x18, 0x00, 0x00, 0x00, 0x0c, 0x00, 0x00, 0x00,
  0x04, 0x00, 0x00, 0x00, 0xe8, 0xef, 0xff, 0xff, 0x01, 0x00, 0x00, 0x00,
  0x07, 0x00, 0x00, 0x00, 0x03, 0x00, 0x00, 0x00, 0x00, 0x00, 0x00, 0x00,
  0x04, 0x00, 0x00, 0x00, 0x01, 0x00, 0x00, 0x00, 0x00, 0x00, 0x0a, 0x00,
  0x0c, 0x00, 0x07, 0x00, 0x00, 0x00, 0x08, 0x00, 0x0a, 0x00, 0x00, 0x00,
  0x00, 0x00, 0x00, 0x09, 0x01, 0x00, 0x00, 0x00, 0x62, 0xf0, 0xff, 0xff,
  0x34, 0x00, 0x00, 0x00, 0x08, 0x00, 0x00, 0x00, 0x08, 0x00, 0x00, 0x00,
  0x34, 0x00, 0x00, 0x00, 0x1f, 0x00, 0x00, 0x00, 0x73, 0x65, 0x71, 0x75,
  0x65, 0x6e, 0x74, 0x69, 0x61, 0x6c, 0x5f, 0x35, 0x32, 0x2f, 0x64, 0x65,
  0x6e, 0x73, 0x65, 0x5f, 0x32, 0x34, 0x39, 0x2f, 0x42, 0x69, 0x61, 0x73,
  0x41, 0x64, 0x64, 0x00, 0x02, 0x00, 0x00, 0x00, 0x01, 0x00, 0x00, 0x00,
  0x0a, 0x00, 0x00, 0x00, 0x60, 0xf0, 0xff, 0xff, 0x3e, 0xf1, 0xff, 0xff,
  0x04, 0x00, 0x00, 0x00, 0x58, 0x02, 0x00, 0x00, 0xa7, 0x76, 0x52, 0xbe,
  0x58, 0x72, 0x3d, 0xbe, 0x16, 0x95, 0x7f, 0x3e, 0x6d, 0xee, 0xb9, 0x3d,
  0x50, 0x44, 0xaf, 0x3e, 0xce, 0x79, 0xed, 0xbc, 0xaa, 0x2c, 0x69, 0xbd,
  0xb7, 0xba, 0x42, 0xbe, 0x48, 0xba, 0xba, 0x3c, 0x8a, 0x47, 0x8f, 0x3e,
  0xd9, 0xe9, 0x3b, 0x3e, 0x26, 0xe8, 0x0b, 0x3e, 0xfa, 0x85, 0xc3, 0xbd,
  0x52, 0xb5, 0x30, 0x3e, 0x82, 0x66, 0x06, 0x3c, 0xe4, 0xf5, 0x46, 0xbd,
  0x23, 0xed, 0xef, 0x3d, 0x10, 0x97, 0x98, 0xbe, 0xef, 0x45, 0x7d, 0x3e,
  0x88, 0xd9, 0x69, 0x3e, 0xdf, 0x66, 0x33, 0x3e, 0xa6, 0xc6, 0x64, 0xbe,
  0xef, 0xbf, 0xb4, 0x3d, 0x33, 0x94, 0x45, 0xbe, 0x87, 0xbe, 0x2a, 0x3e,
  0xfe, 0x40, 0x9d, 0xbd, 0xd3, 0xa4, 0x4f, 0xbe, 0xb8, 0xbd, 0xaa, 0x3e,
  0xff, 0xce, 0xd1, 0xbd, 0xe0, 0x4d, 0x11, 0x3e, 0x3f, 0x86, 0xc6, 0xbd,
  0x32, 0xff, 0x84, 0xbe, 0x74, 0x5a, 0xb1, 0x3d, 0x12, 0x0b, 0x84, 0x3e,
  0x63, 0x4a, 0x36, 0xbe, 0x29, 0x78, 0x22, 0xbe, 0xd9, 0xb5, 0xf9, 0xbd,
  0x67, 0xee, 0xa3, 0x3e, 0x0e, 0x19, 0x83, 0xbd, 0x85, 0x1c, 0x67, 0xbe,
  0x7f, 0x81, 0x33, 0xbd, 0x7e, 0xf0, 0xe0, 0xbd, 0xfc, 0x3c, 0x7e, 0xbe,
  0xe8, 0xad, 0x44, 0x3d, 0x42, 0xa1, 0x5d, 0xbd, 0x55, 0xb6, 0xcf, 0x3d,
  0xc5, 0x0a, 0x13, 0xbe, 0xa3, 0x74, 0x4b, 0x3e, 0xb2, 0x96, 0x23, 0xbe,
  0xa8, 0xa7, 0xf5, 0x3d, 0x6c, 0x93, 0x8d, 0xbe, 0xd5, 0x80, 0xd6, 0x3c,
  0x56, 0x4b, 0xbb, 0xbd, 0x44, 0xac, 0x6c, 0xbe, 0xea, 0x70, 0xe2, 0x3d,
  0x16, 0x4f, 0x9e, 0x3e, 0x37, 0x08, 0x81, 0x3e, 0xd0, 0xb3, 0x87, 0x3e,
  0x9f, 0x27, 0x46, 0x3e, 0xca, 0x7a, 0xa9, 0x3e, 0xa1, 0xc9, 0x10, 0x3e,
  0x41, 0xb6, 0x3a, 0xbe, 0xd3, 0x1d, 0x12, 0x3e, 0x40, 0x5b, 0x98, 0x3e,
  0xa2, 0xfd, 0x06, 0xbe, 0x63, 0x51, 0x15, 0x3d, 0x29, 0x8f, 0x3a, 0xbe,
  0x29, 0x33, 0xc0, 0x3d, 0x30, 0x67, 0xe2, 0x3c, 0x29, 0x8f, 0x70, 0xbe,
  0x8f, 0x83, 0x8d, 0x3e, 0x2f, 0x1c, 0xf6, 0xbd, 0x91, 0x05, 0x78, 0xbe,
  0x58, 0x81, 0xbe, 0x3d, 0xdc, 0x33, 0x07, 0xbe, 0xec, 0xd7, 0x6c, 0x3e,
  0x3f, 0xed, 0x05, 0x3e, 0x33, 0xc5, 0xdb, 0x3d, 0x87, 0xc7, 0x54, 0x3d,
  0x18, 0x13, 0xa5, 0x3d, 0x20, 0x2f, 0x6c, 0xbe, 0x56, 0x8a, 0x8e, 0xbe,
  0xd1, 0x50, 0x3d, 0xbe, 0x73, 0xb0, 0x3b, 0xbe, 0xaa, 0x61, 0x90, 0xbd,
  0x53, 0x91, 0x3d, 0xbe, 0x2b, 0x00, 0x2b, 0x3e, 0xfc, 0x69, 0xe3, 0xbd,
  0x4b, 0x60, 0x12, 0x3e, 0xff, 0x62, 0x97, 0xbc, 0x34, 0xd5, 0x9d, 0x3e,
  0x93, 0x28, 0x8e, 0x3e, 0x77, 0x5d, 0xa2, 0x3e, 0xd4, 0x98, 0x94, 0xbe,
  0x3d, 0x4c, 0x34, 0x3e, 0xc4, 0xc7, 0x9e, 0x3e, 0x02, 0x5b, 0x21, 0x3d,
  0xa8, 0x1f, 0x27, 0x3e, 0x7f, 0x9e, 0x4e, 0x3d, 0x2f, 0x54, 0x34, 0xbd,
  0x40, 0x8c, 0x11, 0x3e, 0xe6, 0x8d, 0x77, 0x3e, 0xc4, 0x13, 0x85, 0x3e,
  0x59, 0x51, 0x60, 0x3e, 0x06, 0x84, 0x89, 0xbe, 0xdd, 0xd9, 0xa6, 0x3c,
  0x04, 0xa4, 0x5c, 0xbe, 0x9b, 0x8e, 0x6c, 0xbe, 0x5e, 0x91, 0x0e, 0xbe,
  0x0a, 0x54, 0x84, 0xbe, 0x63, 0x73, 0x4f, 0xbe, 0xbc, 0xef, 0xc1, 0x3c,
  0x18, 0x5e, 0x66, 0xbe, 0x20, 0xa3, 0x9a, 0x3e, 0x88, 0xbb, 0xc8, 0xbd,
  0x1c, 0x22, 0x5f, 0x3d, 0x84, 0xf9, 0x12, 0x3d, 0x48, 0x95, 0x3d, 0x3e,
  0x18, 0x51, 0xaa, 0xbe, 0x24, 0x4f, 0x8c, 0xbe, 0xe1, 0xc1, 0xc8, 0x3c,
  0x5f, 0x0f, 0x3b, 0xbe, 0xa9, 0xe6, 0x98, 0xbe, 0xd1, 0x79, 0xa2, 0x3d,
  0x1d, 0x70, 0x08, 0xbe, 0xf8, 0x5c, 0xce, 0x3d, 0x61, 0xa5, 0x8e, 0xbe,
  0xd6, 0x4b, 0x7a, 0x3e, 0x45, 0x20, 0x88, 0xbd, 0xbe, 0xa0, 0x2f, 0x3e,
  0x1c, 0xa6, 0x1f, 0x3d, 0x23, 0x17, 0x4a, 0xbe, 0x21, 0xd8, 0x02, 0xbd,
  0x05, 0x5b, 0x02, 0xbc, 0xb5, 0x18, 0xf2, 0x3d, 0x90, 0x04, 0xe3, 0xbd,
  0xa8, 0xf6, 0xee, 0xbc, 0x43, 0xa1, 0x31, 0xbe, 0x7f, 0x6f, 0x4b, 0x3c,
  0x61, 0xbf, 0xa0, 0x3e, 0x0f, 0x19, 0xa1, 0xbd, 0x26, 0xaa, 0x75, 0x3c,
  0x48, 0x60, 0x4c, 0x3e, 0xe5, 0x1a, 0x2a, 0x3e, 0x45, 0xc2, 0x34, 0x3c,
  0x1e, 0xce, 0x1d, 0x3e, 0xc5, 0x5b, 0x8a, 0xbd, 0xa6, 0x43, 0xb6, 0x3e,
  0xd4, 0xf0, 0x4f, 0x3e, 0xd9, 0x68, 0xa0, 0xbe, 0x0e, 0xf3, 0xff, 0xff,
  0x34, 0x00, 0x00, 0x00, 0x07, 0x00, 0x00, 0x00, 0x08, 0x00, 0x00, 0x00,
  0x34, 0x00, 0x00, 0x00, 0x1e, 0x00, 0x00, 0x00, 0x73, 0x65, 0x71, 0x75,
  0x65, 0x6e, 0x74, 0x69, 0x61, 0x6c, 0x5f, 0x35, 0x32, 0x2f, 0x64, 0x65,
  0x6e, 0x73, 0x65, 0x5f, 0x32, 0x35, 0x31, 0x2f, 0x4d, 0x61, 0x74, 0x4d,
  0x75, 0x6c, 0x00, 0x00, 0x02, 0x00, 0x00, 0x00, 0x03, 0x00, 0x00, 0x00,
  0x32, 0x00, 0x00, 0x00, 0x0c, 0xf3, 0xff, 0xff, 0xea, 0xf3, 0xff, 0xff,
  0x04, 0x00, 0x00, 0x00, 0xd0, 0x07, 0x00, 0x00, 0x38, 0xdf, 0xa0, 0xbe,
  0x59, 0xcb, 0x8b, 0xbd, 0xe8, 0x70, 0x5f, 0x3e, 0xbb, 0x68, 0x89, 0x3e,
  0xa2, 0x8d, 0x19, 0xbe, 0x93, 0xdd, 0x71, 0xbe, 0x86, 0x4d, 0xa2, 0xbd,
  0xa2, 0xa2, 0x15, 0x3e, 0x97, 0xf8, 0x88, 0xbe, 0x96, 0xf6, 0x86, 0xbe,
  0xcc, 0x0f, 0x0d, 0x3e, 0x47, 0xdb, 0x02, 0x3e, 0xe1, 0xf6, 0x87, 0xbd,
  0xc9, 0x67, 0x8f, 0x3e, 0x92, 0xbd, 0x5a, 0x3e, 0x4e, 0xeb, 0x54, 0x3e,
  0xab, 0x6d, 0x77, 0x3d, 0xec, 0xd0, 0x4c, 0x3e, 0x44, 0x43, 0x44, 0x3e,
  0x59, 0x1a, 0x0c, 0xbe, 0x9e, 0xce, 0x6b, 0x3e, 0x2c, 0x6a, 0x94, 0x3e,
  0xc0, 0x67, 0x0a, 0xbe, 0xcf, 0x68, 0x39, 0x3d, 0x1d, 0xcd, 0x2c, 0x3e,
  0x7e, 0xd0, 0x06, 0x3e, 0x1e, 0xa8, 0x8c, 0x3e, 0xe0, 0x94, 0x01, 0xbe,
  0xac, 0x5e, 0x87, 0x3e, 0x99, 0x22, 0x0b, 0x3e, 0xeb, 0x1c, 0x8c, 0xbe,
  0x8a, 0xd8, 0xdb, 0x3c, 0x72, 0x81, 0xab, 0x3e, 0xfa, 0xf6, 0x42, 0xbe,
  0x00, 0x2f, 0x0f, 0xbe, 0x1e, 0x3a, 0xe0, 0xbd, 0x15, 0xef, 0x13, 0xbe,
  0x4e, 0xab, 0xe8, 0x3d, 0x16, 0x1e, 0x84, 0x3e, 0x27, 0x9f, 0x5d, 0xbe,
  0x3b, 0xae, 0x17, 0xbe, 0x34, 0x8f, 0x35, 0xbd, 0x12, 0xa8, 0x47, 0x3d,
  0x51, 0x9c, 0x35, 0x3d, 0xc1, 0x25, 0x02, 0x3d, 0xb1, 0xad, 0x96, 0xbe,
  0xf9, 0xee, 0x51, 0x3d, 0x86, 0xcc, 0x94, 0xbd, 0xd1, 0x75, 0x4a, 0xbe,
  0x1e, 0xc0, 0x9b, 0xbe, 0xa8, 0x15, 0x9c, 0x3d, 0xce, 0x6f, 0x7c, 0x3e,
  0x61, 0x6a, 0x3e, 0x3e, 0x4c, 0x2f, 0xa1, 0x3e, 0xa7, 0x82, 0x10, 0xbe,
  0x35, 0xa0, 0x45, 0x3e, 0x01, 0xb2, 0x98, 0xbe, 0x42, 0xa0, 0xa1, 0xbd,
  0x74, 0xcd, 0x91, 0x3e, 0xb4, 0xb6, 0x94, 0xbe, 0x7e, 0xdd, 0x7f, 0x3e,
  0xd5, 0xae, 0x38, 0xbe, 0x3a, 0x0f, 0x8d, 0x3e, 0x12, 0xc0, 0x7b, 0xbe,
  0x67, 0x80, 0x00, 0xbe, 0x8b, 0xbd, 0x84, 0xbe, 0x9a, 0x22, 0x25, 0xbe,
  0xbc, 0xf9, 0xd4, 0xbd, 0x0e, 0x08, 0x4e, 0x3e, 0xc1, 0x08, 0xf3, 0xbd,
  0x30, 0xb6, 0x0c, 0x3e, 0xa4, 0x72, 0x8a, 0x3c, 0x39, 0x7a, 0x92, 0xbe,
  0x97, 0xad, 0xda, 0xbd, 0x74, 0xd6, 0x98, 0x3e, 0xc6, 0x32, 0x45, 0xbe,
  0x20, 0xca, 0x97, 0x3e, 0x40, 0xbd, 0x3e, 0x3d, 0x75, 0x17, 0x97, 0x3e,
  0xf1, 0x80, 0x00, 0x3e, 0x00, 0xcf, 0x10, 0xbd, 0x44, 0x50, 0x93, 0x3e,
  0x30, 0x15, 0x85, 0x3e, 0x42, 0x64, 0x73, 0x3e, 0x54, 0x76, 0x65, 0xbc,
  0x4c, 0xb8, 0x96, 0xbe, 0x7c, 0xd3, 0x98, 0x3c, 0x11, 0x6a, 0x9d, 0xbd,
  0x73, 0x7e, 0x09, 0x3e, 0xc6, 0x83, 0x6f, 0x3e, 0x69, 0xf9, 0x2e, 0x3e,
  0x9f, 0xc7, 0x09, 0xbe, 0xda, 0x37, 0x74, 0xbe, 0x59, 0x5a, 0xac, 0xbc,
  0xcd, 0x92, 0x15, 0xbe, 0x24, 0x6c, 0xa8, 0xbd, 0xf7, 0x53, 0xa9, 0x3d,
  0x1c, 0xeb, 0x77, 0xbc, 0x4f, 0xb1, 0x05, 0x3e, 0x1e, 0xe6, 0x20, 0x3e,
  0xf5, 0xc5, 0xab, 0xbd, 0x39, 0x69, 0xd0, 0xbd, 0x55, 0x76, 0x73, 0x3e,
  0x9c, 0x85, 0xf3, 0x3c, 0x9d, 0x93, 0x81, 0x3e, 0xa2, 0x75, 0xe0, 0x3d,
  0x3c, 0x0f, 0x91, 0x3d, 0x3e, 0xf8, 0x82, 0x3d, 0x9b, 0x77, 0x8f, 0xbe,
  0x30, 0x54, 0xb1, 0x3d, 0x93, 0x1e, 0x56, 0x3e, 0x23, 0x5b, 0x5d, 0x3e,
  0x24, 0xf6, 0x38, 0xbe, 0x97, 0x15, 0xa3, 0xbe, 0x39, 0xe8, 0x88, 0xbe,
  0x95, 0xcc, 0x1e, 0x3e, 0x61, 0x71, 0x73, 0x3e, 0xe6, 0x47, 0x33, 0x3d,
  0x41, 0x36, 0x92, 0xbe, 0x29, 0xab, 0x2e, 0x3d, 0x9c, 0x3d, 0x95, 0xbe,
  0x81, 0x00, 0x86, 0xbd, 0x1b, 0x1a, 0xe7, 0x3c, 0x4f, 0x74, 0xd9, 0xbd,
  0xd3, 0x91, 0xe7, 0xbc, 0xba, 0x2d, 0x91, 0x3e, 0xa0, 0xe6, 0x86, 0xbd,
  0xb7, 0xab, 0x87, 0x3d, 0xc9, 0x7d, 0x79, 0xbe, 0x1e, 0xec, 0x2a, 0x3c,
  0xa0, 0xdc, 0xab, 0x3d, 0x0e, 0x44, 0x21, 0x3e, 0xa5, 0xc0, 0xcd, 0x3d,
  0xc0, 0x16, 0xc8, 0x3d, 0xcb, 0x3e, 0x00, 0x3e, 0x10, 0xee, 0xfe, 0x3d,
  0x56, 0xad, 0x12, 0x3e, 0x52, 0x84, 0x6b, 0x3e, 0x7e, 0xa5, 0xa2, 0x3e,
  0xb3, 0x76, 0x37, 0x3e, 0xee, 0xb0, 0x9b, 0x3e, 0xa3, 0xa5, 0x90, 0xbe,
  0x4b, 0xb7, 0x96, 0xbe, 0xaf, 0x27, 0x37, 0x3e, 0x91, 0x8c, 0x22, 0xbe,
  0xd1, 0xe2, 0x7e, 0x3e, 0x47, 0xe2, 0x9c, 0x3e, 0x54, 0xc0, 0x92, 0xbe,
  0x8a, 0xd4, 0x8f, 0xbe, 0x71, 0xd1, 0x93, 0xbe, 0x9e, 0x7b, 0x85, 0x3e,
  0xbd, 0xba, 0x52, 0xbe, 0x57, 0xe7, 0x50, 0x3d, 0x01, 0x01, 0x6d, 0xbd,
  0xc2, 0x80, 0x8b, 0xbe, 0x6f, 0xd9, 0x56, 0xbe, 0x6c, 0x31, 0xeb, 0xbd,
  0x1a, 0x2d, 0xda, 0xbb, 0xdc, 0x4e, 0x0b, 0xbe, 0x48, 0x41, 0xca, 0x3b,
  0xf0, 0x0d, 0xed, 0xbd, 0x60, 0x81, 0x01, 0x3e, 0xd3, 0x6b, 0x1c, 0xbd,
  0xf9, 0xa5, 0x69, 0xbe, 0xf3, 0xaf, 0xf1, 0xbd, 0x5b, 0xef, 0x9b, 0xbd,
  0x82, 0x67, 0x7c, 0x3a, 0x2b, 0xb2, 0x83, 0xbd, 0xd3, 0x59, 0x84, 0xbd,
  0x13, 0x52, 0x80, 0x3e, 0xf1, 0x26, 0x91, 0x3e, 0xbb, 0xc6, 0x86, 0xbe,
  0xd1, 0x25, 0x28, 0x3e, 0xe0, 0xf9, 0x6f, 0xbe, 0x96, 0x6c, 0x87, 0xbe,
  0xf5, 0x76, 0x3f, 0xbe, 0xe5, 0xe8, 0x4c, 0xbe, 0xc6, 0xab, 0xc2, 0xbd,
  0x2c, 0xec, 0x85, 0xbe, 0xac, 0x9c, 0x94, 0xbe, 0xb5, 0x60, 0x53, 0x3d,
  0x3a, 0xc3, 0xf3, 0x3d, 0x9d, 0xbf, 0x8b, 0x3d, 0xd2, 0xc7, 0x90, 0xbe,
  0xed, 0x27, 0x55, 0xbe, 0xb7, 0x4a, 0x3b, 0xbe, 0xde, 0x9f, 0x0c, 0x3d,
  0xe5, 0x12, 0x1b, 0xbe, 0x5a, 0x30, 0x46, 0xbd, 0x51, 0xd5, 0xfc, 0x3d,
  0xe1, 0x33, 0xa1, 0xbd, 0x59, 0x3f, 0xb4, 0xbc, 0x7c, 0x4a, 0x7f, 0xbe,
  0x2f, 0x9d, 0x0d, 0xbe, 0x80, 0x7b, 0x8f, 0x3e, 0x44, 0xae, 0x66, 0xbd,
  0x04, 0x9a, 0x6d, 0x3d, 0xa9, 0x71, 0x46, 0xbe, 0x23, 0xcc, 0x88, 0xbd,
  0x4c, 0x14, 0x73, 0x3d, 0x9c, 0x9a, 0x88, 0x3e, 0x78, 0xda, 0x89, 0x3d,
  0x4e, 0xcf, 0x23, 0xbe, 0x7b, 0x9f, 0x14, 0x3e, 0x22, 0x9b, 0x23, 0x3e,
  0x11, 0xf5, 0x3e, 0x3e, 0x84, 0x47, 0x7e, 0x3e, 0x1a, 0x1c, 0x39, 0x3e,
  0xd6, 0xe0, 0xb4, 0x3d, 0xf3, 0xe9, 0xd1, 0x3d, 0x37, 0x7b, 0x33, 0xbd,
  0x6b, 0xe2, 0xb0, 0xbd, 0x75, 0x67, 0x83, 0x3e, 0x36, 0x0c, 0xbc, 0x3d,
  0xb5, 0x20, 0xdf, 0xbd, 0x64, 0x0c, 0x96, 0xbe, 0x05, 0x32, 0x89, 0x3e,
  0x9b, 0x0f, 0xb4, 0x3d, 0xcb, 0x4b, 0x80, 0xbe, 0xbb, 0xdc, 0x9c, 0x3d,
  0xe8, 0xa2, 0x8e, 0xbe, 0x77, 0x45, 0x99, 0x3e, 0x1b, 0x64, 0x48, 0xbe,
  0xc6, 0xb9, 0x6d, 0x3e, 0xa2, 0x16, 0x31, 0x3d, 0x25, 0x74, 0x47, 0xbe,
  0x47, 0xb1, 0x14, 0x3d, 0x6f, 0xc0, 0x64, 0xbc, 0xb2, 0x8b, 0x71, 0x3c,
  0x73, 0x3b, 0x1b, 0x3e, 0x33, 0xdd, 0x9e, 0xbe, 0x92, 0x23, 0x6c, 0x3d,
  0x5e, 0xbc, 0x52, 0xbe, 0x3e, 0x51, 0xd5, 0xbc, 0x1f, 0x67, 0x67, 0x3e,
  0x0f, 0x6b, 0x27, 0xbe, 0x8c, 0x3b, 0x05, 0x3e, 0x3f, 0xce, 0x29, 0x3e,
  0xef, 0x4c, 0xdd, 0xbd, 0x18, 0x76, 0x08, 0xba, 0xb7, 0xd0, 0x5b, 0xbd,
  0x68, 0x2e, 0x0d, 0x3e, 0x6c, 0x71, 0x2c, 0xbe, 0x0d, 0xe5, 0x74, 0xbd,
  0x2d, 0x3b, 0xa6, 0x3e, 0x51, 0x29, 0xa6, 0xbc, 0xb9, 0x52, 0x5a, 0xbe,
  0xee, 0xb2, 0x89, 0x3c, 0x1f, 0xde, 0x83, 0xbe, 0x31, 0x14, 0x48, 0x3e,
  0xbd, 0x6d, 0x54, 0x3d, 0x3a, 0x51, 0xa6, 0xbc, 0x5f, 0xa4, 0x82, 0xbd,
  0xfa, 0xfe, 0xa2, 0xbd, 0x4b, 0x31, 0xf0, 0x3d, 0x9b, 0x1b, 0x08, 0x3e,
  0x6a, 0xaa, 0x8c, 0xbe, 0x10, 0x11, 0x92, 0xbe, 0xce, 0x19, 0x2e, 0xbd,
  0xdf, 0x86, 0x5e, 0x3e, 0xd9, 0x14, 0x88, 0x3d, 0xcb, 0x77, 0xae, 0x3c,
  0xc0, 0x27, 0x26, 0x3e, 0xaf, 0xc8, 0x9e, 0x3e, 0x7a, 0x79, 0x6e, 0x3e,
  0x85, 0xaa, 0x94, 0x3e, 0xbc, 0xdf, 0x47, 0x3d, 0xde, 0x8c, 0x7c, 0xbe,
  0xf9, 0xfe, 0x1d, 0xbe, 0x43, 0x61, 0x0a, 0x3e, 0x25, 0x1f, 0x2d, 0x3e,
  0x44, 0xef, 0x05, 0xbd, 0xd9, 0x74, 0x5b, 0xbe, 0x53, 0x72, 0x89, 0xbe,
  0x37, 0xc3, 0x6d, 0xbc, 0xbe, 0x1c, 0x36, 0xbe, 0xed, 0x6b, 0x5a, 0x3e,
  0x6b, 0xeb, 0x97, 0x3e, 0x2d, 0x58, 0xb8, 0xbd, 0xf9, 0xbd, 0xca, 0x3c,
  0x64, 0xf7, 0x31, 0x3b, 0xdc, 0x32, 0x7d, 0x3d, 0xa0, 0xd1, 0xdb, 0xbc,
  0xa7, 0xaf, 0x8a, 0xbe, 0x1c, 0xaf, 0x8d, 0xbe, 0xe3, 0xcc, 0x63, 0x3e,
  0x2b, 0xeb, 0x5d, 0x3d, 0xf8, 0x82, 0x3d, 0x3d, 0x9a, 0xe0, 0x7d, 0xbe,
  0xd9, 0x3d, 0x17, 0xbe, 0xd4, 0x45, 0x87, 0xbe, 0x9e, 0x8c, 0x78, 0xbd,
  0x5f, 0x73, 0x9e, 0x3e, 0x92, 0x55, 0x20, 0x3e, 0x93, 0xde, 0x73, 0x3e,
  0x5d, 0xb4, 0x8d, 0x3e, 0x13, 0xa6, 0xfb, 0xbd, 0xb1, 0xfd, 0xb9, 0xbc,
  0x59, 0xfc, 0x36, 0xbe, 0x70, 0xe6, 0x27, 0xbe, 0x9e, 0x6b, 0x95, 0xbe,
  0xed, 0xf8, 0x9f, 0xbe, 0xbd, 0x84, 0x03, 0x3e, 0x37, 0x86, 0x0f, 0x3e,
  0xa8, 0xcd, 0x69, 0xbe, 0xad, 0xd3, 0x0e, 0xbd, 0x4f, 0x89, 0xe7, 0x3d,
  0x51, 0xbe, 0x84, 0xbe, 0x05, 0x02, 0x3f, 0xbe, 0xa4, 0x03, 0x06, 0xbe,
  0x62, 0x8f, 0x3a, 0x3e, 0x13, 0x64, 0x55, 0xbb, 0x96, 0x49, 0x6b, 0xbe,
  0x34, 0x87, 0x9f, 0x3e, 0xb9, 0x30, 0x18, 0x3d, 0x54, 0xb3, 0x8d, 0xbe,
  0xca, 0x2b, 0x91, 0x3e, 0x60, 0x10, 0x97, 0x3e, 0xe4, 0x28, 0x8c, 0x3e,
  0x1e, 0xf5, 0x78, 0x3e, 0x5a, 0xc3, 0x07, 0xbe, 0x42, 0xd0, 0x02, 0xbe,
  0xec, 0x28, 0x77, 0xbe, 0xe0, 0x85, 0x8a, 0xbe, 0xe1, 0x19, 0xf0, 0x3d,
  0xb4, 0xd9, 0x47, 0x3d, 0xd4, 0x29, 0x33, 0x3d, 0xf4, 0x79, 0x78, 0x3e,
  0xbc, 0x40, 0x87, 0x3e, 0x57, 0xbc, 0xa6, 0xbe, 0x72, 0x45, 0x6d, 0x3e,
  0x74, 0xc1, 0xa3, 0x3e, 0x97, 0x99, 0x89, 0xbe, 0xa4, 0x0f, 0xf4, 0xbd,
  0x81, 0xb2, 0x11, 0xbe, 0xb8, 0x61, 0x14, 0xbe, 0x82, 0x88, 0x5e, 0xbe,
  0x9a, 0x4a, 0x6a, 0xbe, 0x0d, 0x58, 0xc6, 0x3d, 0x9a, 0x0c, 0x98, 0x3e,
  0xd6, 0xe2, 0x9f, 0xbe, 0x14, 0x30, 0x83, 0x3e, 0x9e, 0x49, 0x8e, 0x3e,
  0xb3, 0xb5, 0x7e, 0x3e, 0xa3, 0x13, 0x95, 0xbe, 0x79, 0x2d, 0x8b, 0x3e,
  0xba, 0x3f, 0x7c, 0xbe, 0x78, 0x8c, 0x2a, 0x3e, 0x04, 0xd6, 0x22, 0x3a,
  0xd8, 0xa3, 0x42, 0xbe, 0x6d, 0x83, 0xdc, 0xbd, 0xcc, 0xac, 0xdb, 0x3d,
  0x58, 0xa6, 0x2a, 0xbe, 0x88, 0x66, 0x87, 0xbd, 0x19, 0x85, 0xaa, 0x3d,
  0xdd, 0xe7, 0x54, 0xbe, 0xf0, 0xb8, 0xc2, 0x3c, 0x95, 0x1c, 0x8d, 0xbe,
  0x46, 0xf0, 0x9f, 0x3e, 0x63, 0x95, 0x92, 0xbe, 0x02, 0x3b, 0xf9, 0x3d,
  0xde, 0xe4, 0xaf, 0xbd, 0xd5, 0x33, 0x3b, 0xbe, 0xec, 0xe0, 0x64, 0x3c,
  0x02, 0xb2, 0x40, 0x3e, 0xce, 0x5c, 0x48, 0x3e, 0xc5, 0x79, 0x8b, 0xbe,
  0xd3, 0xfd, 0xa0, 0xbe, 0x4d, 0x75, 0x86, 0x3e, 0x2c, 0x8b, 0xfc, 0xbd,
  0x08, 0x0d, 0x4f, 0x3c, 0xc6, 0x52, 0x96, 0xbe, 0xa2, 0x31, 0xe7, 0x3d,
  0xe1, 0x01, 0x01, 0x3d, 0xd1, 0x88, 0x09, 0x3e, 0x3d, 0x87, 0x92, 0x3d,
  0xc7, 0xb9, 0x4f, 0x3c, 0xaa, 0xbe, 0xde, 0x3d, 0x37, 0x8c, 0x43, 0xbe,
  0xc4, 0x7e, 0x89, 0x3e, 0x7c, 0xd6, 0x56, 0xbe, 0xb4, 0xb2, 0x99, 0x3d,
  0xab, 0xfe, 0x50, 0xbe, 0xaf, 0x07, 0x97, 0xbe, 0x80, 0x26, 0x5d, 0x3d,
  0xb3, 0x5c, 0x00, 0xbd, 0x69, 0x03, 0x19, 0x3d, 0x19, 0xe2, 0xcb, 0xbd,
  0x8f, 0x3a, 0xe9, 0xbc, 0x03, 0xaf, 0xa3, 0x3e, 0x52, 0x56, 0x97, 0xbe,
  0x33, 0x85, 0x5f, 0x3e, 0x02, 0xb5, 0xd8, 0xbd, 0x24, 0xde, 0x42, 0x3e,
  0xc9, 0x69, 0xf9, 0x3d, 0x3b, 0xb0, 0xdd, 0x3d, 0x33, 0xf7, 0x6c, 0x3e,
  0xe5, 0x96, 0x41, 0x3e, 0x6e, 0xa0, 0x9a, 0xbd, 0xcc, 0xe3, 0x35, 0xbd,
  0x5f, 0x4e, 0x24, 0x3d, 0x79, 0xf3, 0x24, 0x3e, 0xc6, 0xcf, 0x89, 0x3e,
  0x5c, 0x58, 0x94, 0xbe, 0x34, 0x8e, 0xbf, 0xbb, 0x78, 0xda, 0x95, 0x3e,
  0xbe, 0x2f, 0x5a, 0xbc, 0x81, 0x9c, 0x98, 0xbe, 0x01, 0x85, 0xa1, 0x3e,
  0xef, 0x01, 0x74, 0xbe, 0x90, 0x1d, 0x9b, 0xbe, 0xb3, 0xc6, 0x64, 0xbc,
  0x44, 0x58, 0x1f, 0x3d, 0x81, 0x80, 0x75, 0xbe, 0x0f, 0xf7, 0xf4, 0x3d,
  0xb4, 0x18, 0x98, 0xbe, 0x2d, 0x8e, 0x7d, 0x3e, 0x2d, 0x92, 0x96, 0xbe,
  0x94, 0xc1, 0x96, 0x3e, 0xec, 0x3c, 0x87, 0xbe, 0xb0, 0x05, 0xa7, 0x3d,
  0x77, 0x47, 0xaf, 0xbc, 0x9b, 0x6a, 0x40, 0xbd, 0x64, 0x6e, 0xb3, 0xbd,
  0xaf, 0x4c, 0xba, 0x3b, 0x8d, 0xa6, 0xbf, 0x3d, 0x8f, 0x3d, 0x64, 0xbe,
  0x50, 0x2d, 0x8a, 0xbd, 0x9c, 0x80, 0x6b, 0xbe, 0x2e, 0xc7, 0x81, 0x3e,
  0x38, 0xa8, 0xdd, 0xbd, 0x07, 0x65, 0x63, 0xbe, 0x79, 0x45, 0x83, 0xbe,
  0xc5, 0x5d, 0x0d, 0x3e, 0xa6, 0x8d, 0x2d, 0xbd, 0xe4, 0x50, 0x88, 0xbe,
  0xa3, 0x63, 0x80, 0x3e, 0x9e, 0x8e, 0x51, 0xbe, 0x30, 0x07, 0x17, 0xbc,
  0x11, 0x7e, 0xa3, 0xbe, 0x7a, 0xa3, 0x6b, 0xbe, 0x48, 0x11, 0x7d, 0xbe,
  0xc0, 0x2b, 0x0e, 0x3e, 0x0e, 0x3b, 0xc0, 0x3d, 0x34, 0x93, 0x24, 0x3e,
  0x7c, 0xf2, 0x3e, 0xbd, 0xe0, 0x10, 0xeb, 0x3a, 0x9f, 0xc2, 0x01, 0xbd,
  0xc9, 0xa5, 0x53, 0xbd, 0x51, 0xad, 0x3d, 0xbe, 0x16, 0xb1, 0x90, 0x3e,
  0x6a, 0x0c, 0x3a, 0xbe, 0x75, 0xf2, 0x97, 0x3e, 0x1e, 0xa6, 0x8c, 0x3e,
  0x86, 0x53, 0x88, 0x3d, 0x97, 0x25, 0xb2, 0x3d, 0xb5, 0x31, 0x06, 0xbe,
  0xc4, 0x03, 0x8f, 0xbe, 0xd2, 0xb7, 0x33, 0x3e, 0xf1, 0xe2, 0xf5, 0xbd,
  0x72, 0x6f, 0x18, 0xbe, 0x42, 0xa6, 0x02, 0xbe, 0x91, 0xde, 0xaa, 0x3d,
  0x0b, 0xa3, 0xa1, 0xbd, 0x51, 0x7e, 0x61, 0x3e, 0xf8, 0x04, 0xde, 0xbd,
  0x04, 0x8b, 0x91, 0x3e, 0xd2, 0xc2, 0x18, 0xbe, 0xb7, 0xd4, 0x31, 0xbe,
  0x56, 0x0d, 0x49, 0xbe, 0x2e, 0xb7, 0xf9, 0xbc, 0x64, 0xd7, 0xbe, 0xbd,
  0x71, 0xde, 0x7c, 0x3e, 0x7a, 0x05, 0x8f, 0xbe, 0xd4, 0x86, 0x5f, 0xbe,
  0xf2, 0xcf, 0x6a, 0x3c, 0x10, 0xb7, 0x48, 0xbe, 0xd5, 0xde, 0x33, 0xbe,
  0xd6, 0xae, 0x9d, 0x3e, 0xda, 0x60, 0x3d, 0xbb, 0x87, 0xc7, 0x28, 0xbe,
  0x70, 0x1a, 0x3e, 0x3e, 0xc7, 0x98, 0xbf, 0x3c, 0xb9, 0x7f, 0xfb, 0xbd,
  0xb8, 0x85, 0x0a, 0xbe, 0xea, 0x2b, 0x82, 0xbc, 0x2e, 0x73, 0x33, 0x3d,
  0xde, 0xf7, 0x35, 0x3e, 0x5b, 0x6d, 0x9e, 0x3d, 0x0d, 0xac, 0xab, 0x3d,
  0xb1, 0x45, 0xe2, 0xbd, 0xd3, 0x59, 0x28, 0x3e, 0x8a, 0x86, 0x3e, 0xbe,
  0xe9, 0x40, 0xbe, 0xbd, 0x90, 0xa9, 0x54, 0x3c, 0xfa, 0xc4, 0xd9, 0xbb,
  0x0d, 0x75, 0xf2, 0x3d, 0xc9, 0x83, 0x13, 0x3e, 0x2e, 0xbc, 0xaa, 0xbe,
  0x8d, 0x13, 0x60, 0xbe, 0x32, 0xfb, 0xff, 0xff, 0x34, 0x00, 0x00, 0x00,
  0x06, 0x00, 0x00, 0x00, 0x08, 0x00, 0x00, 0x00, 0x34, 0x00, 0x00, 0x00,
  0x1e, 0x00, 0x00, 0x00, 0x73, 0x65, 0x71, 0x75, 0x65, 0x6e, 0x74, 0x69,
  0x61, 0x6c, 0x5f, 0x35, 0x32, 0x2f, 0x64, 0x65, 0x6e, 0x73, 0x65, 0x5f,
  0x32, 0x35, 0x30, 0x2f, 0x4d, 0x61, 0x74, 0x4d, 0x75, 0x6c, 0x00, 0x00,
  0x02, 0x00, 0x00, 0x00, 0x32, 0x00, 0x00, 0x00, 0x0a, 0x00, 0x00, 0x00,
  0x30, 0xfb, 0xff, 0xff, 0x0e, 0xfc, 0xff, 0xff, 0x04, 0x00, 0x00, 0x00,
  0x08, 0x02, 0x00, 0x00, 0x80, 0x90, 0x87, 0x3e, 0xde, 0xd2, 0xa2, 0xbd,
  0xa2, 0x51, 0x60, 0xbe, 0xc6, 0x54, 0xee, 0xbd, 0xc7, 0xbb, 0xf6, 0x3d,
  0xb4, 0x46, 0x43, 0x3e, 0x74, 0x9d, 0x54, 0x3d, 0xce, 0xba, 0xee, 0x3d,
  0x20, 0x40, 0x89, 0x3e, 0x20, 0x46, 0xe9, 0xbe, 0x74, 0x5f, 0x58, 0xbe,
  0xd3, 0x3c, 0xbb, 0x3e, 0xfa, 0xa1, 0xdb, 0xbe, 0x95, 0x55, 0xd6, 0xbe,
  0x8e, 0x5a, 0x20, 0xbe, 0xe4, 0x85, 0x01, 0x3e, 0x09, 0xf4, 0x34, 0x3e,
  0xbc, 0x64, 0xc4, 0xbe, 0x73, 0x70, 0xbf, 0xbe, 0x0b, 0xce, 0x96, 0x3d,
  0x3c, 0x43, 0xc9, 0xbd, 0xca, 0xe1, 0xc7, 0xbe, 0x29, 0xee, 0xbe, 0xbe,
  0x18, 0x8c, 0xfc, 0x3e, 0x77, 0xe0, 0x97, 0xbe, 0xd6, 0xef, 0x4b, 0xbd,
  0x05, 0x8a, 0x8a, 0xbe, 0xc2, 0x51, 0xda, 0x3e, 0x56, 0x8b, 0xc3, 0x3e,
  0x1a, 0x75, 0x11, 0x3e, 0xc9, 0x5b, 0x89, 0x3e, 0x1d, 0xd4, 0x80, 0xbe,
  0x90, 0x35, 0x84, 0x3e, 0x03, 0x2d, 0x78, 0xbe, 0xa4, 0x59, 0xac, 0x3e,
  0x77, 0x4f, 0x89, 0xbe, 0xf8, 0x8c, 0x9a, 0x3e, 0x2a, 0x69, 0x43, 0xbe,
  0x72, 0x10, 0x3f, 0xbd, 0x5c, 0x74, 0xe5, 0xbe, 0xc2, 0x45, 0x79, 0xbe,
  0xf5, 0xa1, 0x23, 0x3e, 0x2c, 0xa5, 0xac, 0x3e, 0xfb, 0x57, 0x2a, 0xbe,
  0xbc, 0xf5, 0xdd, 0x3e, 0xe0, 0x17, 0x3a, 0xbe, 0x90, 0xe2, 0x89, 0xbe,
  0xf1, 0x5c, 0x9b, 0xbd, 0xe0, 0x9c, 0x12, 0x3d, 0x24, 0x37, 0x8c, 0xbe,
  0x6e, 0x48, 0x9c, 0x3e, 0x3d, 0x8d, 0x6b, 0x3e, 0x0a, 0x7e, 0xb0, 0xbe,
  0x34, 0xb7, 0x25, 0xbe, 0x6c, 0x70, 0xec, 0x3e, 0x72, 0x50, 0xe1, 0xbe,
  0xd9, 0x3f, 0xe0, 0x3e, 0xc2, 0x52, 0xcf, 0xbe, 0x4a, 0x98, 0x3a, 0x3e,
  0xee, 0x0a, 0xd4, 0xbe, 0x77, 0x80, 0xd2, 0xbe, 0x49, 0x11, 0x4c, 0xbc,
  0x04, 0x5b, 0x58, 0xbe, 0x98, 0xd9, 0xfb, 0x3e, 0x2e, 0xed, 0x0e, 0xbe,
  0x59, 0x45, 0xd7, 0xbe, 0x55, 0x29, 0xe6, 0x3e, 0x43, 0x0b, 0x00, 0x3f,
  0x53, 0x1d, 0xc2, 0xbe, 0x1c, 0xe7, 0x36, 0x3e, 0xd8, 0xba, 0xc9, 0x3e,
  0xeb, 0x7f, 0x02, 0x3f, 0xf6, 0x0d, 0x90, 0x3e, 0xf7, 0xfe, 0xc3, 0x3d,
  0x41, 0x41, 0x03, 0xbd, 0x16, 0x3e, 0x18, 0x3d, 0x7a, 0xd0, 0xcb, 0x3e,
  0xb4, 0x96, 0x61, 0x3e, 0x39, 0xf4, 0x9b, 0xbe, 0x57, 0xc0, 0xcb, 0x3b,
  0x10, 0x41, 0xf9, 0xbd, 0x9c, 0xf8, 0xec, 0xbe, 0xb3, 0x46, 0x87, 0x3c,
  0x88, 0x55, 0x08, 0x3d, 0xa1, 0x6b, 0xc7, 0x3e, 0xcd, 0xcf, 0xa0, 0xbe,
  0xb4, 0x73, 0x94, 0x3e, 0x39, 0x74, 0xa1, 0x3e, 0xb9, 0xfe, 0xf5, 0xbe,
  0xe4, 0xe3, 0xe6, 0xbe, 0xfe, 0x8d, 0xc8, 0x3d, 0x52, 0xb8, 0xe5, 0x3e,
  0xcb, 0x65, 0xe7, 0xbe, 0xed, 0x75, 0xcf, 0xbe, 0x41, 0x96, 0xe9, 0xbe,
  0x70, 0x21, 0xd0, 0xbe, 0x73, 0x9c, 0xac, 0x3e, 0x0a, 0x30, 0xb6, 0xbd,
  0x79, 0x46, 0x92, 0x3e, 0xad, 0x62, 0x98, 0x3e, 0xd1, 0x0b, 0x5c, 0xbe,
  0x40, 0xa0, 0x84, 0x3c, 0xa6, 0x3d, 0x02, 0xbe, 0x3f, 0x68, 0x25, 0xbe,
  0x4e, 0xb9, 0xf7, 0x3e, 0xf7, 0xa5, 0x46, 0x3e, 0xc6, 0x8a, 0xaf, 0x3e,
  0x14, 0x6f, 0xa2, 0x3e, 0x85, 0x70, 0xbb, 0x3e, 0x94, 0x6d, 0x05, 0x3f,
  0x4e, 0x8d, 0xdb, 0x3d, 0x1b, 0xe0, 0xcd, 0x3e, 0xd3, 0xc7, 0xe1, 0xbe,
  0x70, 0x63, 0x4e, 0xbe, 0x09, 0xb0, 0x6a, 0x3e, 0x0e, 0x19, 0xa3, 0x3d,
  0x93, 0x9d, 0xeb, 0xbc, 0x45, 0x64, 0x77, 0xbe, 0x26, 0x79, 0x2c, 0xbe,
  0x00, 0x78, 0xdb, 0xbe, 0xa5, 0xde, 0x71, 0xbe, 0xcf, 0x2d, 0x7c, 0xbd,
  0xdf, 0x89, 0x50, 0xbe, 0x1b, 0x7e, 0xe5, 0x3e, 0x3c, 0x29, 0xaf, 0x3e,
  0x43, 0x59, 0x09, 0xbe, 0x6f, 0x34, 0xc0, 0x3e, 0xd7, 0x2d, 0xfd, 0xbe,
  0x18, 0x71, 0xcb, 0x3e, 0x78, 0x82, 0xe7, 0x3e, 0x8e, 0xfd, 0xff, 0xff,
  0x34, 0x00, 0x00, 0x00, 0x05, 0x00, 0x00, 0x00, 0x08, 0x00, 0x00, 0x00,
  0x34, 0x00, 0x00, 0x00, 0x1e, 0x00, 0x00, 0x00, 0x73, 0x65, 0x71, 0x75,
  0x65, 0x6e, 0x74, 0x69, 0x61, 0x6c, 0x5f, 0x35, 0x32, 0x2f, 0x64, 0x65,
  0x6e, 0x73, 0x65, 0x5f, 0x32, 0x34, 0x39, 0x2f, 0x4d, 0x61, 0x74, 0x4d,
  0x75, 0x6c, 0x00, 0x00, 0x02, 0x00, 0x00, 0x00, 0x0a, 0x00, 0x00, 0x00,
  0x0d, 0x00, 0x00, 0x00, 0x8c, 0xfd, 0xff, 0xff, 0x6a, 0xfe, 0xff, 0xff,
  0x04, 0x00, 0x00, 0x00, 0x0c, 0x00, 0x00, 0x00, 0x58, 0x6d, 0x8e, 0xbc,
  0xf1, 0xa1, 0x31, 0x3c, 0x97, 0xee, 0xbb, 0x3c, 0xee, 0xfd, 0xff, 0xff,
  0x44, 0x00, 0x00, 0x00, 0x04, 0x00, 0x00, 0x00, 0x08, 0x00, 0x00, 0x00,
  0x40, 0x00, 0x00, 0x00, 0x2e, 0x00, 0x00, 0x00, 0x73, 0x65, 0x71, 0x75,
  0x65, 0x6e, 0x74, 0x69, 0x61, 0x6c, 0x5f, 0x35, 0x32, 0x2f, 0x64, 0x65,
  0x6e, 0x73, 0x65, 0x5f, 0x32, 0x35, 0x31, 0x2f, 0x42, 0x69, 0x61, 0x73,
  0x41, 0x64, 0x64, 0x2f, 0x52, 0x65, 0x61, 0x64, 0x56, 0x61, 0x72, 0x69,
  0x61, 0x62, 0x6c, 0x65, 0x4f, 0x70, 0x00, 0x00, 0x01, 0x00, 0x00, 0x00,
  0x03, 0x00, 0x00, 0x00, 0xf8, 0xfd, 0xff, 0xff, 0xd6, 0xfe, 0xff, 0xff,
  0x04, 0x00, 0x00, 0x00, 0xc8, 0x00, 0x00, 0x00, 0x5d, 0xb3, 0xc4, 0x3c,
  0x58, 0x7d, 0xa1, 0x3c, 0x51, 0x24, 0x38, 0xbc, 0x99, 0x61, 0xa2, 0xbb,
  0x9e, 0x7f, 0xa5, 0xbc, 0xd2, 0x3c, 0x50, 0x3c, 0xe0, 0x7a, 0x9d, 0x3b,
  0x69, 0x54, 0x27, 0x3c, 0xd4, 0xd3, 0x04, 0xbc, 0x65, 0x02, 0xc1, 0xbc,
  0x71, 0xfd, 0xb5, 0xbc, 0xe6, 0x58, 0x5e, 0xbc, 0xc6, 0xd6, 0x08, 0x3b,
  0x9a, 0xcd, 0x8a, 0x3c, 0xb2, 0xfe, 0x81, 0xbc, 0xc5, 0x67, 0x97, 0x3c,
  0x05, 0x1c, 0x62, 0xbc, 0x82, 0x30, 0x95, 0x3c, 0x97, 0x83, 0xa4, 0xbc,
  0x98, 0x7c, 0x91, 0xbc, 0x37, 0xc8, 0xe3, 0xbb, 0xdc, 0x73, 0x72, 0x3c,
  0xcc, 0xd8, 0x93, 0xbc, 0xc9, 0x88, 0x8b, 0x3c, 0x7d, 0x8b, 0x8e, 0xbc,
  0xce, 0x6b, 0x78, 0x3c, 0x16, 0xde, 0xef, 0x3b, 0x89, 0xdd, 0x61, 0xbc,
  0x42, 0xaa, 0x66, 0x3c, 0x9e, 0x24, 0x10, 0xbc, 0x6c, 0xf9, 0x8d, 0x3a,
  0x68, 0x71, 0xb8, 0x3c, 0x35, 0x99, 0x69, 0xbc, 0xa4, 0x87, 0x7f, 0xbc,
  0x05, 0x0f, 0xa5, 0x3c, 0x53, 0xd9, 0xd9, 0x3c, 0x83, 0xa6, 0x58, 0x3c,
  0x3f, 0x1b, 0x93, 0xbc, 0xff, 0xe9, 0x5e, 0x3c, 0xe4, 0x1b, 0xa5, 0x3c,
  0x39, 0x03, 0x24, 0x3c, 0x35, 0xe4, 0x61, 0x3c, 0x20, 0xbf, 0x86, 0x3c,
  0x80, 0x9c, 0xc8, 0xbb, 0x27, 0x15, 0x51, 0x3c, 0x79, 0xa5, 0x58, 0x3c,
  0xad, 0xc6, 0x72, 0x3c, 0xfa, 0x23, 0xaf, 0x3c, 0x92, 0x69, 0x9b, 0x3c,
  0x58, 0x32, 0xa5, 0xbc, 0x16, 0xff, 0xff, 0xff, 0x44, 0x00, 0x00, 0x00,
  0x03, 0x00, 0x00, 0x00, 0x08, 0x00, 0x00, 0x00, 0x40, 0x00, 0x00, 0x00,
  0x2e, 0x00, 0x00, 0x00, 0x73, 0x65, 0x71, 0x75, 0x65, 0x6e, 0x74, 0x69,
  0x61, 0x6c, 0x5f, 0x35, 0x32, 0x2f, 0x64, 0x65, 0x6e, 0x73, 0x65, 0x5f,
  0x32, 0x35, 0x30, 0x2f, 0x42, 0x69, 0x61, 0x73, 0x41, 0x64, 0x64, 0x2f,
  0x52, 0x65, 0x61, 0x64, 0x56, 0x61, 0x72, 0x69, 0x61, 0x62, 0x6c, 0x65,
  0x4f, 0x70, 0x00, 0x00, 0x01, 0x00, 0x00, 0x00, 0x32, 0x00, 0x00, 0x00,
  0x70, 0xff, 0xff, 0xff, 0x00, 0x00, 0x06, 0x00, 0x08, 0x00, 0x04, 0x00,
  0x06, 0x00, 0x00, 0x00, 0x04, 0x00, 0x00, 0x00, 0x28, 0x00, 0x00, 0x00,
  0x2d, 0xc4, 0xe5, 0xb9, 0xe5, 0xfd, 0x84, 0xbb, 0x12, 0x15, 0x82, 0x3c,
  0x03, 0x03, 0x98, 0x3c, 0xf5, 0x02, 0xc1, 0xbb, 0x27, 0xff, 0x78, 0x3c,
  0xe5, 0x67, 0x8f, 0xbc, 0x2e, 0x53, 0xd2, 0x3c, 0x84, 0xc0, 0x70, 0x3c,
  0xa1, 0x30, 0xa7, 0xbc, 0xa6, 0xff, 0xff, 0xff, 0x44, 0x00, 0x00, 0x00,
  0x02, 0x00, 0x00, 0x00, 0x08, 0x00, 0x00, 0x00, 0x44, 0x00, 0x00, 0x00,
  0x2e, 0x00, 0x00, 0x00, 0x73, 0x65, 0x71, 0x75, 0x65, 0x6e, 0x74, 0x69,
  0x61, 0x6c, 0x5f, 0x35, 0x32, 0x2f, 0x64, 0x65, 0x6e, 0x73, 0x65, 0x5f,
  0x32, 0x34, 0x39, 0x2f, 0x42, 0x69, 0x61, 0x73, 0x41, 0x64, 0x64, 0x2f,
  0x52, 0x65, 0x61, 0x64, 0x56, 0x61, 0x72, 0x69, 0x61, 0x62, 0x6c, 0x65,
  0x4f, 0x70, 0x00, 0x00, 0x01, 0x00, 0x00, 0x00, 0x0a, 0x00, 0x00, 0x00,
  0x04, 0x00, 0x06, 0x00, 0x04, 0x00, 0x00, 0x00, 0x00, 0x00, 0x0e, 0x00,
  0x14, 0x00, 0x04, 0x00, 0x00, 0x00, 0x08, 0x00, 0x0c, 0x00, 0x10, 0x00,
  0x0e, 0x00, 0x00, 0x00, 0x24, 0x00, 0x00, 0x00, 0x01, 0x00, 0x00, 0x00,
  0x08, 0x00, 0x00, 0x00, 0x24, 0x00, 0x00, 0x00, 0x0f, 0x00, 0x00, 0x00,
  0x64, 0x65, 0x6e, 0x73, 0x65, 0x5f, 0x32, 0x34, 0x39, 0x5f, 0x69, 0x6e,
  0x70, 0x75, 0x74, 0x00, 0x02, 0x00, 0x00, 0x00, 0x01, 0x00, 0x00, 0x00,
  0x0d, 0x00, 0x00, 0x00, 0xfc, 0xff, 0xff, 0xff, 0x04, 0x00, 0x04, 0x00,
  0x04, 0x00, 0x00, 0x00
};
unsigned int g_model_len = 4900;
