unsigned char g_model[] = {
  0x1c, 0x00, 0x00, 0x00, 0x54, 0x46, 0x4c, 0x33, 0x00, 0x00, 0x12, 0x00,
  0x1c, 0x00, 0x04, 0x00, 0x08, 0x00, 0x0c, 0x00, 0x10, 0x00, 0x14, 0x00,
  0x00, 0x00, 0x18, 0x00, 0x12, 0x00, 0x00, 0x00, 0x03, 0x00, 0x00, 0x00,
  0xb4, 0x00, 0x00, 0x00, 0xa8, 0x00, 0x00, 0x00, 0x08, 0x01, 0x00, 0x00,
  0x08, 0x00, 0x00, 0x00, 0xb0, 0x00, 0x00, 0x00, 0x25, 0x00, 0x00, 0x00,
  0x50, 0x2b, 0x00, 0x00, 0x4c, 0x2b, 0x00, 0x00, 0x70, 0x2a, 0x00, 0x00,
  0xdc, 0x29, 0x00, 0x00, 0x50, 0x29, 0x00, 0x00, 0xc4, 0x28, 0x00, 0x00,
  0x38, 0x28, 0x00, 0x00, 0xac, 0x27, 0x00, 0x00, 0x20, 0x27, 0x00, 0x00,
  0x94, 0x26, 0x00, 0x00, 0x08, 0x26, 0x00, 0x00, 0x7c, 0x25, 0x00, 0x00,
  0xf0, 0x24, 0x00, 0x00, 0x98, 0x1a, 0x00, 0x00, 0xb0, 0x18, 0x00, 0x00,
  0xc8, 0x16, 0x00, 0x00, 0xe0, 0x14, 0x00, 0x00, 0xf8, 0x12, 0x00, 0x00,
  0x10, 0x11, 0x00, 0x00, 0x28, 0x0f, 0x00, 0x00, 0x40, 0x0d, 0x00, 0x00,
  0x58, 0x0b, 0x00, 0x00, 0x70, 0x09, 0x00, 0x00, 0x88, 0x07, 0x00, 0x00,
  0xf0, 0x2a, 0x00, 0x00, 0xec, 0x2a, 0x00, 0x00, 0xe8, 0x2a, 0x00, 0x00,
  0xe4, 0x2a, 0x00, 0x00, 0xe0, 0x2a, 0x00, 0x00, 0xdc, 0x2a, 0x00, 0x00,
  0xd8, 0x2a, 0x00, 0x00, 0xd4, 0x2a, 0x00, 0x00, 0xd0, 0x2a, 0x00, 0x00,
  0xcc, 0x2a, 0x00, 0x00, 0xc8, 0x2a, 0x00, 0x00, 0xc4, 0x2a, 0x00, 0x00,
  0x4c, 0x00, 0x00, 0x00, 0x01, 0x00, 0x00, 0x00, 0x84, 0x00, 0x00, 0x00,
  0x02, 0x00, 0x00, 0x00, 0xf0, 0x06, 0x00, 0x00, 0xb0, 0x01, 0x00, 0x00,
  0x01, 0x00, 0x00, 0x00, 0x0c, 0x00, 0x00, 0x00, 0x08, 0x00, 0x0c, 0x00,
  0x04, 0x00, 0x08, 0x00, 0x08, 0x00, 0x00, 0x00, 0x08, 0x00, 0x00, 0x00,
  0x24, 0x00, 0x00, 0x00, 0x13, 0x00, 0x00, 0x00, 0x6d, 0x69, 0x6e, 0x5f,
  0x72, 0x75, 0x6e, 0x74, 0x69, 0x6d, 0x65, 0x5f, 0x76, 0x65, 0x72, 0x73,
  0x69, 0x6f, 0x6e, 0x00, 0x6a, 0xd6, 0xff, 0xff, 0x04, 0x00, 0x00, 0x00,
  0x10, 0x00, 0x00, 0x00, 0x31, 0x2e, 0x35, 0x2e, 0x30, 0x00, 0x00, 0x00,
  0x00, 0x00, 0x00, 0x00, 0x00, 0x00, 0x00, 0x00, 0x0f, 0x00, 0x00, 0x00,
  0x4d, 0x4c, 0x49, 0x52, 0x20, 0x43, 0x6f, 0x6e, 0x76, 0x65, 0x72, 0x74,
  0x65, 0x64, 0x2e, 0x00, 0x00, 0x00, 0x0e, 0x00, 0x18, 0x00, 0x04, 0x00,
  0x08, 0x00, 0x0c, 0x00, 0x10, 0x00, 0x14, 0x00, 0x0e, 0x00, 0x00, 0x00,
  0x64, 0x00, 0x00, 0x00, 0x58, 0x00, 0x00, 0x00, 0x4c, 0x00, 0x00, 0x00,
  0x14, 0x00, 0x00, 0x00, 0x04, 0x00, 0x00, 0x00, 0x04, 0x00, 0x00, 0x00,
  0x6d, 0x61, 0x69, 0x6e, 0x00, 0x00, 0x00, 0x00, 0x0c, 0x00, 0x00, 0x00,
  0x10, 0x06, 0x00, 0x00, 0x84, 0x05, 0x00, 0x00, 0x08, 0x05, 0x00, 0x00,
  0x8c, 0x04, 0x00, 0x00, 0x10, 0x04, 0x00, 0x00, 0x94, 0x03, 0x00, 0x00,
  0x18, 0x03, 0x00, 0x00, 0x9c, 0x02, 0x00, 0x00, 0x20, 0x02, 0x00, 0x00,
  0xa4, 0x01, 0x00, 0x00, 0x28, 0x01, 0x00, 0x00, 0xb4, 0x00, 0x00, 0x00,
  0x01, 0x00, 0x00, 0x00, 0x22, 0x00, 0x00, 0x00, 0x01, 0x00, 0x00, 0x00,
  0x00, 0x00, 0x00, 0x00, 0x23, 0x00, 0x00, 0x00, 0x8c, 0x29, 0x00, 0x00,
  0x20, 0x29, 0x00, 0x00, 0x8c, 0x28, 0x00, 0x00, 0x00, 0x28, 0x00, 0x00,
  0x74, 0x27, 0x00, 0x00, 0xe8, 0x26, 0x00, 0x00, 0x5c, 0x26, 0x00, 0x00,
  0xd0, 0x25, 0x00, 0x00, 0x44, 0x25, 0x00, 0x00, 0xb8, 0x24, 0x00, 0x00,
  0x2c, 0x24, 0x00, 0x00, 0xa0, 0x23, 0x00, 0x00, 0x20, 0x23, 0x00, 0x00,
  0xc8, 0x18, 0x00, 0x00, 0xe0, 0x16, 0x00, 0x00, 0xf8, 0x14, 0x00, 0x00,
  0x10, 0x13, 0x00, 0x00, 0x28, 0x11, 0x00, 0x00, 0x40, 0x0f, 0x00, 0x00,
  0x58, 0x0d, 0x00, 0x00, 0x70, 0x0b, 0x00, 0x00, 0x88, 0x09, 0x00, 0x00,
  0xa0, 0x07, 0x00, 0x00, 0xb8, 0x05, 0x00, 0x00, 0x14, 0x05, 0x00, 0x00,
  0x98, 0x04, 0x00, 0x00, 0x1c, 0x04, 0x00, 0x00, 0xa0, 0x03, 0x00, 0x00,
  0x24, 0x03, 0x00, 0x00, 0xa8, 0x02, 0x00, 0x00, 0x2c, 0x02, 0x00, 0x00,
  0xb0, 0x01, 0x00, 0x00, 0x34, 0x01, 0x00, 0x00, 0xb8, 0x00, 0x00, 0x00,
  0x50, 0x00, 0x00, 0x00, 0x00, 0x00, 0x0e, 0x00, 0x18, 0x00, 0x08, 0x00,
  0x0c, 0x00, 0x10, 0x00, 0x07, 0x00, 0x14, 0x00, 0x0e, 0x00, 0x00, 0x00,
  0x00, 0x00, 0x00, 0x09, 0x01, 0x00, 0x00, 0x00, 0x1c, 0x00, 0x00, 0x00,
  0x10, 0x00, 0x00, 0x00, 0x04, 0x00, 0x00, 0x00, 0xca, 0xd7, 0xff, 0xff,
  0x00, 0x00, 0x80, 0x3f, 0x01, 0x00, 0x00, 0x00, 0x22, 0x00, 0x00, 0x00,
  0x01, 0x00, 0x00, 0x00, 0x21, 0x00, 0x00, 0x00, 0xce, 0xfa, 0xff, 0xff,
  0x00, 0x00, 0x00, 0x19, 0x01, 0x00, 0x00, 0x00, 0x5a, 0xd7, 0xff, 0xff,
  0x20, 0x00, 0x00, 0x00, 0x23, 0x00, 0x00, 0x00, 0x08, 0x00, 0x00, 0x00,
  0x20, 0x00, 0x00, 0x00, 0x08, 0x00, 0x00, 0x00, 0x49, 0x64, 0x65, 0x6e,
  0x74, 0x69, 0x74, 0x79, 0x00, 0x00, 0x00, 0x00, 0x02, 0x00, 0x00, 0x00,
  0x01, 0x00, 0x00, 0x00, 0x0a, 0x00, 0x00, 0x00, 0x44, 0xd7, 0xff, 0xff,
  0x4e, 0xfb, 0xff, 0xff, 0x00, 0x00, 0x00, 0x08, 0x18, 0x00, 0x00, 0x00,
  0x0c, 0x00, 0x00, 0x00, 0x04, 0x00, 0x00, 0x00, 0x5c, 0xd7, 0xff, 0xff,
  0x01, 0x00, 0x00, 0x00, 0x21, 0x00, 0x00, 0x00, 0x03, 0x00, 0x00, 0x00,
  0x20, 0x00, 0x00, 0x00, 0x16, 0x00, 0x00, 0x00, 0x0b, 0x00, 0x00, 0x00,
  0xbe, 0xd7, 0xff, 0xff, 0x34, 0x00, 0x00, 0x00, 0x22, 0x00, 0x00, 0x00,
  0x08, 0x00, 0x00, 0x00, 0x34, 0x00, 0x00, 0x00, 0x1f, 0x00, 0x00, 0x00,
  0x73, 0x65, 0x71, 0x75, 0x65, 0x6e, 0x74, 0x69, 0x61, 0x6c, 0x5f, 0x35,
  0x38, 0x2f, 0x64, 0x65, 0x6e, 0x73, 0x65, 0x5f, 0x33, 0x30, 0x31, 0x2f,
  0x42, 0x69, 0x61, 0x73, 0x41, 0x64, 0x64, 0x00, 0x02, 0x00, 0x00, 0x00,
  0x01, 0x00, 0x00, 0x00, 0x0a, 0x00, 0x00, 0x00, 0xbc, 0xd7, 0xff, 0xff,
  0xc6, 0xfb, 0xff, 0xff, 0x00, 0x00, 0x00, 0x08, 0x18, 0x00, 0x00, 0x00,
  0x0c, 0x00, 0x00, 0x00, 0x04, 0x00, 0x00, 0x00, 0xd4, 0xd7, 0xff, 0xff,
  0x01, 0x00, 0x00, 0x00, 0x20, 0x00, 0x00, 0x00, 0x03, 0x00, 0x00, 0x00,
  0x1f, 0x00, 0x00, 0x00, 0x15, 0x00, 0x00, 0x00, 0x0a, 0x00, 0x00, 0x00,
  0x36, 0xd8, 0xff, 0xff, 0x34, 0x00, 0x00, 0x00, 0x21, 0x00, 0x00, 0x00,
  0x08, 0x00, 0x00, 0x00, 0x34, 0x00, 0x00, 0x00, 0x1f, 0x00, 0x00, 0x00,
  0x73, 0x65, 0x71, 0x75, 0x65, 0x6e, 0x74, 0x69, 0x61, 0x6c, 0x5f, 0x35,
  0x38, 0x2f, 0x64, 0x65, 0x6e, 0x73, 0x65, 0x5f, 0x33, 0x30, 0x30, 0x2f,
  0x42, 0x69, 0x61, 0x73, 0x41, 0x64, 0x64, 0x00, 0x02, 0x00, 0x00, 0x00,
  0x01, 0x00, 0x00, 0x00, 0x0a, 0x00, 0x00, 0x00, 0x34, 0xd8, 0xff, 0xff,
  0x3e, 0xfc, 0xff, 0xff, 0x00, 0x00, 0x00, 0x08, 0x18, 0x00, 0x00, 0x00,
  0x0c, 0x00, 0x00, 0x00, 0x04, 0x00, 0x00, 0x00, 0x4c, 0xd8, 0xff, 0xff,
  0x01, 0x00, 0x00, 0x00, 0x1f, 0x00, 0x00, 0x00, 0x03, 0x00, 0x00, 0x00,
  0x1e, 0x00, 0x00, 0x00, 0x14, 0x00, 0x00, 0x00, 0x09, 0x00, 0x00, 0x00,
  0xae, 0xd8, 0xff, 0xff, 0x34, 0x00, 0x00, 0x00, 0x20, 0x00, 0x00, 0x00,
  0x08, 0x00, 0x00, 0x00, 0x34, 0x00, 0x00, 0x00, 0x1f, 0x00, 0x00, 0x00,
  0x73, 0x65, 0x71, 0x75, 0x65, 0x6e, 0x74, 0x69, 0x61, 0x6c, 0x5f, 0x35,
  0x38, 0x2f, 0x64, 0x65, 0x6e, 0x73, 0x65, 0x5f, 0x32, 0x39, 0x39, 0x2f,
  0x42, 0x69, 0x61, 0x73, 0x41, 0x64, 0x64, 0x00, 0x02, 0x00, 0x00, 0x00,
  0x01, 0x00, 0x00, 0x00, 0x0a, 0x00, 0x00, 0x00, 0xac, 0xd8, 0xff, 0xff,
  0xb6, 0xfc, 0xff, 0xff, 0x00, 0x00, 0x00, 0x08, 0x18, 0x00, 0x00, 0x00,
  0x0c, 0x00, 0x00, 0x00, 0x04, 0x00, 0x00, 0x00, 0xc4, 0xd8, 0xff, 0xff,
  0x01, 0x00, 0x00, 0x00, 0x1e, 0x00, 0x00, 0x00, 0x03, 0x00, 0x00, 0x00,
  0x1d, 0x00, 0x00, 0x00, 0x13, 0x00, 0x00, 0x00, 0x08, 0x00, 0x00, 0x00,
  0x26, 0xd9, 0xff, 0xff, 0x34, 0x00, 0x00, 0x00, 0x1f, 0x00, 0x00, 0x00,
  0x08, 0x00, 0x00, 0x00, 0x34, 0x00, 0x00, 0x00, 0x1f, 0x00, 0x00, 0x00,
  0x73, 0x65, 0x71, 0x75, 0x65, 0x6e, 0x74, 0x69, 0x61, 0x6c, 0x5f, 0x35,
  0x38, 0x2f, 0x64, 0x65, 0x6e, 0x73, 0x65, 0x5f, 0x32, 0x39, 0x38, 0x2f,
  0x42, 0x69, 0x61, 0x73, 0x41, 0x64, 0x64, 0x00, 0x02, 0x00, 0x00, 0x00,
  0x01, 0x00, 0x00, 0x00, 0x0a, 0x00, 0x00, 0x00, 0x24, 0xd9, 0xff, 0xff,
  0x2e, 0xfd, 0xff, 0xff, 0x00, 0x00, 0x00, 0x08, 0x18, 0x00, 0x00, 0x00,
  0x0c, 0x00, 0x00, 0x00, 0x04, 0x00, 0x00, 0x00, 0x3c, 0xd9, 0xff, 0xff,
  0x01, 0x00, 0x00, 0x00, 0x1d, 0x00, 0x00, 0x00, 0x03, 0x00, 0x00, 0x00,
  0x1c, 0x00, 0x00, 0x00, 0x12, 0x00, 0x00, 0x00, 0x07, 0x00, 0x00, 0x00,
  0x9e, 0xd9, 0xff, 0xff, 0x34, 0x00, 0x00, 0x00, 0x1e, 0x00, 0x00, 0x00,
  0x08, 0x00, 0x00, 0x00, 0x34, 0x00, 0x00, 0x00, 0x1f, 0x00, 0x00, 0x00,
  0x73, 0x65, 0x71, 0x75, 0x65, 0x6e, 0x74, 0x69, 0x61, 0x6c, 0x5f, 0x35,
  0x38, 0x2f, 0x64, 0x65, 0x6e, 0x73, 0x65, 0x5f, 0x32, 0x39, 0x37, 0x2f,
  0x42, 0x69, 0x61, 0x73, 0x41, 0x64, 0x64, 0x00, 0x02, 0x00, 0x00, 0x00,
  0x01, 0x00, 0x00, 0x00, 0x0a, 0x00, 0x00, 0x00, 0x9c, 0xd9, 0xff, 0xff,
  0xa6, 0xfd, 0xff, 0xff, 0x00, 0x00, 0x00, 0x08, 0x18, 0x00, 0x00, 0x00,
  0x0c, 0x00, 0x00, 0x00, 0x04, 0x00, 0x00, 0x00, 0xb4, 0xd9, 0xff, 0xff,
  0x01, 0x00, 0x00, 0x00, 0x1c, 0x00, 0x00, 0x00, 0x03, 0x00, 0x00, 0x00,
  0x1b, 0x00, 0x00, 0x00, 0x11, 0x00, 0x00, 0x00, 0x06, 0x00, 0x00, 0x00,
  0x16, 0xda, 0xff, 0xff, 0x34, 0x00, 0x00, 0x00, 0x1d, 0x00, 0x00, 0x00,
  0x08, 0x00, 0x00, 0x00, 0x34, 0x00, 0x00, 0x00, 0x1f, 0x00, 0x00, 0x00,
  0x73, 0x65, 0x71, 0x75, 0x65, 0x6e, 0x74, 0x69, 0x61, 0x6c, 0x5f, 0x35,
  0x38, 0x2f, 0x64, 0x65, 0x6e, 0x73, 0x65, 0x5f, 0x32, 0x39, 0x36, 0x2f,
  0x42, 0x69, 0x61, 0x73, 0x41, 0x64, 0x64, 0x00, 0x02, 0x00, 0x00, 0x00,
  0x01, 0x00, 0x00, 0x00, 0x0a, 0x00, 0x00, 0x00, 0x14, 0xda, 0xff, 0xff,
  0x1e, 0xfe, 0xff, 0xff, 0x00, 0x00, 0x00, 0x08, 0x18, 0x00, 0x00, 0x00,
  0x0c, 0x00, 0x00, 0x00, 0x04, 0x00, 0x00, 0x00, 0x2c, 0xda, 0xff, 0xff,
  0x01, 0x00, 0x00, 0x00, 0x1b, 0x00, 0x00, 0x00, 0x03, 0x00, 0x00, 0x00,
  0x1a, 0x00, 0x00, 0x00, 0x10, 0x00, 0x00, 0x00, 0x05, 0x00, 0x00, 0x00,
  0x8e, 0xda, 0xff, 0xff, 0x34, 0x00, 0x00, 0x00, 0x1c, 0x00, 0x00, 0x00,
  0x08, 0x00, 0x00, 0x00, 0x34, 0x00, 0x00, 0x00, 0x1f, 0x00, 0x00, 0x00,
  0x73, 0x65, 0x71, 0x75, 0x65, 0x6e, 0x74, 0x69, 0x61, 0x6c, 0x5f, 0x35,
  0x38, 0x2f, 0x64, 0x65, 0x6e, 0x73, 0x65, 0x5f, 0x32, 0x39, 0x35, 0x2f,
  0x42, 0x69, 0x61, 0x73, 0x41, 0x64, 0x64, 0x00, 0x02, 0x00, 0x00, 0x00,
  0x01, 0x00, 0x00, 0x00, 0x0a, 0x00, 0x00, 0x00, 0x8c, 0xda, 0xff, 0xff,
  0x96, 0xfe, 0xff, 0xff, 0x00, 0x00, 0x00, 0x08, 0x18, 0x00, 0x00, 0x00,
  0x0c, 0x00, 0x00, 0x00, 0x04, 0x00, 0x00, 0x00, 0xa4, 0xda, 0xff, 0xff,
  0x01, 0x00, 0x00, 0x00, 0x1a, 0x00, 0x00, 0x00, 0x03, 0x00, 0x00, 0x00,
  0x19, 0x00, 0x00, 0x00, 0x0f, 0x00, 0x00, 0x00, 0x04, 0x00, 0x00, 0x00,
  0x06, 0xdb, 0xff, 0xff, 0x34, 0x00, 0x00, 0x00, 0x1b, 0x00, 0x00, 0x00,
  0x08, 0x00, 0x00, 0x00, 0x34, 0x00, 0x00, 0x00, 0x1f, 0x00, 0x00, 0x00,
  0x73, 0x65, 0x71, 0x75, 0x65, 0x6e, 0x74, 0x69, 0x61, 0x6c, 0x5f, 0x35,
  0x38, 0x2f, 0x64, 0x65, 0x6e, 0x73, 0x65, 0x5f, 0x32, 0x39, 0x34, 0x2f,
  0x42, 0x69, 0x61, 0x73, 0x41, 0x64, 0x64, 0x00, 0x02, 0x00, 0x00, 0x00,
  0x01, 0x00, 0x00, 0x00, 0x0a, 0x00, 0x00, 0x00, 0x04, 0xdb, 0xff, 0xff,
  0x0e, 0xff, 0xff, 0xff, 0x00, 0x00, 0x00, 0x08, 0x18, 0x00, 0x00, 0x00,
  0x0c, 0x00, 0x00, 0x00, 0x04, 0x00, 0x00, 0x00, 0x1c, 0xdb, 0xff, 0xff,
  0x01, 0x00, 0x00, 0x00, 0x19, 0x00, 0x00, 0x00, 0x03, 0x00, 0x00, 0x00,
  0x18, 0x00, 0x00, 0x00, 0x0e, 0x00, 0x00, 0x00, 0x03, 0x00, 0x00, 0x00,
  0x7e, 0xdb, 0xff, 0xff, 0x34, 0x00, 0x00, 0x00, 0x1a, 0x00, 0x00, 0x00,
  0x08, 0x00, 0x00, 0x00, 0x34, 0x00, 0x00, 0x00, 0x1f, 0x00, 0x00, 0x00,
  0x73, 0x65, 0x71, 0x75, 0x65, 0x6e, 0x74, 0x69, 0x61, 0x6c, 0x5f, 0x35,
  0x38, 0x2f, 0x64, 0x65, 0x6e, 0x73, 0x65, 0x5f, 0x32, 0x39, 0x33, 0x2f,
  0x42, 0x69, 0x61, 0x73, 0x41, 0x64, 0x64, 0x00, 0x02, 0x00, 0x00, 0x00,
  0x01, 0x00, 0x00, 0x00, 0x0a, 0x00, 0x00, 0x00, 0x7c, 0xdb, 0xff, 0xff,
  0x86, 0xff, 0xff, 0xff, 0x00, 0x00, 0x00, 0x08, 0x18, 0x00, 0x00, 0x00,
  0x0c, 0x00, 0x00, 0x00, 0x04, 0x00, 0x00, 0x00, 0x94, 0xdb, 0xff, 0xff,
  0x01, 0x00, 0x00, 0x00, 0x18, 0x00, 0x00, 0x00, 0x03, 0x00, 0x00, 0x00,
  0x17, 0x00, 0x00, 0x00, 0x0d, 0x00, 0x00, 0x00, 0x02, 0x00, 0x00, 0x00,
  0xf6, 0xdb, 0xff, 0xff, 0x34, 0x00, 0x00, 0x00, 0x19, 0x00, 0x00, 0x00,
  0x08, 0x00, 0x00, 0x00, 0x34, 0x00, 0x00, 0x00, 0x1f, 0x00, 0x00, 0x00,
  0x73, 0x65, 0x71, 0x75, 0x65, 0x6e, 0x74, 0x69, 0x61, 0x6c, 0x5f, 0x35,
  0x38, 0x2f, 0x64, 0x65, 0x6e, 0x73, 0x65, 0x5f, 0x32, 0x39, 0x32, 0x2f,
  0x42, 0x69, 0x61, 0x73, 0x41, 0x64, 0x64, 0x00, 0x02, 0x00, 0x00, 0x00,
  0x01, 0x00, 0x00, 0x00, 0x0a, 0x00, 0x00, 0x00, 0x44, 0xdc, 0xff, 0xff,
  0x00, 0x00, 0x0e, 0x00, 0x14, 0x00, 0x00, 0x00, 0x08, 0x00, 0x0c, 0x00,
  0x07, 0x00, 0x10, 0x00, 0x0e, 0x00, 0x00, 0x00, 0x00, 0x00, 0x00, 0x08,
  0x18, 0x00, 0x00, 0x00, 0x0c, 0x00, 0x00, 0x00, 0x04, 0x00, 0x00, 0x00,
  0x1c, 0xdc, 0xff, 0xff, 0x01, 0x00, 0x00, 0x00, 0x17, 0x00, 0x00, 0x00,
  0x03, 0x00, 0x00, 0x00, 0x00, 0x00, 0x00, 0x00, 0x0c, 0x00, 0x00, 0x00,
  0x01, 0x00, 0x00, 0x00, 0x00, 0x00, 0x0a, 0x00, 0x0c, 0x00, 0x07, 0x00,
  0x00, 0x00, 0x08, 0x00, 0x0a, 0x00, 0x00, 0x00, 0x00, 0x00, 0x00, 0x09,
  0x01, 0x00, 0x00, 0x00, 0x96, 0xdc, 0xff, 0xff, 0x34, 0x00, 0x00, 0x00,
  0x18, 0x00, 0x00, 0x00, 0x08, 0x00, 0x00, 0x00, 0x34, 0x00, 0x00, 0x00,
  0x1f, 0x00, 0x00, 0x00, 0x73, 0x65, 0x71, 0x75, 0x65, 0x6e, 0x74, 0x69,
  0x61, 0x6c, 0x5f, 0x35, 0x38, 0x2f, 0x64, 0x65, 0x6e, 0x73, 0x65, 0x5f,
  0x32, 0x39, 0x31, 0x2f, 0x42, 0x69, 0x61, 0x73, 0x41, 0x64, 0x64, 0x00,
  0x02, 0x00, 0x00, 0x00, 0x01, 0x00, 0x00, 0x00, 0x0a, 0x00, 0x00, 0x00,
  0x94, 0xdc, 0xff, 0xff, 0x72, 0xdd, 0xff, 0xff, 0x04, 0x00, 0x00, 0x00,
  0x90, 0x01, 0x00, 0x00, 0x1f, 0xbd, 0x0b, 0xbf, 0xbf, 0x72, 0x11, 0x3f,
  0x16, 0x0e, 0x83, 0xbe, 0x36, 0xf1, 0x16, 0xbf, 0x0a, 0x9e, 0x6c, 0xbe,
  0x1d, 0xca, 0x83, 0x3c, 0x43, 0xce, 0x53, 0x3e, 0xa1, 0x05, 0x08, 0xbf,
  0x3b, 0x2c, 0x61, 0x3e, 0x7e, 0xb4, 0xdb, 0x3e, 0xa3, 0x80, 0x91, 0x3b,
  0x51, 0x49, 0x0f, 0xbe, 0xa7, 0x03, 0x32, 0x3e, 0x55, 0xb2, 0x53, 0xbe,
  0x73, 0xe3, 0xfb, 0x3e, 0x54, 0x74, 0x8c, 0xbe, 0x09, 0x95, 0x8c, 0x3e,
  0xba, 0xab, 0xdb, 0x3e, 0x8f, 0xfe, 0x60, 0x3e, 0x2b, 0xbf, 0x3e, 0x3e,
  0x1f, 0x0f, 0x54, 0xbe, 0x5c, 0x35, 0x74, 0xbe, 0x1e, 0xb1, 0xbb, 0x3e,
  0x7d, 0x48, 0x00, 0x3f, 0x19, 0x57, 0x81, 0x3e, 0x4d, 0x57, 0x09, 0x3f,
  0xad, 0x80, 0xce, 0xbe, 0x26, 0x34, 0xaf, 0x3e, 0x23, 0x69, 0xa7, 0xbe,
  0x1c, 0xd8, 0x04, 0xbf, 0xbb, 0x5b, 0x1a, 0x3e, 0xac, 0x29, 0x87, 0x3e,
  0x7b, 0x4f, 0x43, 0x3e, 0x10, 0x94, 0x4f, 0x3d, 0x9e, 0x3c, 0x99, 0x3d,
  0x91, 0xad, 0x19, 0x3f, 0x7b, 0x65, 0x66, 0x3e, 0xda, 0xb7, 0xe2, 0xbe,
  0x41, 0xb7, 0x26, 0x3d, 0xba, 0xb1, 0x32, 0xbe, 0x3a, 0xbf, 0x0a, 0xbe,
  0x1a, 0x2c, 0x4f, 0xbe, 0x65, 0x9d, 0xda, 0x3e, 0xd3, 0xb8, 0x52, 0xbe,
  0x3a, 0x0f, 0xa7, 0xbe, 0x2a, 0x39, 0x16, 0xba, 0xc1, 0x1a, 0x04, 0xbf,
  0x2d, 0x1a, 0x81, 0xbe, 0x33, 0x63, 0x5b, 0x3e, 0x3a, 0x77, 0xbf, 0x3e,
  0x7b, 0x89, 0x13, 0xbe, 0x97, 0x30, 0x47, 0x3e, 0x5a, 0xda, 0x09, 0x3d,
  0x39, 0x95, 0x9c, 0x3e, 0x7e, 0xb1, 0xa6, 0x3c, 0x14, 0xfa, 0xf9, 0xbe,
  0xac, 0xaa, 0x20, 0xbe, 0xee, 0xe6, 0x32, 0x3c, 0x0e, 0x10, 0xf1, 0x3d,
  0xb2, 0xca, 0x1a, 0x3e, 0xbe, 0xd6, 0xb2, 0x3e, 0x80, 0x3f, 0x90, 0x3e,
  0xf2, 0xa2, 0xa2, 0xbe, 0x4d, 0x92, 0x95, 0x3e, 0xdf, 0xb3, 0xaf, 0xbe,
  0x63, 0x1e, 0x04, 0x3e, 0x4d, 0x02, 0x04, 0x3f, 0x7b, 0xc4, 0x86, 0xbe,
  0xb7, 0x25, 0x1f, 0x3e, 0xb7, 0x75, 0x7a, 0x3d, 0xca, 0x22, 0x85, 0xbe,
  0xeb, 0xff, 0xbd, 0x3d, 0x81, 0x91, 0x85, 0x3e, 0x40, 0x2c, 0xba, 0x3b,
  0x6c, 0xd8, 0x05, 0xbf, 0x0f, 0xde, 0x01, 0xbf, 0x97, 0x24, 0x84, 0x3c,
  0x2a, 0x4c, 0x3d, 0xbe, 0xd9, 0xb4, 0x44, 0xbe, 0x0d, 0x59, 0xe9, 0x3e,
  0xe6, 0x40, 0x66, 0x3e, 0x3e, 0xcb, 0xc6, 0x3d, 0x71, 0x2f, 0xf5, 0xbd,
  0x8e, 0x3b, 0xef, 0x3d, 0x57, 0x10, 0xd4, 0x3e, 0x61, 0x2e, 0xd5, 0xbc,
  0x1c, 0x9f, 0x82, 0xbe, 0x25, 0x98, 0xf2, 0xbe, 0xf2, 0x47, 0x0a, 0xbf,
  0x84, 0xa3, 0x8e, 0xbe, 0x26, 0x46, 0x8d, 0x3e, 0x92, 0x23, 0x0e, 0xbf,
  0xf4, 0xc4, 0x6f, 0x3e, 0xe3, 0xf7, 0x8a, 0x3e, 0xc0, 0xae, 0x0d, 0xbf,
  0x3e, 0x77, 0xb9, 0xbc, 0xa1, 0x9c, 0x84, 0xbe, 0x6e, 0xda, 0x9c, 0xbe,
  0xd1, 0x33, 0x73, 0x3d, 0x3e, 0xa7, 0xa1, 0xbd, 0x7a, 0xde, 0xff, 0xff,
  0x34, 0x00, 0x00, 0x00, 0x17, 0x00, 0x00, 0x00, 0x08, 0x00, 0x00, 0x00,
  0x34, 0x00, 0x00, 0x00, 0x1e, 0x00, 0x00, 0x00, 0x73, 0x65, 0x71, 0x75,
  0x65, 0x6e, 0x74, 0x69, 0x61, 0x6c, 0x5f, 0x35, 0x38, 0x2f, 0x64, 0x65,
  0x6e, 0x73, 0x65, 0x5f, 0x33, 0x30, 0x31, 0x2f, 0x4d, 0x61, 0x74, 0x4d,
  0x75, 0x6c, 0x00, 0x00, 0x02, 0x00, 0x00, 0x00, 0x0a, 0x00, 0x00, 0x00,
  0x0a, 0x00, 0x00, 0x00, 0x78, 0xde, 0xff, 0xff, 0x56, 0xdf, 0xff, 0xff,
  0x04, 0x00, 0x00, 0x00, 0x90, 0x01, 0x00, 0x00, 0x46, 0x7c, 0xed, 0x3e,
  0xea, 0x3b, 0x77, 0x3e, 0x39, 0x34, 0x2d, 0x3d, 0xf5, 0xd6, 0xf5, 0x3e,
  0xcf, 0x20, 0x02, 0xbf, 0xea, 0xb9, 0x79, 0xbe, 0xe3, 0xb7, 0x98, 0x3d,
  0x37, 0x21, 0xb3, 0xbe, 0xdd, 0xbc, 0x65, 0xbe, 0x1e, 0xb9, 0x12, 0x3f,
  0xfb, 0xe6, 0x07, 0x3f, 0x0e, 0x68, 0x2d, 0xbe, 0xf8, 0xc2, 0x09, 0xbf,
  0x86, 0x13, 0xf2, 0xbe, 0x68, 0x17, 0x65, 0x3e, 0x95, 0x78, 0xdd, 0x3d,
  0xb2, 0xc4, 0x8b, 0xbe, 0x6c, 0x8b, 0x59, 0xbe, 0xfb, 0x22, 0x44, 0x3e,
  0xa4, 0xca, 0x8a, 0x3d, 0x0b, 0x8d, 0x5e, 0xbe, 0xab, 0xdb, 0xce, 0xbd,
  0x4b, 0x8f, 0x68, 0xbd, 0x9a, 0xeb, 0x3e, 0x3d, 0xf7, 0x70, 0xf5, 0x3e,
  0x97, 0x89, 0x9f, 0xbd, 0x6c, 0x98, 0xc6, 0xbe, 0xb8, 0xda, 0xaf, 0xbd,
  0xa4, 0x2d, 0xcc, 0x3b, 0x22, 0x2e, 0x1d, 0xbd, 0xd5, 0x24, 0xd3, 0x3e,
  0x62, 0x8a, 0xe7, 0x3e, 0xb6, 0x22, 0x81, 0xbe, 0x4c, 0x29, 0x92, 0xbe,
  0x91, 0x6a, 0xe8, 0xbe, 0x97, 0xde, 0xc0, 0x3e, 0xc8, 0x43, 0x05, 0xbe,
  0xd8, 0x98, 0xfb, 0x3e, 0x76, 0x40, 0xb9, 0x3e, 0x53, 0x45, 0x92, 0xbc,
  0x4f, 0xea, 0xe0, 0xbc, 0x12, 0x29, 0x60, 0x3e, 0xc7, 0xc3, 0xc2, 0xbe,
  0x7f, 0x35, 0x9f, 0x3e, 0xc0, 0xe9, 0x86, 0x3e, 0x40, 0xd6, 0xbb, 0xbe,
  0x83, 0xbc, 0x03, 0xbf, 0x35, 0x9f, 0x93, 0x3e, 0x9a, 0x7c, 0x99, 0xbe,
  0x2b, 0xb7, 0x9d, 0xbd, 0x01, 0x72, 0xb0, 0xbe, 0x2a, 0xe4, 0x08, 0xbf,
  0x68, 0xb3, 0xad, 0xbd, 0x1c, 0xdf, 0xa5, 0x3e, 0xd7, 0xb9, 0x0f, 0x3e,
  0xf7, 0x15, 0xb7, 0x3e, 0xf8, 0x9a, 0xed, 0xbe, 0x4a, 0xef, 0x9d, 0x3e,
  0x9b, 0x5e, 0x0b, 0xbf, 0x04, 0x9c, 0x00, 0xbf, 0x2d, 0x65, 0xee, 0x3e,
  0x7a, 0x78, 0x5c, 0x3e, 0x04, 0x3f, 0x12, 0x3d, 0x9e, 0x17, 0x0e, 0xbe,
  0xea, 0x78, 0x0c, 0xbe, 0xd5, 0xf6, 0xd9, 0x3e, 0xe8, 0x8f, 0xad, 0x3e,
  0x37, 0xf6, 0xc1, 0xbe, 0x6d, 0x9d, 0x02, 0xbf, 0x35, 0x2c, 0x0b, 0xbf,
  0x79, 0x99, 0x8e, 0x3e, 0xb9, 0x91, 0xc8, 0x3e, 0xeb, 0xf1, 0x11, 0x3e,
  0x58, 0x55, 0x13, 0xbe, 0x5e, 0xc4, 0xe8, 0xbd, 0x1c, 0x09, 0x83, 0x3b,
  0xf7, 0x1f, 0xd0, 0xbe, 0xf3, 0xb5, 0xb9, 0xbe, 0xd9, 0x7b, 0x99, 0x3e,
  0xf6, 0xc3, 0x02, 0x3e, 0x55, 0x6a, 0x9f, 0xbe, 0xd3, 0x5f, 0xbf, 0xbe,
  0x36, 0x76, 0xe3, 0xbe, 0x29, 0x79, 0x09, 0xbf, 0xd6, 0x56, 0x61, 0x3d,
  0x96, 0x6e, 0x1a, 0xbe, 0x2e, 0xa9, 0x0c, 0xbf, 0x9d, 0xa1, 0x00, 0xbd,
  0xaf, 0x94, 0x05, 0xbf, 0x53, 0x6f, 0xb2, 0xbe, 0x04, 0x35, 0x01, 0xbf,
  0x00, 0x54, 0x77, 0x3e, 0x60, 0xa5, 0xc0, 0xbe, 0x0f, 0x13, 0x1c, 0x3e,
  0x7b, 0x9d, 0x28, 0x3d, 0xf6, 0xc9, 0xbd, 0xbd, 0xbc, 0x84, 0xfe, 0xbe,
  0xcb, 0xee, 0x7a, 0x3d, 0xdd, 0x98, 0xc6, 0x3e, 0xdd, 0x2c, 0x8e, 0x3e,
  0x5e, 0xe0, 0xff, 0xff, 0x34, 0x00, 0x00, 0x00, 0x16, 0x00, 0x00, 0x00,
  0x08, 0x00, 0x00, 0x00, 0x34, 0x00, 0x00, 0x00, 0x1e, 0x00, 0x00, 0x00,
  0x73, 0x65, 0x71, 0x75, 0x65, 0x6e, 0x74, 0x69, 0x61, 0x6c, 0x5f, 0x35,
  0x38, 0x2f, 0x64, 0x65, 0x6e, 0x73, 0x65, 0x5f, 0x33, 0x30, 0x30, 0x2f,
  0x4d, 0x61, 0x74, 0x4d, 0x75, 0x6c, 0x00, 0x00, 0x02, 0x00, 0x00, 0x00,
  0x0a, 0x00, 0x00, 0x00, 0x0a, 0x00, 0x00, 0x00, 0x5c, 0xe0, 0xff, 0xff,
  0x3a, 0xe1, 0xff, 0xff, 0x04, 0x00, 0x00, 0x00, 0x90, 0x01, 0x00, 0x00,
  0xbb, 0x7e, 0x0b, 0x3c, 0xd9, 0x87, 0x0a, 0xbf, 0x1e, 0xcf, 0xff, 0xbc,
  0x72, 0x67, 0x90, 0x3e, 0x0f, 0x30, 0xfe, 0xbe, 0x20, 0x92, 0xca, 0x3e,
  0x39, 0x40, 0xd8, 0xbd, 0x37, 0x23, 0xd9, 0xbe, 0x04, 0x60, 0xaf, 0xbe,
  0x9d, 0x34, 0x46, 0x3e, 0xfc, 0x7f, 0x89, 0xbe, 0xe7, 0xd3, 0x08, 0xbf,
  0xb2, 0x81, 0x8d, 0x3d, 0xcd, 0xdd, 0x20, 0xbe, 0xa6, 0x78, 0x1a, 0xbf,
  0x1c, 0x48, 0xeb, 0xbe, 0xbd, 0x1c, 0x8b, 0xbe, 0x5b, 0x08, 0xb7, 0xbc,
  0xfd, 0xca, 0x9a, 0xbe, 0x9b, 0x95, 0xb7, 0xbc, 0x2b, 0x6f, 0x3c, 0xbe,
  0xf9, 0x18, 0x16, 0x3e, 0x0e, 0x21, 0x02, 0x3f, 0xf7, 0x32, 0xef, 0x3c,
  0x31, 0xb0, 0xd6, 0xbe, 0xe7, 0xea, 0x7a, 0xbe, 0xf9, 0x50, 0x20, 0x3e,
  0x1a, 0x12, 0xc2, 0xbe, 0x51, 0x4b, 0xe6, 0x3e, 0xfd, 0x23, 0xb3, 0x3b,
  0x9c, 0x72, 0x8e, 0x3e, 0x59, 0x8e, 0xf0, 0x3d, 0x54, 0x75, 0x12, 0xbe,
  0xd5, 0xfc, 0x0d, 0x3f, 0xe9, 0x10, 0xc5, 0xbd, 0xba, 0xbc, 0x05, 0xbc,
  0x50, 0x2f, 0x61, 0x3e, 0xc4, 0xee, 0xff, 0x3d, 0x9d, 0x90, 0xc3, 0x3e,
  0x00, 0x02, 0x0e, 0x3c, 0xff, 0x9f, 0xbb, 0xbe, 0x11, 0x36, 0xc9, 0x3e,
  0x31, 0xfc, 0x42, 0x3d, 0xeb, 0xcb, 0x49, 0x3e, 0x93, 0xc8, 0xcc, 0x3d,
  0x87, 0x03, 0x99, 0xbe, 0xe0, 0x02, 0x69, 0x3e, 0xdc, 0xfa, 0x14, 0x3f,
  0x6d, 0x93, 0x18, 0x3d, 0x88, 0x78, 0x08, 0xbf, 0x58, 0x75, 0x86, 0xbe,
  0x78, 0x42, 0xc6, 0xbe, 0x29, 0x5a, 0xaf, 0x3e, 0x00, 0xcb, 0xa5, 0xbe,
  0xb1, 0x95, 0x4d, 0xbd, 0xd6, 0x15, 0x77, 0xbe, 0x9b, 0x66, 0xd6, 0xbe,
  0xaf, 0x2a, 0xcb, 0x3d, 0x04, 0x93, 0xf4, 0xbe, 0x77, 0xc9, 0xde, 0xbe,
  0xc0, 0xd8, 0xf0, 0x3e, 0xed, 0xe2, 0x11, 0x3f, 0xbc, 0x7c, 0x45, 0x3e,
  0x3a, 0x27, 0x24, 0x3e, 0x10, 0x00, 0xae, 0x3d, 0x3c, 0x99, 0x62, 0xbe,
  0x69, 0x62, 0x84, 0xbe, 0xd8, 0x01, 0x99, 0xbe, 0xef, 0x75, 0x18, 0x3e,
  0xa3, 0x8f, 0xc7, 0xbe, 0xce, 0x57, 0xb5, 0x3d, 0x41, 0xa5, 0xa3, 0xbe,
  0x07, 0x1c, 0x74, 0x3e, 0xc7, 0x6a, 0xf4, 0x3c, 0x31, 0x2f, 0x01, 0x3f,
  0xbd, 0x55, 0x88, 0x3d, 0xe3, 0x4c, 0xae, 0xbe, 0xe6, 0x53, 0x97, 0x3b,
  0xa2, 0x74, 0xc8, 0xbd, 0xcc, 0x54, 0x59, 0xbe, 0x5a, 0x27, 0x02, 0x3f,
  0x59, 0x16, 0x70, 0xbd, 0xf7, 0x67, 0xbd, 0x3e, 0x1c, 0x89, 0x93, 0x3d,
  0xa2, 0xff, 0xf5, 0xbe, 0xa2, 0x22, 0xc1, 0x3e, 0x33, 0xbc, 0x17, 0x3e,
  0xf5, 0xf3, 0x9a, 0x3e, 0x3a, 0xc0, 0xdd, 0xbe, 0xde, 0xd1, 0x26, 0x3e,
  0xfe, 0xff, 0xf5, 0x3e, 0xff, 0x01, 0x8a, 0x3c, 0xff, 0x2d, 0x03, 0xbf,
  0x4a, 0x98, 0x09, 0xbf, 0x94, 0xec, 0xf9, 0x3d, 0x21, 0x6d, 0xbd, 0x3c,
  0x6b, 0x04, 0x54, 0xbe, 0x13, 0x26, 0x12, 0x3e, 0xcd, 0x01, 0x8d, 0x3e,
  0x0e, 0x80, 0xc6, 0xbc, 0x42, 0xe2, 0xff, 0xff, 0x34, 0x00, 0x00, 0x00,
  0x15, 0x00, 0x00, 0x00, 0x08, 0x00, 0x00, 0x00, 0x34, 0x00, 0x00, 0x00,
  0x1e, 0x00, 0x00, 0x00, 0x73, 0x65, 0x71, 0x75, 0x65, 0x6e, 0x74, 0x69,
  0x61, 0x6c, 0x5f, 0x35, 0x38, 0x2f, 0x64, 0x65, 0x6e, 0x73, 0x65, 0x5f,
  0x32, 0x39, 0x39, 0x2f, 0x4d, 0x61, 0x74, 0x4d, 0x75, 0x6c, 0x00, 0x00,
  0x02, 0x00, 0x00, 0x00, 0x0a, 0x00, 0x00, 0x00, 0x0a, 0x00, 0x00, 0x00,
  0x40, 0xe2, 0xff, 0xff, 0x1e, 0xe3, 0xff, 0xff, 0x04, 0x00, 0x00, 0x00,
  0x90, 0x01, 0x00, 0x00, 0xcd, 0x52, 0xd1, 0xbb, 0xf9, 0x47, 0x1d, 0x3e,
  0xa2, 0xc4, 0x76, 0x3e, 0x04, 0x80, 0x2c, 0xbe, 0x6c, 0xd8, 0xd1, 0x3e,
  0x4f, 0xd6, 0x39, 0xbe, 0xe2, 0xdc, 0x10, 0xbd, 0xc5, 0x6e, 0xfb, 0xbc,
  0x82, 0xc3, 0x9f, 0x3d, 0x24, 0xd2, 0xaf, 0xbe, 0x38, 0xed, 0xeb, 0xbd,
  0xc4, 0x3f, 0x11, 0xbe, 0x55, 0x3b, 0x60, 0xbe, 0xe3, 0xe5, 0x16, 0x3f,
  0xab, 0x3d, 0x9d, 0x3c, 0x5c, 0x6e, 0xf1, 0x3e, 0x06, 0xf2, 0xc3, 0x3e,
  0x92, 0x63, 0xa2, 0xbc, 0x9d, 0xda, 0xcd, 0xbe, 0xd4, 0x7b, 0x07, 0xbf,
  0x8c, 0xc7, 0xa4, 0x3d, 0x03, 0x6f, 0x93, 0x3e, 0xd0, 0x95, 0x35, 0x3e,
  0x05, 0xdc, 0x95, 0x3e, 0xb7, 0x6f, 0x9d, 0xbe, 0x7c, 0x8a, 0xa4, 0x3d,
  0x9e, 0xd8, 0xe2, 0xbe, 0xd1, 0xc6, 0xbe, 0x3c, 0x14, 0x29, 0x4a, 0xbe,
  0xa4, 0x7b, 0x46, 0xbe, 0xbf, 0xb4, 0x98, 0xbd, 0xb0, 0x9c, 0x82, 0xbe,
  0x2c, 0x19, 0xc7, 0xbd, 0x76, 0x11, 0x72, 0x3e, 0xda, 0x75, 0x50, 0xbe,
  0x06, 0x99, 0xa9, 0xbe, 0x11, 0xc3, 0x1d, 0xbe, 0x1b, 0xb5, 0xc8, 0xbd,
  0x62, 0xc2, 0x06, 0x3e, 0xc7, 0x2b, 0x0c, 0x3e, 0x22, 0x7e, 0x82, 0x3e,
  0x68, 0x66, 0x82, 0x3d, 0x20, 0x45, 0xa2, 0x3d, 0x93, 0xdf, 0x97, 0x3e,
  0x8c, 0xf6, 0x97, 0x3e, 0xa9, 0x40, 0xd6, 0xbc, 0xa7, 0x04, 0xa0, 0x3d,
  0xe2, 0x66, 0x43, 0x3e, 0xdc, 0xb6, 0x2e, 0x3e, 0x86, 0x16, 0x49, 0x3e,
  0x72, 0x8d, 0x87, 0xbd, 0x01, 0x94, 0x64, 0xbd, 0xb6, 0xa9, 0x44, 0xbd,
  0x4d, 0xba, 0xe8, 0x3e, 0xfc, 0xdc, 0xe4, 0x3a, 0xae, 0x12, 0x12, 0x3f,
  0x71, 0xac, 0x0f, 0xbd, 0x45, 0x1b, 0xd9, 0xbe, 0xdc, 0x72, 0xf8, 0xbe,
  0xae, 0x60, 0xa1, 0xbe, 0x19, 0xb9, 0xd0, 0x3d, 0x97, 0x6b, 0xaa, 0x3a,
  0x76, 0xbd, 0xd2, 0x3a, 0x69, 0xbb, 0x3e, 0x3e, 0x4c, 0x9a, 0xcd, 0x3e,
  0x8f, 0x3f, 0x75, 0xbe, 0x72, 0xa8, 0xb5, 0x3b, 0xd3, 0x78, 0x8d, 0xbe,
  0xdf, 0x22, 0xd2, 0x3d, 0xd0, 0x9e, 0xc0, 0x3e, 0xca, 0x7b, 0xd8, 0x3c,
  0xae, 0xf1, 0xb4, 0xbe, 0x74, 0xeb, 0xfe, 0xbe, 0xa0, 0x79, 0x95, 0xbe,
  0x61, 0xcf, 0x24, 0xbe, 0x75, 0xdd, 0x0e, 0xbf, 0x83, 0x8c, 0x52, 0x3e,
  0x64, 0xc7, 0xe9, 0x3e, 0x7c, 0x53, 0x93, 0xbe, 0xdd, 0x5b, 0xcd, 0xbe,
  0xbb, 0x94, 0xb8, 0x3e, 0x52, 0xe9, 0x9e, 0xbe, 0x03, 0xea, 0xae, 0x3e,
  0x12, 0xf6, 0x6f, 0x3e, 0x5f, 0x9a, 0x28, 0xbe, 0x6c, 0x0e, 0x99, 0xbe,
  0x68, 0xad, 0x8d, 0x3e, 0xfe, 0xc8, 0x38, 0xbe, 0xe6, 0x29, 0xa9, 0xbd,
  0x3b, 0x2b, 0x0e, 0xbf, 0x19, 0x1d, 0xc2, 0x3e, 0x14, 0x72, 0xed, 0x3e,
  0x63, 0xc4, 0x95, 0x3e, 0x7a, 0x41, 0xdf, 0x3e, 0x6e, 0xfc, 0x06, 0x3f,
  0x0f, 0xb9, 0xd6, 0xbe, 0x9a, 0x25, 0x9e, 0x3e, 0x85, 0xf3, 0x01, 0xbf,
  0xc8, 0x82, 0xae, 0x3e, 0x27, 0x44, 0xcf, 0xbe, 0x26, 0xe4, 0xff, 0xff,
  0x34, 0x00, 0x00, 0x00, 0x14, 0x00, 0x00, 0x00, 0x08, 0x00, 0x00, 0x00,
  0x34, 0x00, 0x00, 0x00, 0x1e, 0x00, 0x00, 0x00, 0x73, 0x65, 0x71, 0x75,
  0x65, 0x6e, 0x74, 0x69, 0x61, 0x6c, 0x5f, 0x35, 0x38, 0x2f, 0x64, 0x65,
  0x6e, 0x73, 0x65, 0x5f, 0x32, 0x39, 0x38, 0x2f, 0x4d, 0x61, 0x74, 0x4d,
  0x75, 0x6c, 0x00, 0x00, 0x02, 0x00, 0x00, 0x00, 0x0a, 0x00, 0x00, 0x00,
  0x0a, 0x00, 0x00, 0x00, 0x24, 0xe4, 0xff, 0xff, 0x02, 0xe5, 0xff, 0xff,
  0x04, 0x00, 0x00, 0x00, 0x90, 0x01, 0x00, 0x00, 0xab, 0x6c, 0xe4, 0xbe,
  0xeb, 0xa2, 0xf5, 0xbe, 0x30, 0xc4, 0xba, 0x3e, 0x39, 0xf5, 0x74, 0x3e,
  0x4d, 0xf4, 0xaf, 0x3e, 0x7c, 0x03, 0x4e, 0xbd, 0x14, 0x47, 0x00, 0xbe,
  0xe8, 0x76, 0xf4, 0x3c, 0x94, 0x3a, 0xa4, 0xbe, 0xbf, 0x7e, 0x88, 0xbd,
  0x70, 0x3d, 0x06, 0x3f, 0x98, 0xb8, 0xaa, 0xbe, 0x69, 0xee, 0xa8, 0x3e,
  0x60, 0xc0, 0xa9, 0xbe, 0xa5, 0x38, 0x9a, 0x3e, 0xc7, 0x53, 0xc3, 0xbe,
  0x2e, 0x04, 0xb9, 0xbe, 0x7e, 0xd3, 0xe2, 0x3e, 0x2b, 0x0a, 0x98, 0xbd,
  0x46, 0xe6, 0xf9, 0x3e, 0x8e, 0x36, 0xbb, 0xbe, 0xba, 0x51, 0xb8, 0xbe,
  0x94, 0x60, 0x86, 0xbd, 0x03, 0x5a, 0x03, 0x3e, 0xdd, 0xda, 0x06, 0x3f,
  0xd8, 0xd1, 0xf2, 0x3e, 0x00, 0x52, 0xbb, 0x3e, 0x61, 0xea, 0x09, 0x3f,
  0x94, 0x03, 0x54, 0xbe, 0x1f, 0xb5, 0xfe, 0xbe, 0x30, 0x44, 0xff, 0x3d,
  0xee, 0x92, 0xde, 0xbd, 0x7e, 0x4f, 0xac, 0x3e, 0x0e, 0x66, 0xab, 0x3e,
  0xc3, 0xff, 0xc9, 0xbd, 0xc0, 0xdd, 0xed, 0x3e, 0x91, 0x71, 0x21, 0x3e,
  0x59, 0xd6, 0xfd, 0xbe, 0x16, 0x10, 0xc0, 0x3e, 0x9f, 0x0f, 0xcd, 0x3e,
  0x9e, 0x0a, 0xf4, 0xbc, 0xd4, 0x0d, 0x5b, 0xbe, 0x3d, 0xe6, 0x2e, 0xbe,
  0xf2, 0xfc, 0xc2, 0x3e, 0xd3, 0x74, 0x36, 0x3e, 0x26, 0x5a, 0xcd, 0xbe,
  0x19, 0xba, 0xb3, 0xbd, 0x6e, 0x5d, 0xd8, 0x3c, 0xf8, 0x01, 0x8a, 0xbe,
  0x3d, 0x48, 0xf0, 0xbe, 0x58, 0x37, 0x66, 0xbd, 0x75, 0x45, 0x2f, 0xbe,
  0x2e, 0x19, 0x94, 0xbe, 0x92, 0x80, 0xf8, 0x3d, 0x58, 0x8d, 0x7f, 0x3e,
  0x8e, 0xe2, 0xe4, 0xbe, 0xbe, 0x6a, 0x97, 0xbe, 0xbd, 0x39, 0x8a, 0x3e,
  0x12, 0x94, 0xf4, 0x3e, 0xb7, 0x44, 0x72, 0x3d, 0x5c, 0xe6, 0x0f, 0xbd,
  0x35, 0x7f, 0x6d, 0xbe, 0x31, 0x7e, 0x02, 0x3e, 0xbe, 0x9f, 0x93, 0x3e,
  0xa9, 0xa3, 0x96, 0x3b, 0xed, 0xaf, 0x08, 0xbf, 0x45, 0xca, 0xc7, 0xbe,
  0x0d, 0x70, 0xef, 0x3e, 0xe4, 0x2a, 0x33, 0x3e, 0xb8, 0xa1, 0x84, 0xbe,
  0x9c, 0xef, 0xdc, 0xbe, 0x10, 0xd7, 0xa6, 0x3e, 0x22, 0xa1, 0xcd, 0xbe,
  0x72, 0xea, 0x82, 0xbe, 0xff, 0xdd, 0x4a, 0xbe, 0xc0, 0x78, 0x67, 0xbe,
  0x03, 0x47, 0xea, 0x3d, 0x11, 0xed, 0xb5, 0x3e, 0x34, 0x60, 0x05, 0x3f,
  0x99, 0xae, 0x3f, 0xbb, 0xb8, 0xec, 0x53, 0xbe, 0xd4, 0xdf, 0xf6, 0xbe,
  0x87, 0x31, 0xec, 0xbe, 0xfb, 0x70, 0xc6, 0xbe, 0x7e, 0x03, 0xca, 0xbe,
  0x1f, 0x14, 0xfe, 0x3e, 0x18, 0xf5, 0xc9, 0x3e, 0x7f, 0x91, 0xfb, 0x3d,
  0x1a, 0x42, 0x00, 0x3f, 0xe9, 0x83, 0xd8, 0xbe, 0x63, 0x05, 0x5a, 0xbd,
  0x6c, 0xb1, 0xc4, 0xbd, 0x08, 0x87, 0x9a, 0x3e, 0x18, 0xff, 0x83, 0xbd,
  0xc1, 0xcb, 0xd7, 0xbe, 0x42, 0x1f, 0xb0, 0xbd, 0x23, 0x24, 0x8c, 0x3e,
  0xc8, 0x32, 0xdf, 0x3e, 0x25, 0x3b, 0xcc, 0x3e, 0x9e, 0x8a, 0x01, 0xbf,
  0x0a, 0xe6, 0xff, 0xff, 0x34, 0x00, 0x00, 0x00, 0x13, 0x00, 0x00, 0x00,
  0x08, 0x00, 0x00, 0x00, 0x34, 0x00, 0x00, 0x00, 0x1e, 0x00, 0x00, 0x00,
  0x73, 0x65, 0x71, 0x75, 0x65, 0x6e, 0x74, 0x69, 0x61, 0x6c, 0x5f, 0x35,
  0x38, 0x2f, 0x64, 0x65, 0x6e, 0x73, 0x65, 0x5f, 0x32, 0x39, 0x37, 0x2f,
  0x4d, 0x61, 0x74, 0x4d, 0x75, 0x6c, 0x00, 0x00, 0x02, 0x00, 0x00, 0x00,
  0x0a, 0x00, 0x00, 0x00, 0x0a, 0x00, 0x00, 0x00, 0x08, 0xe6, 0xff, 0xff,
  0xe6, 0xe6, 0xff, 0xff, 0x04, 0x00, 0x00, 0x00, 0x90, 0x01, 0x00, 0x00,
  0xd5, 0x1a, 0xd6, 0x3e, 0x1b, 0x3f, 0x8d, 0x3e, 0x22, 0x43, 0xb9, 0xbd,
  0xc7, 0xa2, 0xf7, 0xbe, 0x9e, 0x32, 0x91, 0x3e, 0x22, 0x4a, 0x52, 0x3e,
  0xee, 0x46, 0xae, 0x3d, 0x55, 0x60, 0xcc, 0xbe, 0xdb, 0x7f, 0x50, 0x3e,
  0xbd, 0x0b, 0x4e, 0x3d, 0x1a, 0x63, 0x75, 0x3e, 0x2a, 0x95, 0x1d, 0xbe,
  0x9d, 0x27, 0xc0, 0xbe, 0xe4, 0x70, 0x16, 0xbe, 0x1b, 0x90, 0x8e, 0xbe,
  0x57, 0x87, 0x00, 0xbf, 0x81, 0x77, 0x14, 0x3d, 0x5a, 0x61, 0xe5, 0x3d,
  0x1a, 0xd8, 0x8b, 0xbe, 0xb9, 0x9d, 0xe2, 0xbe, 0x3a, 0x0a, 0xbc, 0x3d,
  0xe6, 0xd5, 0xee, 0xbe, 0x2b, 0xb0, 0xce, 0x3e, 0x15, 0x32, 0x0a, 0x3f,
  0x2b, 0xb1, 0x2f, 0xbd, 0x13, 0x66, 0x6b, 0x3e, 0x00, 0x4b, 0xba, 0x3e,
  0xdb, 0xc7, 0x58, 0x3e, 0x9b, 0xcf, 0x6a, 0x3e, 0xca, 0x6c, 0xb1, 0xbe,
  0xa1, 0x10, 0x02, 0x3f, 0xa5, 0xd4, 0x9d, 0x3c, 0x10, 0x79, 0x73, 0xbe,
  0xfd, 0xed, 0x20, 0x3e, 0x5b, 0xc8, 0x3b, 0x3e, 0xc3, 0x72, 0x83, 0xbe,
  0xfa, 0x53, 0xcf, 0x3e, 0x77, 0xca, 0x16, 0x3e, 0x9a, 0x25, 0x9d, 0x3e,
  0x0c, 0xe3, 0x9b, 0xbc, 0xf0, 0x28, 0xd1, 0x3e, 0x7d, 0x51, 0x63, 0xbe,
  0xce, 0xfb, 0x88, 0xbe, 0xc0, 0x96, 0x19, 0xbd, 0xc1, 0xcf, 0xd3, 0xbe,
  0xf3, 0x71, 0x46, 0xbd, 0xc6, 0x82, 0x74, 0x3d, 0x3a, 0x5b, 0xd9, 0x3e,
  0x22, 0x55, 0xd4, 0xbd, 0x62, 0xc2, 0x8d, 0xbe, 0x81, 0x2c, 0x01, 0xbf,
  0x3c, 0xe5, 0xca, 0x3e, 0xc2, 0xa3, 0xfc, 0x3d, 0xd2, 0xda, 0x73, 0x3e,
  0x2c, 0xc5, 0xb6, 0xbe, 0xb0, 0x2a, 0x25, 0xbe, 0x1d, 0x92, 0xe5, 0x3e,
  0xdc, 0x6f, 0xe0, 0x3e, 0xf9, 0x46, 0xfc, 0x3e, 0x90, 0x5a, 0xc6, 0x3e,
  0x12, 0xcf, 0xb5, 0xbe, 0x0e, 0xaf, 0x6c, 0xbc, 0x6f, 0x8a, 0x7c, 0x3e,
  0xbf, 0xdf, 0xb6, 0x3e, 0x8a, 0xa6, 0x8d, 0x3e, 0xe1, 0x93, 0xf9, 0x3e,
  0x04, 0x5e, 0xc1, 0xbb, 0xc4, 0x9f, 0xa6, 0xbd, 0x5f, 0xf0, 0xdb, 0x3e,
  0x77, 0x91, 0xcc, 0x3e, 0x77, 0x6b, 0x03, 0x3f, 0xd5, 0x08, 0x0e, 0x3d,
  0x16, 0xb8, 0x1b, 0x3e, 0xce, 0xd1, 0xbd, 0x3c, 0x62, 0x70, 0x10, 0x3d,
  0xdd, 0xb9, 0xa5, 0xbe, 0x31, 0x66, 0x99, 0xbe, 0x10, 0x06, 0xfa, 0xbe,
  0xb2, 0xab, 0x96, 0xbd, 0x2a, 0xc4, 0xac, 0xbd, 0x82, 0x60, 0x01, 0x3f,
  0x34, 0xa4, 0x9e, 0x3e, 0x6a, 0x5d, 0x07, 0xbf, 0x45, 0xed, 0xe5, 0xbe,
  0xce, 0x28, 0x19, 0x3f, 0xa9, 0x8e, 0x5e, 0x3b, 0x70, 0x1c, 0xf5, 0xbe,
  0xd4, 0x0e, 0x23, 0xbd, 0x4d, 0x04, 0x8c, 0x3d, 0xf5, 0x23, 0xaf, 0xbe,
  0xc1, 0x6c, 0x1f, 0x3d, 0xea, 0x07, 0x93, 0x3e, 0xac, 0xdf, 0xbb, 0xbe,
  0x65, 0xff, 0xb3, 0xbe, 0x63, 0xc9, 0x04, 0x3f, 0x70, 0x35, 0xd5, 0x3e,
  0x6a, 0x8b, 0xb8, 0x3e, 0x8e, 0xe7, 0x48, 0xbd, 0x9b, 0x21, 0xbe, 0xbc,
  0xb5, 0x78, 0xbf, 0x3e, 0xee, 0xe7, 0xff, 0xff, 0x34, 0x00, 0x00, 0x00,
  0x12, 0x00, 0x00, 0x00, 0x08, 0x00, 0x00, 0x00, 0x34, 0x00, 0x00, 0x00,
  0x1e, 0x00, 0x00, 0x00, 0x73, 0x65, 0x71, 0x75, 0x65, 0x6e, 0x74, 0x69,
  0x61, 0x6c, 0x5f, 0x35, 0x38, 0x2f, 0x64, 0x65, 0x6e, 0x73, 0x65, 0x5f,
  0x32, 0x39, 0x36, 0x2f, 0x4d, 0x61, 0x74, 0x4d, 0x75, 0x6c, 0x00, 0x00,
  0x02, 0x00, 0x00, 0x00, 0x0a, 0x00, 0x00, 0x00, 0x0a, 0x00, 0x00, 0x00,
  0xec, 0xe7, 0xff, 0xff, 0xca, 0xe8, 0xff, 0xff, 0x04, 0x00, 0x00, 0x00,
  0x90, 0x01, 0x00, 0x00, 0x4f, 0x9c, 0xb8, 0x3e, 0xa4, 0x0c, 0x6a, 0x3e,
  0x3c, 0xc9, 0x0f, 0x3d, 0xf5, 0xa5, 0x01, 0x3f, 0x76, 0xce, 0xfc, 0xbe,
  0x0b, 0x44, 0xdb, 0xbe, 0x28, 0x28, 0xa1, 0x3d, 0xa2, 0x52, 0x91, 0x3e,
  0x45, 0xf8, 0xe3, 0xbe, 0x86, 0x54, 0x0e, 0xbf, 0x30, 0x2b, 0x6e, 0x3e,
  0x30, 0x16, 0x8b, 0x3e, 0x9d, 0xa8, 0x8f, 0xbd, 0xeb, 0x4f, 0xe6, 0xbe,
  0xfa, 0x5c, 0x3d, 0xbe, 0xee, 0x88, 0x20, 0x3e, 0x7f, 0x5d, 0xf8, 0xbe,
  0x0d, 0x69, 0x97, 0x3e, 0xad, 0x32, 0x86, 0x3e, 0xcc, 0xdb, 0xd6, 0x3e,
  0x6a, 0xc2, 0x83, 0x3e, 0xaa, 0x1b, 0xa9, 0x3d, 0x2e, 0x58, 0xc0, 0x3e,
  0xf4, 0x19, 0x31, 0xbe, 0x98, 0x0d, 0xa4, 0xbe, 0x89, 0xb0, 0x02, 0xbf,
  0xaf, 0xb0, 0x3a, 0x3e, 0x61, 0xf0, 0xae, 0x3e, 0x90, 0xd7, 0x07, 0xbf,
  0x42, 0xc8, 0x86, 0xbe, 0xa9, 0x38, 0x41, 0x3e, 0xf0, 0xe5, 0x03, 0xbe,
  0xb6, 0xbb, 0x7a, 0xbe, 0x38, 0xb4, 0x9a, 0xbe, 0x5a, 0x7c, 0xd7, 0x3e,
  0x9f, 0xc8, 0xb8, 0x3e, 0xac, 0x0c, 0x34, 0x3e, 0xa9, 0x6a, 0x46, 0x3e,
  0x38, 0xa2, 0x96, 0xbd, 0xc6, 0xe4, 0x37, 0xbe, 0x19, 0xa5, 0xe3, 0x3e,
  0x40, 0x20, 0xb3, 0x3e, 0xc3, 0xc8, 0xf1, 0x3e, 0x92, 0x4d, 0xc4, 0xbe,
  0xcd, 0x14, 0xad, 0xbe, 0x17, 0x93, 0x12, 0x3f, 0x21, 0xff, 0xe2, 0xbe,
  0x37, 0x3b, 0xa9, 0xbe, 0xef, 0xc4, 0xee, 0xbe, 0xb2, 0x5c, 0x96, 0xbd,
  0x91, 0x5c, 0xc5, 0x3d, 0xff, 0x49, 0x02, 0x3f, 0xcf, 0x59, 0x8f, 0xbd,
  0xaa, 0x8c, 0x4a, 0x3e, 0xd1, 0xb2, 0x60, 0x3e, 0xf0, 0xa4, 0x83, 0x3c,
  0x05, 0xef, 0x27, 0xbe, 0xcb, 0xf7, 0xa5, 0xbe, 0x03, 0x76, 0xa5, 0xba,
  0xe9, 0xf2, 0xd8, 0xbd, 0x76, 0x19, 0xa7, 0x3e, 0x1e, 0x02, 0x3d, 0xbe,
  0x77, 0x7a, 0xac, 0x3e, 0x33, 0x1b, 0x02, 0x3f, 0xa9, 0xda, 0x6a, 0xbe,
  0xc3, 0x22, 0x06, 0xbf, 0x66, 0x4c, 0xad, 0x3e, 0xde, 0x73, 0xa7, 0xbe,
  0xa2, 0x37, 0x15, 0x3e, 0x09, 0x7c, 0x09, 0x3f, 0xd6, 0x89, 0xb2, 0x3d,
  0x06, 0x51, 0x75, 0x3e, 0xfa, 0x8e, 0x88, 0xbe, 0xfd, 0xf3, 0xb0, 0xbe,
  0x91, 0x88, 0xd2, 0xbe, 0xca, 0x2a, 0x0c, 0x3f, 0x15, 0x7c, 0x91, 0xbe,
  0x43, 0x68, 0xe1, 0xbd, 0x90, 0x21, 0x4e, 0xbc, 0x72, 0x87, 0xe5, 0xbe,
  0x61, 0xa3, 0x70, 0x3e, 0xf2, 0x36, 0xcb, 0xbe, 0x61, 0x41, 0x66, 0x3e,
  0x2c, 0x3a, 0xf2, 0x3e, 0x69, 0xa1, 0x1a, 0x3d, 0x6a, 0x3a, 0x06, 0x3f,
  0xf0, 0xa3, 0xc4, 0x3b, 0x9a, 0x5c, 0x84, 0xbe, 0x0b, 0x1e, 0xd8, 0x3d,
  0x96, 0xa4, 0x08, 0xbf, 0x45, 0x93, 0x99, 0xbe, 0xb8, 0x5c, 0xff, 0x3e,
  0xc4, 0x36, 0x1c, 0x3e, 0x31, 0xcc, 0xfb, 0x3e, 0xf0, 0x96, 0x2a, 0x3e,
  0x0e, 0x20, 0x65, 0xbd, 0x22, 0x57, 0xb5, 0x3d, 0xaf, 0x8b, 0xb4, 0x3b,
  0x27, 0x2a, 0x81, 0x3e, 0xb5, 0x57, 0x42, 0x3e, 0xd2, 0xe9, 0xff, 0xff,
  0x34, 0x00, 0x00, 0x00, 0x11, 0x00, 0x00, 0x00, 0x08, 0x00, 0x00, 0x00,
  0x34, 0x00, 0x00, 0x00, 0x1e, 0x00, 0x00, 0x00, 0x73, 0x65, 0x71, 0x75,
  0x65, 0x6e, 0x74, 0x69, 0x61, 0x6c, 0x5f, 0x35, 0x38, 0x2f, 0x64, 0x65,
  0x6e, 0x73, 0x65, 0x5f, 0x32, 0x39, 0x35, 0x2f, 0x4d, 0x61, 0x74, 0x4d,
  0x75, 0x6c, 0x00, 0x00, 0x02, 0x00, 0x00, 0x00, 0x0a, 0x00, 0x00, 0x00,
  0x0a, 0x00, 0x00, 0x00, 0xd0, 0xe9, 0xff, 0xff, 0xae, 0xea, 0xff, 0xff,
  0x04, 0x00, 0x00, 0x00, 0x90, 0x01, 0x00, 0x00, 0x65, 0xb4, 0xd9, 0x3e,
  0x97, 0x4a, 0xbb, 0xbe, 0x85, 0xfc, 0x21, 0xbe, 0x95, 0xff, 0xc5, 0x3e,
  0x56, 0xbb, 0xcd, 0x3e, 0xe9, 0xa6, 0xad, 0x3e, 0x10, 0x02, 0xd9, 0x3d,
  0x02, 0xaa, 0xb4, 0xbe, 0x40, 0x51, 0xa3, 0x3e, 0xc3, 0x43, 0x98, 0xbe,
  0xf6, 0x38, 0xd4, 0xbe, 0x1e, 0x38, 0x18, 0x3c, 0x4b, 0xf1, 0x92, 0xbc,
  0x27, 0x17, 0x48, 0xbe, 0xcf, 0xd4, 0x01, 0x3f, 0x10, 0x6a, 0x77, 0x3e,
  0x5f, 0x30, 0xfd, 0xbe, 0x35, 0x75, 0xda, 0xbe, 0xed, 0x8a, 0x13, 0x3f,
  0x1a, 0xa7, 0xa7, 0x3e, 0x34, 0x85, 0x30, 0x3e, 0x93, 0xe0, 0xae, 0x3e,
  0xb4, 0xd9, 0x9b, 0x3e, 0x22, 0x64, 0xcb, 0x3e, 0xe3, 0xc3, 0x26, 0xbe,
  0x5e, 0x0a, 0xf3, 0xbe, 0xd7, 0xb5, 0x3d, 0x3e, 0xce, 0x81, 0x71, 0x3d,
  0xaf, 0x8f, 0xe9, 0xbe, 0x4f, 0x7c, 0xc9, 0x3d, 0xfe, 0x3c, 0x53, 0x3d,
  0xbb, 0xad, 0xa0, 0x3c, 0xa8, 0x82, 0xab, 0xbe, 0x9d, 0xd7, 0xa6, 0x3e,
  0xc4, 0x87, 0x41, 0xbe, 0x3a, 0x56, 0x83, 0xbe, 0x1b, 0xdc, 0x8d, 0x3d,
  0x72, 0xeb, 0x9c, 0x3e, 0x09, 0x54, 0xc6, 0x3e, 0x2c, 0xb0, 0xc0, 0xbd,
  0x13, 0x07, 0xe2, 0xbe, 0xb3, 0x2b, 0x89, 0xbe, 0xc8, 0x94, 0x4c, 0xbe,
  0xd4, 0x5f, 0xcc, 0xbe, 0xac, 0xc9, 0xe0, 0x3e, 0xb7, 0xee, 0xc8, 0x3e,
  0xb0, 0xf5, 0xaf, 0x3e, 0xbb, 0x9f, 0x64, 0x3e, 0x7d, 0x86, 0xf5, 0xbd,
  0xaf, 0x90, 0x56, 0x3e, 0xf5, 0x44, 0x4e, 0xbe, 0x34, 0x84, 0xb3, 0x3e,
  0x52, 0xda, 0x1e, 0x3e, 0xd5, 0x5c, 0x13, 0xbf, 0x40, 0xaa, 0x8b, 0x3e,
  0x3f, 0x50, 0x1d, 0x3e, 0x35, 0x62, 0x64, 0x3d, 0xc9, 0xdd, 0xe4, 0xbe,
  0xad, 0x8e, 0xf1, 0xbe, 0xfb, 0x73, 0xc1, 0xbd, 0x6f, 0x5d, 0xa1, 0xbe,
  0x2c, 0x1c, 0xb3, 0xbe, 0xc1, 0xce, 0xbe, 0xbe, 0xff, 0xcf, 0x1b, 0x3d,
  0xc0, 0x46, 0xeb, 0xbe, 0x28, 0x5c, 0xe2, 0x3e, 0x66, 0x19, 0x2c, 0x3d,
  0x4b, 0x7e, 0x9a, 0x3e, 0x75, 0x3b, 0x59, 0xbe, 0x38, 0xf2, 0xa9, 0x3e,
  0x65, 0x23, 0xa7, 0x3e, 0x58, 0xaa, 0x0a, 0xbf, 0xdb, 0xcf, 0xd7, 0x3e,
  0xc4, 0xec, 0x06, 0xbf, 0x99, 0xd3, 0xe1, 0xbe, 0x99, 0xc5, 0xcc, 0xbd,
  0x61, 0x62, 0x35, 0xbe, 0xdc, 0xee, 0xb1, 0xbe, 0x51, 0x6f, 0xc2, 0xbe,
  0x45, 0xb6, 0xeb, 0x3e, 0x66, 0x42, 0xfd, 0xbd, 0x3c, 0xba, 0xd6, 0xbe,
  0xcf, 0x58, 0xba, 0x3e, 0x06, 0x88, 0x23, 0xbc, 0x99, 0xcd, 0xbe, 0x3e,
  0x6a, 0xf2, 0x09, 0xbf, 0x7d, 0x6c, 0x61, 0x3d, 0x16, 0xc7, 0x0e, 0xbf,
  0xac, 0x93, 0xdd, 0xbe, 0xa0, 0x78, 0xf0, 0x3d, 0xa0, 0xa3, 0x42, 0x3e,
  0x40, 0x1d, 0xc5, 0x3e, 0x99, 0x52, 0xd5, 0x3c, 0x08, 0xb7, 0x0d, 0x3f,
  0x67, 0xbc, 0x10, 0xbf, 0x01, 0x8d, 0x0d, 0xbe, 0x78, 0xfc, 0xa6, 0x3e,
  0xb3, 0x29, 0x10, 0xbf, 0x50, 0x7d, 0x0b, 0xbf, 0x14, 0x24, 0x06, 0x3f,
  0xb6, 0xeb, 0xff, 0xff, 0x34, 0x00, 0x00, 0x00, 0x10, 0x00, 0x00, 0x00,
  0x08, 0x00, 0x00, 0x00, 0x34, 0x00, 0x00, 0x00, 0x1e, 0x00, 0x00, 0x00,
  0x73, 0x65, 0x71, 0x75, 0x65, 0x6e, 0x74, 0x69, 0x61, 0x6c, 0x5f, 0x35,
  0x38, 0x2f, 0x64, 0x65, 0x6e, 0x73, 0x65, 0x5f, 0x32, 0x39, 0x34, 0x2f,
  0x4d, 0x61, 0x74, 0x4d, 0x75, 0x6c, 0x00, 0x00, 0x02, 0x00, 0x00, 0x00,
  0x0a, 0x00, 0x00, 0x00, 0x0a, 0x00, 0x00, 0x00, 0xb4, 0xeb, 0xff, 0xff,
  0x92, 0xec, 0xff, 0xff, 0x04, 0x00, 0x00, 0x00, 0x90, 0x01, 0x00, 0x00,
  0xa6, 0x74, 0x8f, 0xbd, 0xee, 0x80, 0xdf, 0xbe, 0x3f, 0x65, 0xe6, 0xbe,
  0xed, 0x98, 0xe1, 0x3e, 0x49, 0xd9, 0x87, 0x3d, 0x6f, 0x69, 0x7e, 0xbe,
  0xbe, 0xd9, 0xc1, 0xbe, 0x7d, 0xc6, 0x72, 0x3e, 0x6a, 0x1b, 0x8e, 0x3e,
  0x60, 0x45, 0x96, 0xbe, 0xe1, 0x79, 0xb0, 0xbe, 0x85, 0x63, 0x09, 0xbf,
  0xff, 0xbc, 0xf7, 0xbe, 0xc4, 0x5c, 0x00, 0xbf, 0xee, 0x86, 0x11, 0x3e,
  0xae, 0x99, 0x7d, 0x3e, 0xf7, 0x75, 0xea, 0xbe, 0xac, 0x16, 0xbd, 0x3e,
  0xe0, 0xab, 0xe6, 0x3e, 0xb1, 0x71, 0x06, 0xbf, 0xb5, 0xd8, 0xac, 0xbe,
  0x44, 0xfa, 0xbc, 0xbe, 0x04, 0x91, 0xf7, 0xbb, 0xc1, 0xbb, 0xa3, 0xbe,
  0x77, 0xbb, 0x0a, 0x3e, 0x69, 0xc7, 0x00, 0xbe, 0x73, 0x49, 0xce, 0x3e,
  0xb4, 0x3f, 0x9b, 0x3d, 0xbf, 0xd9, 0x45, 0xbe, 0xa2, 0xa9, 0x0f, 0x3f,
  0x3c, 0x08, 0x01, 0x3f, 0xb0, 0xb2, 0x32, 0x3e, 0x57, 0x12, 0xcd, 0xbd,
  0xff, 0xd7, 0x00, 0x3f, 0xa2, 0x62, 0x88, 0x3e, 0x7d, 0x5e, 0x3f, 0xbe,
  0x25, 0x60, 0xf1, 0x3e, 0xa4, 0xeb, 0x4c, 0x3e, 0xf3, 0x46, 0x32, 0x3e,
  0xd8, 0x0f, 0xd3, 0x3d, 0xc2, 0x03, 0xeb, 0x3e, 0xc2, 0x21, 0xe5, 0x3e,
  0xdb, 0xd4, 0xa5, 0x3d, 0x62, 0x53, 0xe1, 0xbe, 0xe9, 0xaa, 0xaa, 0x3e,
  0xee, 0x0c, 0xa1, 0x3e, 0xbf, 0x01, 0xbb, 0xbe, 0xd2, 0xb0, 0xb2, 0x3e,
  0xb4, 0xa0, 0x11, 0x3f, 0x28, 0x31, 0x60, 0xbe, 0xbb, 0x38, 0x0d, 0xbf,
  0x71, 0x02, 0x83, 0xbe, 0xee, 0x74, 0x21, 0xbe, 0xa4, 0x0d, 0x2c, 0xbe,
  0x41, 0x43, 0x67, 0xbe, 0xfd, 0x74, 0xe8, 0x3e, 0xe3, 0xd2, 0x32, 0xbe,
  0xd7, 0x67, 0xcb, 0xbe, 0x7a, 0x02, 0xb2, 0xbe, 0x0a, 0xbe, 0x85, 0x3d,
  0x6a, 0xdc, 0x2d, 0xbd, 0xac, 0xe9, 0x39, 0x3e, 0x99, 0xe4, 0x0a, 0xbe,
  0xd8, 0xc6, 0xd3, 0x3e, 0x85, 0x5e, 0x82, 0xbe, 0x11, 0x8e, 0x78, 0xbe,
  0x4b, 0x2c, 0xcb, 0x3e, 0x81, 0xe1, 0x1c, 0x3e, 0xbd, 0xb5, 0xb6, 0x3e,
  0x65, 0xa9, 0xfd, 0x3c, 0xcb, 0xf5, 0x89, 0xbe, 0x83, 0xa4, 0x6a, 0xbe,
  0xda, 0xab, 0x97, 0xbe, 0xb7, 0xb5, 0xf4, 0x3e, 0x46, 0x50, 0x01, 0xbf,
  0x57, 0x19, 0x1d, 0xbe, 0xbe, 0x15, 0xb3, 0xbe, 0x8c, 0x4c, 0x1d, 0x3f,
  0xf2, 0x7f, 0xb6, 0x3e, 0x8c, 0x81, 0xb5, 0x3e, 0x50, 0x0f, 0xb8, 0x3e,
  0xee, 0x6f, 0xf9, 0xbd, 0xf4, 0x9e, 0x82, 0xbe, 0xf8, 0x47, 0x09, 0xbf,
  0x84, 0x2c, 0xba, 0xbe, 0xad, 0x9d, 0xfd, 0xbe, 0xd7, 0xce, 0xe2, 0x3e,
  0x1d, 0x7f, 0x28, 0xbe, 0x98, 0x36, 0xd1, 0x3e, 0x81, 0x8c, 0xce, 0x3e,
  0xfa, 0x97, 0x46, 0x3e, 0x21, 0xbd, 0xf5, 0xbd, 0x37, 0xf0, 0xc5, 0x3e,
  0xc1, 0xa0, 0xbc, 0xbe, 0x16, 0x91, 0x06, 0x3e, 0xc6, 0x0d, 0xf7, 0x3c,
  0xa8, 0xa1, 0x77, 0x3e, 0x1f, 0xf1, 0x15, 0xbe, 0x73, 0xa8, 0x3c, 0x3d,
  0x72, 0x03, 0xef, 0x3d, 0x9a, 0xed, 0xff, 0xff, 0x34, 0x00, 0x00, 0x00,
  0x0f, 0x00, 0x00, 0x00, 0x08, 0x00, 0x00, 0x00, 0x34, 0x00, 0x00, 0x00,
  0x1e, 0x00, 0x00, 0x00, 0x73, 0x65, 0x71, 0x75, 0x65, 0x6e, 0x74, 0x69,
  0x61, 0x6c, 0x5f, 0x35, 0x38, 0x2f, 0x64, 0x65, 0x6e, 0x73, 0x65, 0x5f,
  0x32, 0x39, 0x33, 0x2f, 0x4d, 0x61, 0x74, 0x4d, 0x75, 0x6c, 0x00, 0x00,
  0x02, 0x00, 0x00, 0x00, 0x0a, 0x00, 0x00, 0x00, 0x0a, 0x00, 0x00, 0x00,
  0x98, 0xed, 0xff, 0xff, 0x76, 0xee, 0xff, 0xff, 0x04, 0x00, 0x00, 0x00,
  0x90, 0x01, 0x00, 0x00, 0x44, 0x44, 0xfd, 0x3d, 0xf8, 0xc5, 0xcb, 0x3e,
  0xdf, 0x7e, 0x0a, 0xbf, 0x80, 0x3f, 0xc7, 0x3e, 0xa0, 0x2d, 0x6e, 0x3e,
  0x37, 0x7a, 0x6e, 0xbd, 0x8d, 0xc2, 0xde, 0xbe, 0x50, 0xc1, 0x6c, 0xbd,
  0x4a, 0x3d, 0xa6, 0x3e, 0x39, 0x57, 0x9f, 0xbe, 0xb0, 0x15, 0x86, 0x3e,
  0x97, 0x63, 0xd7, 0x3d, 0x0d, 0xb4, 0x8e, 0x3e, 0x7e, 0x0b, 0x87, 0xbe,
  0x27, 0xe5, 0xfb, 0xbe, 0xcd, 0x8a, 0x04, 0xbf, 0xb1, 0x5f, 0xd0, 0x3e,
  0xec, 0xc1, 0xde, 0x3d, 0x4c, 0xdf, 0xa5, 0xbd, 0xc9, 0xbc, 0xc1, 0xbe,
  0x6b, 0x29, 0xd5, 0xbd, 0xa6, 0xd3, 0xa5, 0xbe, 0x19, 0x59, 0xde, 0x3e,
  0xc0, 0xf1, 0xb7, 0xbd, 0xe3, 0xcd, 0x4c, 0xbe, 0x55, 0xec, 0x73, 0xbd,
  0x4f, 0xc9, 0xcc, 0x3e, 0x39, 0xed, 0xb7, 0x3e, 0x41, 0x92, 0xc2, 0x3e,
  0xeb, 0x36, 0x4d, 0xbe, 0x74, 0xf1, 0xb2, 0x3e, 0xd2, 0x8b, 0xf3, 0xbe,
  0x15, 0x22, 0x57, 0x3e, 0x9f, 0xc5, 0xf2, 0xbd, 0x5e, 0xb3, 0x27, 0x3d,
  0x36, 0x93, 0x0c, 0xbd, 0xa0, 0x4e, 0x11, 0xbf, 0x9a, 0x33, 0x96, 0xbe,
  0xc0, 0xc2, 0x6b, 0xbe, 0xbe, 0xcf, 0xad, 0xbd, 0xe9, 0xb2, 0x7b, 0x3e,
  0x79, 0xee, 0x91, 0x3d, 0xd0, 0x66, 0x3b, 0x3e, 0x5d, 0xbd, 0x15, 0xbe,
  0x8e, 0xd5, 0x81, 0xbe, 0xba, 0xdc, 0x41, 0x3e, 0x81, 0x76, 0x2a, 0x3d,
  0x29, 0x64, 0xe2, 0xbe, 0x3b, 0x7a, 0xc6, 0xbe, 0xbc, 0xba, 0x17, 0xbe,
  0xd7, 0xf1, 0x48, 0xbe, 0x97, 0xa1, 0xfe, 0x3d, 0x22, 0x25, 0x18, 0x3e,
  0xbc, 0x21, 0x2e, 0xbb, 0x0b, 0xfe, 0x04, 0x3f, 0xe0, 0xca, 0xd3, 0x3e,
  0x8e, 0x65, 0x00, 0xbf, 0x88, 0xc3, 0x78, 0x3d, 0xc1, 0x59, 0xa5, 0x3e,
  0xbf, 0x0f, 0xf0, 0x3d, 0x51, 0xa8, 0xce, 0xbd, 0x44, 0x45, 0xbd, 0x3c,
  0x2d, 0x9b, 0x58, 0xbc, 0x10, 0x8d, 0x16, 0x3f, 0x94, 0x83, 0x67, 0x3e,
  0xb3, 0x2c, 0xc4, 0x3e, 0x07, 0x58, 0x77, 0x3e, 0x0b, 0xd5, 0x0f, 0x3e,
  0xb1, 0x16, 0x0c, 0x3f, 0xa8, 0x0b, 0x7e, 0x3b, 0x13, 0x01, 0x96, 0x3e,
  0xcb, 0x37, 0x13, 0xbd, 0xe2, 0x65, 0x8d, 0xbe, 0xdc, 0x2e, 0xa0, 0x3e,
  0xba, 0x49, 0x01, 0xbf, 0x37, 0x2d, 0xb9, 0xbe, 0x4e, 0x3c, 0xbd, 0x3e,
  0x0b, 0x82, 0xd7, 0x3e, 0x16, 0xab, 0x59, 0x3e, 0x7b, 0x55, 0xa4, 0x3e,
  0x9f, 0x1e, 0x02, 0xbf, 0x4b, 0xe4, 0x8c, 0xbe, 0x24, 0x85, 0x96, 0x3e,
  0xda, 0x1c, 0x9f, 0xbe, 0x01, 0xe1, 0x86, 0x3e, 0x77, 0x4f, 0x9e, 0x3c,
  0xe2, 0x36, 0x34, 0x3d, 0x50, 0xda, 0x88, 0xbe, 0x75, 0x03, 0x00, 0xbf,
  0x00, 0xd2, 0x4b, 0xbe, 0xba, 0xb6, 0x18, 0x3e, 0x4c, 0xd3, 0x5d, 0xbe,
  0x85, 0x49, 0x5e, 0xbe, 0x13, 0xa6, 0x6f, 0x3e, 0xc3, 0xbf, 0x00, 0xbf,
  0x25, 0x2c, 0xdb, 0xbe, 0xcd, 0x3f, 0xfb, 0x3e, 0x59, 0xb3, 0xbf, 0xbd,
  0xd5, 0x86, 0xec, 0xbe, 0x4d, 0x1e, 0xe0, 0x3e, 0x7e, 0xef, 0xff, 0xff,
  0x34, 0x00, 0x00, 0x00, 0x0e, 0x00, 0x00, 0x00, 0x08, 0x00, 0x00, 0x00,
  0x34, 0x00, 0x00, 0x00, 0x1e, 0x00, 0x00, 0x00, 0x73, 0x65, 0x71, 0x75,
  0x65, 0x6e, 0x74, 0x69, 0x61, 0x6c, 0x5f, 0x35, 0x38, 0x2f, 0x64, 0x65,
  0x6e, 0x73, 0x65, 0x5f, 0x32, 0x39, 0x32, 0x2f, 0x4d, 0x61, 0x74, 0x4d,
  0x75, 0x6c, 0x00, 0x00, 0x02, 0x00, 0x00, 0x00, 0x0a, 0x00, 0x00, 0x00,
  0x0a, 0x00, 0x00, 0x00, 0x7c, 0xef, 0xff, 0xff, 0x5a, 0xf0, 0xff, 0xff,
  0x04, 0x00, 0x00, 0x00, 0x00, 0x0a, 0x00, 0x00, 0x2a, 0xe0, 0x70, 0x3e,
  0xc7, 0x06, 0xa3, 0x3d, 0x95, 0x42, 0x1d, 0x3e, 0xc1, 0x5e, 0x03, 0x3d,
  0x58, 0x21, 0x70, 0x3e, 0xf5, 0x4e, 0xb4, 0xbd, 0xf8, 0x7e, 0xf9, 0x3d,
  0xdd, 0xe4, 0x32, 0x3e, 0xf1, 0x46, 0x66, 0x3e, 0x26, 0xf7, 0x75, 0x3e,
  0x1d, 0x02, 0x53, 0xbe, 0x64, 0xc6, 0x17, 0xbe, 0xa7, 0x79, 0xd1, 0xbc,
  0x4e, 0x7c, 0x6c, 0xbe, 0x54, 0x58, 0x6b, 0xbd, 0x14, 0xd7, 0x2d, 0xbc,
  0xbf, 0xe5, 0xb9, 0x3d, 0x2e, 0x9b, 0x36, 0xbe, 0x8c, 0x53, 0x7c, 0x3e,
  0xe5, 0x0a, 0x79, 0x3e, 0x74, 0xed, 0x64, 0x3e, 0x35, 0xcd, 0x3a, 0x3e,
  0x03, 0xbd, 0xf4, 0x3b, 0x6f, 0x51, 0xaf, 0x3d, 0x9f, 0x60, 0x20, 0x3d,
  0x21, 0xfd, 0x5a, 0xbe, 0x6a, 0xef, 0xad, 0x3b, 0x8f, 0x3e, 0x50, 0xbd,
  0x4e, 0x63, 0x76, 0x3e, 0x0d, 0x0c, 0x07, 0x3e, 0x37, 0xa1, 0x0d, 0x3e,
  0x3b, 0x59, 0xd7, 0x3d, 0xde, 0xa2, 0xbd, 0xbd, 0xf4, 0x40, 0xc0, 0xbd,
  0x14, 0xf2, 0x93, 0x3d, 0x01, 0xdf, 0xe3, 0x3c, 0x94, 0x03, 0xb2, 0xbd,
  0xe4, 0x84, 0x68, 0x3e, 0x94, 0x0e, 0x5d, 0x3e, 0xba, 0xb0, 0xdc, 0xbd,
  0x67, 0x5e, 0x8f, 0xbd, 0xf6, 0xb5, 0x1b, 0x3e, 0xec, 0xa4, 0x40, 0xbe,
  0x00, 0x3e, 0xaa, 0x3e, 0x4d, 0x8c, 0x4d, 0xbe, 0x64, 0xfa, 0xb5, 0x3d,
  0x51, 0x9a, 0xc6, 0xbe, 0xb9, 0x92, 0x50, 0xbe, 0x0f, 0x30, 0x3a, 0x3d,
  0x91, 0x5d, 0x84, 0x3e, 0xe6, 0x20, 0xa2, 0x3d, 0xf9, 0x01, 0x37, 0xbe,
  0x4a, 0x0b, 0x84, 0xbe, 0xf5, 0xce, 0x32, 0xbe, 0x3d, 0xd0, 0x8d, 0xbd,
  0x2a, 0xbd, 0xab, 0x3e, 0x75, 0xf7, 0x82, 0xbe, 0x96, 0x27, 0x9c, 0x3d,
  0x7d, 0x3d, 0xa0, 0xbe, 0x1b, 0xd4, 0x29, 0x3e, 0x6f, 0x20, 0xa2, 0xbd,
  0x45, 0x82, 0xb8, 0x3d, 0xed, 0xc2, 0x4a, 0x3e, 0x7c, 0x46, 0x66, 0x3e,
  0xf6, 0x52, 0x5c, 0x3e, 0x79, 0xf7, 0x35, 0x3c, 0xf7, 0xf1, 0x40, 0x3e,
  0x6a, 0x9b, 0x99, 0x3d, 0xb7, 0x86, 0xdc, 0xbc, 0xec, 0x57, 0x11, 0xbe,
  0xc0, 0x80, 0x4d, 0xbe, 0x9d, 0xb5, 0x20, 0x3e, 0x12, 0xb4, 0x49, 0x3e,
  0xba, 0x86, 0x24, 0xba, 0xa5, 0x02, 0x84, 0xbd, 0xc6, 0x4e, 0x5f, 0xbd,
  0xdf, 0xb7, 0x2c, 0x3c, 0x53, 0x9e, 0x6c, 0xbe, 0xa9, 0x62, 0x78, 0xbe,
  0x37, 0x1b, 0x2d, 0x3e, 0xae, 0xbe, 0xb4, 0xbd, 0xc5, 0xac, 0xa3, 0x3c,
  0x39, 0x5c, 0x89, 0xbe, 0xef, 0xef, 0x8f, 0xbe, 0x79, 0xb5, 0x22, 0x3e,
  0x14, 0x5f, 0x05, 0x3e, 0x44, 0xcc, 0x07, 0x3e, 0x69, 0x6f, 0xc8, 0x3d,
  0xc0, 0x43, 0xfe, 0xbd, 0x6f, 0xaf, 0x81, 0xbd, 0x71, 0x29, 0x1f, 0x3e,
  0xcc, 0x3f, 0x37, 0xbe, 0xb4, 0xbb, 0x8f, 0x3d, 0x76, 0xb8, 0x9f, 0x3d,
  0xa1, 0x70, 0x0c, 0xbe, 0x2a, 0xec, 0xd8, 0xbd, 0x00, 0x54, 0x6e, 0xbc,
  0x86, 0x31, 0x2e, 0x3e, 0xf9, 0xa6, 0x4a, 0xbe, 0x89, 0x3f, 0x8b, 0x3c,
  0x7f, 0x06, 0xdd, 0xbd, 0xb7, 0x8a, 0x43, 0x3e, 0xb2, 0xfe, 0xe6, 0xbd,
  0xde, 0xaf, 0x93, 0xbd, 0xa2, 0xbe, 0x65, 0x3c, 0x2b, 0x32, 0x23, 0xbe,
  0x91, 0x1c, 0x8b, 0x3e, 0x7d, 0x0c, 0xc6, 0x3d, 0x44, 0xfa, 0x41, 0xbe,
  0x18, 0xce, 0x44, 0x3e, 0x3f, 0xc0, 0xbf, 0x3e, 0xce, 0x1a, 0x19, 0xbe,
  0xf0, 0xf6, 0x55, 0x3e, 0x69, 0x7c, 0x6f, 0xbc, 0x2b, 0xc1, 0x16, 0x3e,
  0x1d, 0x29, 0x44, 0x3e, 0xf7, 0x07, 0x02, 0x3d, 0xf0, 0xb4, 0x91, 0x3e,
  0xf2, 0x11, 0x46, 0x3e, 0x04, 0x94, 0xf1, 0xbd, 0xf9, 0x9f, 0x09, 0x3e,
  0xe4, 0x2b, 0x5c, 0x3e, 0x0e, 0xca, 0x1c, 0xbd, 0xe1, 0x91, 0x7a, 0x3e,
  0x20, 0x17, 0x7d, 0xbe, 0x44, 0xcf, 0xf0, 0xbb, 0x73, 0xe6, 0x82, 0x3e,
  0x1a, 0xb3, 0x65, 0x3e, 0xb7, 0xb9, 0x36, 0xbe, 0x28, 0xf7, 0x5b, 0xbd,
  0xf5, 0xc4, 0x7c, 0xbd, 0x6f, 0x0a, 0x36, 0xbe, 0x4b, 0x5f, 0xd8, 0xbd,
  0x25, 0x61, 0x92, 0xbd, 0xad, 0xff, 0xa8, 0xbe, 0xdc, 0x77, 0x94, 0xbe,
  0x64, 0xd1, 0xed, 0x3c, 0xc1, 0x5c, 0x7c, 0x3e, 0x2b, 0x8f, 0x01, 0xbe,
  0x65, 0x12, 0x40, 0x3e, 0xa8, 0x27, 0xb9, 0xbd, 0xa4, 0x14, 0x9e, 0x3d,
  0x95, 0x64, 0x5d, 0xbd, 0x70, 0xb8, 0xa5, 0xbe, 0x05, 0xf0, 0x8f, 0xbd,
  0xdc, 0x20, 0xb9, 0x3d, 0x06, 0xf8, 0xf6, 0x3d, 0xe7, 0x2c, 0xa9, 0xbd,
  0x6c, 0xa5, 0xa5, 0x3e, 0x6f, 0x23, 0x3d, 0x3c, 0x40, 0x2b, 0xeb, 0x3d,
  0x1e, 0x64, 0x5a, 0xbe, 0x18, 0xf5, 0x96, 0xbe, 0x6d, 0x8e, 0x0b, 0x3e,
  0x66, 0xaf, 0x7e, 0x3c, 0xb7, 0x68, 0x1d, 0x3d, 0xcd, 0xed, 0xd7, 0xbc,
  0xf7, 0xda, 0x3f, 0xbe, 0x02, 0x42, 0x5f, 0xbe, 0xc6, 0xc9, 0x5b, 0xbb,
  0x65, 0x39, 0x13, 0xbe, 0x88, 0xa6, 0x2d, 0xbe, 0x56, 0x77, 0x15, 0xbd,
  0x33, 0xa3, 0xb5, 0x3d, 0xa0, 0x05, 0x66, 0x3e, 0xa0, 0xb3, 0xc5, 0xbe,
  0x7a, 0x4c, 0x27, 0xbe, 0xb3, 0x25, 0x23, 0xbe, 0xb7, 0xe3, 0xb0, 0xbd,
  0x34, 0xa1, 0x07, 0xbe, 0x00, 0xe8, 0xad, 0xbd, 0xfa, 0x6d, 0x47, 0x3c,
  0xbb, 0xd2, 0xe1, 0xbd, 0x0a, 0x72, 0x1f, 0x3e, 0xe3, 0x86, 0x3e, 0x3c,
  0x8f, 0xd1, 0x17, 0xbe, 0x00, 0x68, 0x4a, 0x3e, 0x63, 0x02, 0x25, 0xbe,
  0xbf, 0x71, 0xa6, 0xbd, 0x4e, 0x32, 0xd5, 0x3d, 0x4a, 0x87, 0x94, 0x3e,
  0xfe, 0xfa, 0x0c, 0xbe, 0x62, 0xf6, 0x4c, 0x3d, 0x3b, 0x07, 0xae, 0x3e,
  0xb8, 0x31, 0x1d, 0x3e, 0x4c, 0xb1, 0x5c, 0xbe, 0x1e, 0x55, 0x00, 0xbe,
  0x93, 0x2d, 0x07, 0x3e, 0x4e, 0x41, 0xdd, 0x3c, 0x64, 0xe0, 0xe8, 0x3d,
  0x19, 0xf7, 0xa6, 0x3e, 0x90, 0x73, 0xa7, 0x3d, 0xca, 0x14, 0x7a, 0x3e,
  0xe6, 0x17, 0x8a, 0xbe, 0x69, 0xba, 0xaa, 0x3d, 0x76, 0x02, 0xd8, 0xbc,
  0xbe, 0x6b, 0x00, 0xbe, 0x52, 0xec, 0x1f, 0x3e, 0x96, 0xf0, 0x2a, 0x3d,
  0x8d, 0x7f, 0x86, 0x3e, 0xc4, 0x25, 0x23, 0x3e, 0x12, 0x86, 0x4f, 0x3b,
  0x1b, 0xa7, 0x6f, 0x3e, 0x82, 0xd6, 0xff, 0xbd, 0xc3, 0x83, 0xdc, 0xbd,
  0x63, 0xbd, 0xfd, 0xbc, 0xec, 0xe6, 0x11, 0xbe, 0x76, 0xc8, 0x09, 0x3e,
  0xa7, 0xb0, 0x96, 0xbe, 0x68, 0x2b, 0x34, 0x3e, 0x58, 0x0c, 0x9a, 0x3d,
  0x75, 0x59, 0x12, 0xbe, 0x1c, 0x9e, 0x1a, 0xbe, 0x38, 0x03, 0x5d, 0xbe,
  0xd5, 0xa7, 0x80, 0xbe, 0xd3, 0x65, 0x2f, 0xbe, 0x71, 0x14, 0xb2, 0xbd,
  0x84, 0xa9, 0xa3, 0x3e, 0x95, 0x20, 0x16, 0x3e, 0x68, 0xaf, 0x93, 0xbc,
  0xf6, 0xae, 0x27, 0xbe, 0xb8, 0xa0, 0xa5, 0x3e, 0x9d, 0x51, 0xe9, 0x3d,
  0xbe, 0xd5, 0x26, 0xbe, 0xa5, 0x9b, 0x89, 0x3e, 0x2f, 0x0c, 0x73, 0xbe,
  0x57, 0xf6, 0xdb, 0xbc, 0xea, 0x43, 0x2e, 0x3e, 0xce, 0x08, 0x7d, 0x3c,
  0x8d, 0x31, 0xa8, 0x3d, 0x50, 0xf3, 0xed, 0x3d, 0xe0, 0x53, 0x48, 0x3e,
  0xcf, 0x35, 0x42, 0xbe, 0xda, 0xaa, 0xc4, 0xbc, 0x40, 0x5c, 0x18, 0xbd,
  0xca, 0x27, 0x14, 0x3e, 0x69, 0x5e, 0x07, 0x3e, 0x99, 0x48, 0x69, 0xbe,
  0x6b, 0x4d, 0x6a, 0x3e, 0xb1, 0x45, 0xe3, 0x3d, 0x23, 0xe0, 0x41, 0x3e,
  0x71, 0xd3, 0x3a, 0x3e, 0xc4, 0xa7, 0xa7, 0xbd, 0x38, 0x7c, 0x4a, 0x3d,
  0x37, 0xb7, 0x46, 0xbe, 0x26, 0xa1, 0x9e, 0xbd, 0x57, 0x77, 0x2b, 0xbd,
  0xe2, 0xe6, 0x6e, 0xbe, 0xda, 0xd7, 0x45, 0xbe, 0x51, 0x5b, 0x38, 0x3d,
  0x3f, 0xe6, 0x2e, 0xbd, 0xae, 0xd9, 0x18, 0x3e, 0x5e, 0xa7, 0x8c, 0xbe,
  0x18, 0x12, 0x82, 0xbe, 0xa5, 0x85, 0x06, 0x3e, 0x8d, 0x2e, 0x01, 0x3c,
  0xd6, 0x3a, 0x7d, 0xbe, 0xec, 0x74, 0x84, 0xbe, 0x5e, 0x90, 0x4e, 0x3d,
  0xd2, 0x11, 0x26, 0xbe, 0x9b, 0x47, 0x5a, 0x3e, 0x4c, 0x2f, 0x59, 0x3e,
  0xb4, 0x12, 0x87, 0xbd, 0xf0, 0xa0, 0xa3, 0x3d, 0x3c, 0x15, 0x90, 0xbd,
  0x7b, 0x1c, 0x3b, 0x3e, 0x97, 0x65, 0x05, 0xbe, 0x56, 0xea, 0x7f, 0x3d,
  0xcf, 0x2f, 0x8d, 0x3e, 0x66, 0x54, 0x6d, 0x3d, 0xf3, 0x79, 0x55, 0x3d,
  0x5e, 0xb7, 0x86, 0xbd, 0x2d, 0xef, 0x9f, 0x3c, 0x1c, 0x30, 0x0a, 0xbe,
  0x8c, 0x8a, 0x7a, 0x3e, 0x1a, 0xe7, 0x0a, 0xbe, 0x06, 0xa5, 0xb0, 0x3d,
  0xd8, 0x2a, 0xd0, 0xbc, 0x4a, 0x9c, 0x64, 0x3e, 0xb6, 0x5b, 0x07, 0xbe,
  0x3c, 0x0b, 0x37, 0x3e, 0xd3, 0x9a, 0xd5, 0x3d, 0xff, 0x46, 0x46, 0xbe,
  0xcc, 0x57, 0x75, 0xbd, 0xfd, 0x46, 0x14, 0xbe, 0x06, 0x17, 0x59, 0x3e,
  0xf2, 0x2c, 0xcd, 0xbd, 0x54, 0x03, 0x24, 0x3e, 0x10, 0xdf, 0xe2, 0xbc,
  0x02, 0x14, 0x8d, 0xbd, 0xbe, 0x62, 0x48, 0xbe, 0x19, 0x32, 0x6e, 0xbe,
  0x8f, 0x9e, 0x90, 0xbc, 0x0a, 0x82, 0x39, 0xbd, 0xa0, 0x28, 0x5c, 0xbe,
  0x1e, 0x41, 0x80, 0xbe, 0x45, 0x74, 0x20, 0xbd, 0x51, 0x47, 0x15, 0x3e,
  0xff, 0x46, 0x0d, 0x3e, 0x07, 0xb2, 0x1a, 0xbd, 0x4e, 0x3c, 0x51, 0x3d,
  0x89, 0xb4, 0xd1, 0x3c, 0x3d, 0x5c, 0xe9, 0x3d, 0x7f, 0x5e, 0x53, 0x3c,
  0x7b, 0xe3, 0x55, 0x3c, 0xec, 0x87, 0x13, 0xbe, 0x92, 0x4b, 0x7a, 0xbe,
  0x7a, 0x6f, 0x76, 0xbe, 0x56, 0x82, 0x2c, 0xbe, 0x2c, 0x1e, 0xff, 0xbd,
  0x39, 0x0f, 0x3c, 0xbe, 0x11, 0x9e, 0x15, 0xbe, 0xc6, 0xcd, 0x8e, 0xbd,
  0x8b, 0x0d, 0xc4, 0xbd, 0x3d, 0xfd, 0xa3, 0xbd, 0x7c, 0x91, 0xb6, 0x3d,
  0x92, 0xba, 0x44, 0x3e, 0x04, 0x2b, 0x4b, 0xbe, 0x20, 0xc7, 0xfb, 0xbd,
  0x42, 0x88, 0x88, 0xbd, 0x40, 0x04, 0x5c, 0xbd, 0x8e, 0xf9, 0xf0, 0xbd,
  0x19, 0x44, 0x70, 0xbd, 0x41, 0x1d, 0x67, 0xbe, 0xd5, 0x40, 0x65, 0x3e,
  0xcd, 0x01, 0xca, 0xbd, 0x4a, 0xf0, 0x9e, 0x3d, 0x86, 0x57, 0x20, 0xbe,
  0x70, 0xfe, 0x62, 0xbe, 0x4a, 0x6b, 0x5e, 0x3e, 0x7e, 0xb3, 0xf8, 0xbd,
  0x34, 0xad, 0x90, 0x3e, 0x99, 0x6e, 0x7a, 0xbe, 0x87, 0xd2, 0x77, 0x3e,
  0x37, 0x86, 0xb2, 0x3d, 0x23, 0xef, 0x3d, 0x3e, 0x70, 0x12, 0x89, 0x3e,
  0xbb, 0x61, 0x5c, 0xbd, 0x3c, 0x03, 0x85, 0xbe, 0xd8, 0x4d, 0xb0, 0x3d,
  0x2e, 0x4c, 0x16, 0x3d, 0x22, 0x0e, 0x2f, 0xbe, 0x44, 0x0e, 0x6f, 0x3d,
  0x01, 0x13, 0x90, 0x3c, 0x81, 0x0c, 0x8c, 0x3d, 0x41, 0xd8, 0x8c, 0x3b,
  0x0e, 0xb3, 0x82, 0xbe, 0xbc, 0x10, 0xa8, 0xbe, 0xda, 0x2b, 0x9b, 0xbd,
  0x04, 0x92, 0x5c, 0xbe, 0x3a, 0x13, 0x03, 0xbe, 0x9e, 0xa2, 0x39, 0x3e,
  0x58, 0x41, 0xa0, 0x3d, 0x91, 0x57, 0x1c, 0x3e, 0x0e, 0xd5, 0x68, 0x3e,
  0xc2, 0xb3, 0x4b, 0x3d, 0x8f, 0x5a, 0x54, 0xbe, 0xfb, 0xc8, 0xb9, 0xbc,
  0x2d, 0x6f, 0x2a, 0x3e, 0x91, 0x13, 0x8b, 0xbe, 0xfe, 0x13, 0xf7, 0x3a,
  0x9c, 0x7d, 0x1d, 0xbe, 0xae, 0x30, 0x10, 0xbe, 0x0c, 0xe7, 0x59, 0x3d,
  0xe5, 0xdc, 0x3e, 0xbe, 0x4b, 0x39, 0x79, 0xbe, 0xd1, 0x72, 0x3f, 0xbe,
  0xb7, 0x81, 0x5a, 0xbe, 0x48, 0xca, 0x6d, 0x3e, 0x3d, 0x9b, 0xce, 0x3d,
  0xf1, 0xc9, 0x04, 0xbe, 0xaf, 0xe6, 0x21, 0x3e, 0x80, 0x41, 0xb5, 0xbd,
  0xa7, 0xe6, 0x23, 0xbd, 0x32, 0xe8, 0x17, 0xbe, 0x25, 0x96, 0xb0, 0xbd,
  0x97, 0x77, 0x31, 0x3e, 0xe6, 0x74, 0x56, 0xbe, 0xc2, 0xf6, 0x93, 0x3e,
  0xc6, 0x1f, 0x83, 0x3e, 0x1b, 0x42, 0x10, 0x3e, 0x0b, 0x22, 0x5f, 0xbc,
  0xf4, 0x0f, 0xa8, 0x3d, 0x84, 0x6a, 0x3d, 0x3e, 0x10, 0x57, 0xf3, 0xbc,
  0x9a, 0x77, 0xe5, 0xbd, 0x12, 0xf8, 0xd2, 0xbd, 0x25, 0x21, 0x27, 0xbe,
  0x87, 0x43, 0x2d, 0xbe, 0x20, 0x9d, 0xf6, 0x3d, 0x2a, 0x1c, 0x6c, 0x3e,
  0xf1, 0x66, 0x9d, 0x3e, 0x21, 0x70, 0xa6, 0xbd, 0xeb, 0xc6, 0x56, 0xbd,
  0xe3, 0x8b, 0x5c, 0x3c, 0xaf, 0xb6, 0x92, 0x3e, 0x90, 0x92, 0x7f, 0x3e,
  0xc3, 0xe4, 0x3c, 0x3e, 0x80, 0x03, 0xd7, 0x3d, 0x31, 0xc4, 0x13, 0xbd,
  0x11, 0xda, 0x5c, 0xbe, 0x8d, 0x34, 0x99, 0xbe, 0x88, 0x4b, 0xa6, 0x3d,
  0x61, 0xae, 0xfe, 0xbd, 0x17, 0xfc, 0x8f, 0xbe, 0x7f, 0x31, 0x66, 0xbe,
  0x5a, 0xec, 0x27, 0x3e, 0xe0, 0x7e, 0x47, 0xbe, 0x68, 0x93, 0xf1, 0xbd,
  0x05, 0x5f, 0xb9, 0xbd, 0x7a, 0x1c, 0x57, 0x3e, 0x7c, 0x25, 0xf4, 0xbc,
  0x35, 0xd6, 0xd8, 0xbd, 0x50, 0x85, 0xf2, 0x3d, 0x14, 0x24, 0xaa, 0xbe,
  0x34, 0xf7, 0x2f, 0x3e, 0x40, 0x66, 0x8d, 0x3b, 0x94, 0xd0, 0x39, 0xbe,
  0xf1, 0x5a, 0x01, 0xbe, 0x70, 0xf4, 0x8c, 0x3d, 0x46, 0x94, 0xc7, 0x3d,
  0xe0, 0x3c, 0x3a, 0x3d, 0xd1, 0x76, 0x3f, 0x3d, 0x82, 0x73, 0x56, 0xbe,
  0x75, 0x93, 0x89, 0xbe, 0x24, 0x4f, 0xb6, 0xbe, 0x7a, 0x23, 0xd8, 0xbc,
  0xcd, 0xab, 0x0f, 0x3e, 0x49, 0xd8, 0x70, 0x3d, 0xf4, 0x92, 0x77, 0xbe,
  0xe9, 0xc2, 0x2f, 0xbb, 0x36, 0x6f, 0xde, 0xbd, 0x42, 0xd4, 0x06, 0xbe,
  0xe2, 0xa3, 0xd1, 0xbd, 0x24, 0xe0, 0x97, 0x3e, 0x73, 0x93, 0x5c, 0x3e,
  0x3d, 0xd9, 0x99, 0xbe, 0xa6, 0x24, 0xa5, 0x3e, 0xca, 0xcb, 0xf7, 0x3d,
  0xc9, 0xb8, 0xaf, 0x3d, 0x3c, 0x65, 0x35, 0xbe, 0xf8, 0xba, 0x80, 0x3d,
  0x44, 0x57, 0xb1, 0xba, 0x39, 0xa2, 0x93, 0xbc, 0xcd, 0x99, 0xc9, 0x3d,
  0x90, 0x00, 0xa8, 0x3e, 0xa3, 0x86, 0x09, 0x3c, 0xcb, 0xde, 0x84, 0xbe,
  0xca, 0x94, 0x73, 0x3e, 0xd2, 0x0d, 0x01, 0xbd, 0x12, 0x03, 0x70, 0xbe,
  0xb1, 0xd3, 0x98, 0xbd, 0xf3, 0x88, 0x35, 0x3e, 0x60, 0xdf, 0x01, 0x3e,
  0xa3, 0xc6, 0x67, 0xbe, 0xff, 0xbe, 0x21, 0x3e, 0x57, 0x47, 0x3f, 0xbd,
  0xdd, 0x84, 0xc7, 0x3b, 0xb4, 0xba, 0x6a, 0xbe, 0xb0, 0x8b, 0x93, 0xbe,
  0xc6, 0x24, 0xa4, 0x3d, 0xa0, 0x33, 0x5d, 0xbe, 0xe3, 0x86, 0x7c, 0xbe,
  0x00, 0xee, 0x40, 0x3e, 0x88, 0x0c, 0x5f, 0xbd, 0x37, 0xe7, 0x72, 0x3d,
  0x9c, 0x30, 0x2c, 0xbe, 0xe6, 0xfe, 0x8e, 0x3d, 0x61, 0x91, 0xcb, 0xbd,
  0x44, 0xe0, 0x41, 0xbe, 0xc3, 0x48, 0x6b, 0x3e, 0xd8, 0x2f, 0x80, 0xbe,
  0x2c, 0xd7, 0x83, 0xbe, 0x46, 0xd1, 0xc3, 0x3d, 0xd8, 0xc2, 0xfc, 0x3c,
  0x5a, 0xa7, 0x4a, 0x3e, 0xd7, 0xd5, 0xe4, 0x3d, 0x31, 0xa3, 0x3a, 0x3e,
  0xe0, 0xa3, 0x73, 0xbe, 0xe3, 0xfe, 0x02, 0xbe, 0x60, 0x76, 0x55, 0xbd,
  0xd3, 0x58, 0xb5, 0xbe, 0xdd, 0xcc, 0x56, 0xbe, 0xdd, 0x28, 0x4f, 0xbe,
  0x9a, 0x0c, 0x0b, 0xbe, 0xc4, 0x77, 0x05, 0xbe, 0xcf, 0x5f, 0x64, 0xbe,
  0x40, 0x5b, 0x9d, 0x3b, 0x27, 0x84, 0x69, 0xbe, 0x89, 0x0f, 0x36, 0x3e,
  0xd4, 0x07, 0x94, 0x3d, 0xfc, 0x5b, 0x8c, 0xbe, 0xa6, 0x64, 0x70, 0xbe,
  0xad, 0xa5, 0x63, 0xbe, 0xcb, 0x50, 0xc3, 0xbd, 0x3b, 0xde, 0xce, 0x3d,
  0x1e, 0x58, 0x33, 0x3e, 0xa7, 0x09, 0xa3, 0x3d, 0x38, 0x63, 0x58, 0x3d,
  0xa5, 0xa3, 0xf7, 0x3c, 0x73, 0x4e, 0x2f, 0x3e, 0x6b, 0x21, 0x69, 0xbd,
  0x87, 0xaa, 0x7c, 0x3e, 0x94, 0x7e, 0x7e, 0xbc, 0xda, 0x27, 0xd4, 0xbd,
  0x89, 0x8a, 0xf8, 0xbd, 0x33, 0x77, 0xf6, 0x3d, 0xbe, 0x3b, 0x44, 0x3e,
  0xaa, 0xa5, 0x24, 0x3e, 0xf1, 0x6f, 0x18, 0xbe, 0xe9, 0xb4, 0xa6, 0x3b,
  0x1f, 0xb4, 0x13, 0xbe, 0xba, 0xc9, 0x32, 0xbe, 0x68, 0x43, 0x8a, 0x3d,
  0x10, 0xc3, 0x25, 0x3e, 0x17, 0x0f, 0xc7, 0xbb, 0x6a, 0xd0, 0xf1, 0x3d,
  0x01, 0x7e, 0x85, 0x3d, 0x0b, 0xc6, 0x94, 0x3c, 0x8d, 0x6f, 0x22, 0xbe,
  0x7e, 0xea, 0x8d, 0xbc, 0x5c, 0x88, 0x86, 0x3e, 0x31, 0xd5, 0x95, 0xbd,
  0x9a, 0x75, 0x00, 0x3d, 0x32, 0x3c, 0x8c, 0xbe, 0x88, 0xa8, 0x5f, 0xbd,
  0x4e, 0x70, 0x8d, 0x3e, 0xe3, 0x3f, 0x44, 0x3e, 0x3e, 0x64, 0x89, 0x3e,
  0x5e, 0xd1, 0x2f, 0x3e, 0x21, 0xb2, 0x4d, 0xbc, 0x85, 0x69, 0x07, 0xbe,
  0x08, 0xee, 0xbf, 0xbc, 0x4b, 0x94, 0x27, 0x3e, 0xed, 0x96, 0x8b, 0xbc,
  0x2d, 0xfc, 0x03, 0x3d, 0x86, 0xef, 0x05, 0xbd, 0x18, 0xbb, 0x5e, 0xbc,
  0x39, 0x48, 0x9e, 0xbe, 0x54, 0x2e, 0x33, 0x3e, 0x48, 0x95, 0x65, 0x3e,
  0x8d, 0x41, 0x5b, 0x3e, 0x39, 0xf7, 0x9a, 0xbe, 0xe3, 0xbd, 0x0a, 0x3e,
  0xf2, 0xe5, 0x47, 0x3e, 0x17, 0x2a, 0x85, 0xbe, 0x1b, 0x95, 0x82, 0xbe,
  0x7c, 0xb9, 0xb4, 0x3d, 0x64, 0x01, 0xc3, 0x3d, 0x07, 0x3c, 0x17, 0x3e,
  0x65, 0xe6, 0xae, 0xbe, 0x98, 0x8a, 0x48, 0x3d, 0x2d, 0xd5, 0xf3, 0xbd,
  0xed, 0x83, 0x0c, 0xbe, 0x19, 0x69, 0x89, 0x3e, 0x0a, 0xd3, 0x8b, 0x3e,
  0x22, 0x50, 0x52, 0xbe, 0x40, 0xa6, 0x0c, 0x3e, 0x7b, 0xd1, 0xe5, 0x3d,
  0x17, 0x84, 0x6a, 0x3d, 0xe6, 0xc4, 0x88, 0xbe, 0xf1, 0x39, 0x9e, 0x3d,
  0x22, 0xd6, 0x86, 0xbd, 0x8c, 0x4f, 0x29, 0x3e, 0x33, 0xed, 0xef, 0xbd,
  0xa9, 0xfb, 0x29, 0x3e, 0x8e, 0x7e, 0x95, 0xbd, 0x6f, 0xfb, 0x1e, 0xbe,
  0xfc, 0x1e, 0xa4, 0x3e, 0x8b, 0xb7, 0x48, 0xbd, 0x91, 0x9a, 0x62, 0x3e,
  0x3f, 0xf5, 0x36, 0x3d, 0xed, 0xb7, 0x3b, 0xbe, 0x75, 0xd6, 0xf4, 0xbd,
  0x25, 0x48, 0x2e, 0x3d, 0x0c, 0xf6, 0xab, 0x3e, 0x5c, 0x19, 0xbe, 0xbd,
  0x00, 0xc3, 0x28, 0xbe, 0x4e, 0xe7, 0x8d, 0x3e, 0x0d, 0x05, 0x2f, 0x3e,
  0xf9, 0x42, 0x54, 0xbd, 0x25, 0x02, 0x3a, 0x3e, 0xae, 0x40, 0x7e, 0x3e,
  0x6b, 0xf8, 0x23, 0xbd, 0x1f, 0x1e, 0x93, 0xbe, 0xbd, 0xea, 0x27, 0xbd,
  0x02, 0xae, 0x0e, 0xbe, 0x4a, 0x78, 0x3b, 0xbe, 0x55, 0x07, 0x51, 0xbd,
  0x13, 0x50, 0xd9, 0xbd, 0x64, 0xab, 0x02, 0x3e, 0x38, 0x0c, 0x9d, 0xbe,
  0xa9, 0x7b, 0xd8, 0xbd, 0xa4, 0x5d, 0x18, 0xbb, 0xb5, 0x01, 0xc7, 0xbd,
  0x54, 0x6c, 0x88, 0x3e, 0xe8, 0x0b, 0x5c, 0x3c, 0xfb, 0x08, 0x8c, 0xbe,
  0x03, 0xd6, 0x4c, 0xbe, 0xf2, 0x6c, 0x0f, 0xbd, 0xba, 0x2c, 0x89, 0xbe,
  0x54, 0xbc, 0x20, 0x3e, 0x4e, 0xfe, 0x71, 0x3e, 0x51, 0x1b, 0x82, 0x3e,
  0x0e, 0xcf, 0x2c, 0x3e, 0x70, 0x08, 0x79, 0xbe, 0xe9, 0x05, 0xa4, 0xbe,
  0x4a, 0xe5, 0x08, 0x3e, 0xa6, 0x1e, 0x2f, 0xbe, 0x76, 0x89, 0x48, 0x3e,
  0xea, 0xfa, 0x85, 0xbc, 0x17, 0x93, 0xa2, 0x3c, 0x5b, 0x8b, 0x73, 0x3e,
  0x2e, 0x20, 0x1c, 0x3d, 0x40, 0xfa, 0x0a, 0x3e, 0x46, 0xa7, 0x19, 0xbe,
  0xa2, 0x2b, 0x7b, 0x3e, 0x9b, 0xd5, 0x39, 0xbe, 0xe5, 0x9a, 0x45, 0xbe,
  0x45, 0x9f, 0xd6, 0x3c, 0xb3, 0x1d, 0x86, 0x3e, 0xcc, 0x99, 0xdf, 0x3d,
  0xf3, 0xc9, 0x2f, 0x3e, 0x74, 0xa9, 0x26, 0xbe, 0x56, 0x77, 0x78, 0x3e,
  0x1a, 0x4d, 0x39, 0xbe, 0xcb, 0x99, 0xa6, 0x3b, 0x30, 0x1d, 0x2c, 0x3e,
  0xd2, 0x32, 0x64, 0xbe, 0xa3, 0x21, 0xa9, 0xbc, 0x6a, 0xdb, 0xf1, 0x3d,
  0xcd, 0x0b, 0x1e, 0x3c, 0xac, 0x69, 0xb9, 0x3d, 0x34, 0xe1, 0xbd, 0xbc,
  0x72, 0xf2, 0x74, 0xbe, 0xe6, 0x34, 0x5e, 0xbd, 0x19, 0x4d, 0x79, 0x3c,
  0xad, 0x02, 0x44, 0x3e, 0x4e, 0x3e, 0x2e, 0xbd, 0x33, 0x81, 0x5a, 0x3e,
  0xd2, 0xf9, 0xff, 0xff, 0x34, 0x00, 0x00, 0x00, 0x0d, 0x00, 0x00, 0x00,
  0x08, 0x00, 0x00, 0x00, 0x34, 0x00, 0x00, 0x00, 0x1e, 0x00, 0x00, 0x00,
  0x73, 0x65, 0x71, 0x75, 0x65, 0x6e, 0x74, 0x69, 0x61, 0x6c, 0x5f, 0x35,
  0x38, 0x2f, 0x64, 0x65, 0x6e, 0x73, 0x65, 0x5f, 0x32, 0x39, 0x31, 0x2f,
  0x4d, 0x61, 0x74, 0x4d, 0x75, 0x6c, 0x00, 0x00, 0x02, 0x00, 0x00, 0x00,
  0x0a, 0x00, 0x00, 0x00, 0x40, 0x00, 0x00, 0x00, 0xd0, 0xf9, 0xff, 0xff,
  0xae, 0xfa, 0xff, 0xff, 0x04, 0x00, 0x00, 0x00, 0x28, 0x00, 0x00, 0x00,
  0x82, 0x43, 0x0f, 0xbd, 0x36, 0x62, 0xa4, 0xbd, 0xcb, 0x08, 0x5b, 0xbd,
  0xea, 0xc2, 0xc0, 0x3d, 0x10, 0x13, 0x57, 0xbc, 0x03, 0x12, 0x23, 0x3e,
  0x27, 0xeb, 0x78, 0xbd, 0xdb, 0x2a, 0x3b, 0xbd, 0x38, 0xf0, 0x10, 0x3d,
  0x02, 0xd1, 0x01, 0x3d, 0x4e, 0xfa, 0xff, 0xff, 0x44, 0x00, 0x00, 0x00,
  0x0c, 0x00, 0x00, 0x00, 0x08, 0x00, 0x00, 0x00, 0x40, 0x00, 0x00, 0x00,
  0x2e, 0x00, 0x00, 0x00, 0x73, 0x65, 0x71, 0x75, 0x65, 0x6e, 0x74, 0x69,
  0x61, 0x6c, 0x5f, 0x35, 0x38, 0x2f, 0x64, 0x65, 0x6e, 0x73, 0x65, 0x5f,
  0x33, 0x30, 0x31, 0x2f, 0x42, 0x69, 0x61, 0x73, 0x41, 0x64, 0x64, 0x2f,
  0x52, 0x65, 0x61, 0x64, 0x56, 0x61, 0x72, 0x69, 0x61, 0x62, 0x6c, 0x65,
  0x4f, 0x70, 0x00, 0x00, 0x01, 0x00, 0x00, 0x00, 0x0a, 0x00, 0x00, 0x00,
  0x58, 0xfa, 0xff, 0xff, 0x36, 0xfb, 0xff, 0xff, 0x04, 0x00, 0x00, 0x00,
  0x28, 0x00, 0x00, 0x00, 0x57, 0x96, 0x99, 0x3c, 0xba, 0xd7, 0xe9, 0x3c,
  0xaf, 0xd1, 0x97, 0x3c, 0x4b, 0x48, 0xd7, 0x3c, 0xbf, 0x5f, 0xf2, 0xba,
  0x81, 0x9a, 0xc8, 0xbc, 0xc8, 0x6c, 0x4d, 0xbd, 0xa5, 0x35, 0x94, 0xbd,
  0x76, 0x48, 0x36, 0x3b, 0x2f, 0x75, 0x09, 0xbd, 0xd6, 0xfa, 0xff, 0xff,
  0x44, 0x00, 0x00, 0x00, 0x0b, 0x00, 0x00, 0x00, 0x08, 0x00, 0x00, 0x00,
  0x40, 0x00, 0x00, 0x00, 0x2e, 0x00, 0x00, 0x00, 0x73, 0x65, 0x71, 0x75,
  0x65, 0x6e, 0x74, 0x69, 0x61, 0x6c, 0x5f, 0x35, 0x38, 0x2f, 0x64, 0x65,
  0x6e, 0x73, 0x65, 0x5f, 0x33, 0x30, 0x30, 0x2f, 0x42, 0x69, 0x61, 0x73,
  0x41, 0x64, 0x64, 0x2f, 0x52, 0x65, 0x61, 0x64, 0x56, 0x61, 0x72, 0x69,
  0x61, 0x62, 0x6c, 0x65, 0x4f, 0x70, 0x00, 0x00, 0x01, 0x00, 0x00, 0x00,
  0x0a, 0x00, 0x00, 0x00, 0xe0, 0xfa, 0xff, 0xff, 0xbe, 0xfb, 0xff, 0xff,
  0x04, 0x00, 0x00, 0x00, 0x28, 0x00, 0x00, 0x00, 0xc6, 0x1f, 0xbd, 0x3b,
  0x42, 0x3b, 0x05, 0xbd, 0xb5, 0xc4, 0xf1, 0xbc, 0x40, 0xac, 0x27, 0xbc,
  0x76, 0x08, 0x4b, 0x3b, 0x38, 0x6f, 0xc4, 0xbc, 0x26, 0x02, 0x07, 0x3d,
  0x0f, 0xd0, 0x3f, 0x3d, 0xaa, 0x86, 0x73, 0x3c, 0x10, 0xf5, 0x53, 0x3d,
  0x5e, 0xfb, 0xff, 0xff, 0x44, 0x00, 0x00, 0x00, 0x0a, 0x00, 0x00, 0x00,
  0x08, 0x00, 0x00, 0x00, 0x40, 0x00, 0x00, 0x00, 0x2e, 0x00, 0x00, 0x00,
  0x73, 0x65, 0x71, 0x75, 0x65, 0x6e, 0x74, 0x69, 0x61, 0x6c, 0x5f, 0x35,
  0x38, 0x2f, 0x64, 0x65, 0x6e, 0x73, 0x65, 0x5f, 0x32, 0x39, 0x39, 0x2f,
  0x42, 0x69, 0x61, 0x73, 0x41, 0x64, 0x64, 0x2f, 0x52, 0x65, 0x61, 0x64,
  0x56, 0x61, 0x72, 0x69, 0x61, 0x62, 0x6c, 0x65, 0x4f, 0x70, 0x00, 0x00,
  0x01, 0x00, 0x00, 0x00, 0x0a, 0x00, 0x00, 0x00, 0x68, 0xfb, 0xff, 0xff,
  0x46, 0xfc, 0xff, 0xff, 0x04, 0x00, 0x00, 0x00, 0x28, 0x00, 0x00, 0x00,
  0xfe, 0x92, 0x4b, 0x3d, 0x21, 0x61, 0x23, 0x3c, 0x3e, 0xf1, 0xc4, 0xbc,
  0x7e, 0xac, 0xb7, 0xbb, 0xd2, 0x52, 0x0f, 0x3d, 0x9f, 0x51, 0x77, 0x3d,
  0xf7, 0x48, 0x9d, 0xbc, 0xda, 0x0e, 0x15, 0x3b, 0x58, 0x0d, 0xce, 0x3b,
  0x12, 0x32, 0xc1, 0xbc, 0xe6, 0xfb, 0xff, 0xff, 0x44, 0x00, 0x00, 0x00,
  0x09, 0x00, 0x00, 0x00, 0x08, 0x00, 0x00, 0x00, 0x40, 0x00, 0x00, 0x00,
  0x2e, 0x00, 0x00, 0x00, 0x73, 0x65, 0x71, 0x75, 0x65, 0x6e, 0x74, 0x69,
  0x61, 0x6c, 0x5f, 0x35, 0x38, 0x2f, 0x64, 0x65, 0x6e, 0x73, 0x65, 0x5f,
  0x32, 0x39, 0x38, 0x2f, 0x42, 0x69, 0x61, 0x73, 0x41, 0x64, 0x64, 0x2f,
  0x52, 0x65, 0x61, 0x64, 0x56, 0x61, 0x72, 0x69, 0x61, 0x62, 0x6c, 0x65,
  0x4f, 0x70, 0x00, 0x00, 0x01, 0x00, 0x00, 0x00, 0x0a, 0x00, 0x00, 0x00,
  0xf0, 0xfb, 0xff, 0xff, 0xce, 0xfc, 0xff, 0xff, 0x04, 0x00, 0x00, 0x00,
  0x28, 0x00, 0x00, 0x00, 0x65, 0xb6, 0x8c, 0xbb, 0x85, 0xd2, 0xc7, 0xbb,
  0x6f, 0x30, 0x05, 0x3b, 0x57, 0xba, 0x61, 0x3c, 0x0f, 0xf1, 0x55, 0x3d,
  0xa8, 0x99, 0x11, 0x3d, 0x07, 0x02, 0x0b, 0x3c, 0x11, 0xae, 0x01, 0x3c,
  0xa6, 0x10, 0x80, 0xbc, 0xa3, 0x91, 0xd6, 0xbc, 0x6e, 0xfc, 0xff, 0xff,
  0x44, 0x00, 0x00, 0x00, 0x08, 0x00, 0x00, 0x00, 0x08, 0x00, 0x00, 0x00,
  0x40, 0x00, 0x00, 0x00, 0x2e, 0x00, 0x00, 0x00, 0x73, 0x65, 0x71, 0x75,
  0x65, 0x6e, 0x74, 0x69, 0x61, 0x6c, 0x5f, 0x35, 0x38, 0x2f, 0x64, 0x65,
  0x6e, 0x73, 0x65, 0x5f, 0x32, 0x39, 0x37, 0x2f, 0x42, 0x69, 0x61, 0x73,
  0x41, 0x64, 0x64, 0x2f, 0x52, 0x65, 0x61, 0x64, 0x56, 0x61, 0x72, 0x69,
  0x61, 0x62, 0x6c, 0x65, 0x4f, 0x70, 0x00, 0x00, 0x01, 0x00, 0x00, 0x00,
  0x0a, 0x00, 0x00, 0x00, 0x78, 0xfc, 0xff, 0xff, 0x56, 0xfd, 0xff, 0xff,
  0x04, 0x00, 0x00, 0x00, 0x28, 0x00, 0x00, 0x00, 0x63, 0xa5, 0x06, 0xbc,
  0x92, 0x6f, 0x88, 0x3a, 0x74, 0x82, 0x06, 0xbd, 0x24, 0xb5, 0xaa, 0x3c,
  0x21, 0xe1, 0xe8, 0x3c, 0x9c, 0xdc, 0x92, 0xbc, 0xcb, 0xba, 0xaf, 0xbc,
  0x25, 0x67, 0xac, 0xbb, 0x2d, 0xee, 0x4b, 0x3b, 0xb7, 0x5b, 0x7c, 0x3c,
  0xf6, 0xfc, 0xff, 0xff, 0x44, 0x00, 0x00, 0x00, 0x07, 0x00, 0x00, 0x00,
  0x08, 0x00, 0x00, 0x00, 0x40, 0x00, 0x00, 0x00, 0x2e, 0x00, 0x00, 0x00,
  0x73, 0x65, 0x71, 0x75, 0x65, 0x6e, 0x74, 0x69, 0x61, 0x6c, 0x5f, 0x35,
  0x38, 0x2f, 0x64, 0x65, 0x6e, 0x73, 0x65, 0x5f, 0x32, 0x39, 0x36, 0x2f,
  0x42, 0x69, 0x61, 0x73, 0x41, 0x64, 0x64, 0x2f, 0x52, 0x65, 0x61, 0x64,
  0x56, 0x61, 0x72, 0x69, 0x61, 0x62, 0x6c, 0x65, 0x4f, 0x70, 0x00, 0x00,
  0x01, 0x00, 0x00, 0x00, 0x0a, 0x00, 0x00, 0x00, 0x00, 0xfd, 0xff, 0xff,
  0xde, 0xfd, 0xff, 0xff, 0x04, 0x00, 0x00, 0x00, 0x28, 0x00, 0x00, 0x00,
  0xcd, 0x9d, 0xe5, 0x3c, 0x2a, 0x5e, 0x53, 0xbc, 0x33, 0x9b, 0x9e, 0xbc,
  0xeb, 0xb1, 0xa2, 0xbc, 0xe8, 0xa5, 0xd2, 0x3b, 0x3e, 0xdb, 0x94, 0xbc,
  0x9e, 0x08, 0x89, 0xbb, 0x2d, 0x09, 0xc4, 0x3b, 0x46, 0xaf, 0x91, 0xbc,
  0xd5, 0xba, 0x6a, 0xbc, 0x7e, 0xfd, 0xff, 0xff, 0x44, 0x00, 0x00, 0x00,
  0x06, 0x00, 0x00, 0x00, 0x08, 0x00, 0x00, 0x00, 0x40, 0x00, 0x00, 0x00,
  0x2e, 0x00, 0x00, 0x00, 0x73, 0x65, 0x71, 0x75, 0x65, 0x6e, 0x74, 0x69,
  0x61, 0x6c, 0x5f, 0x35, 0x38, 0x2f, 0x64, 0x65, 0x6e, 0x73, 0x65, 0x5f,
  0x32, 0x39, 0x35, 0x2f, 0x42, 0x69, 0x61, 0x73, 0x41, 0x64, 0x64, 0x2f,
  0x52, 0x65, 0x61, 0x64, 0x56, 0x61, 0x72, 0x69, 0x61, 0x62, 0x6c, 0x65,
  0x4f, 0x70, 0x00, 0x00, 0x01, 0x00, 0x00, 0x00, 0x0a, 0x00, 0x00, 0x00,
  0x88, 0xfd, 0xff, 0xff, 0x66, 0xfe, 0xff, 0xff, 0x04, 0x00, 0x00, 0x00,
  0x28, 0x00, 0x00, 0x00, 0x17, 0x75, 0x89, 0xbb, 0xd7, 0x0d, 0xd5, 0x3c,
  0x1e, 0x30, 0xb9, 0xbc, 0x28, 0x77, 0x26, 0x3c, 0xc7, 0x18, 0xbc, 0xbc,
  0x20, 0x2f, 0x03, 0xbd, 0xac, 0x61, 0x1e, 0xbc, 0xd7, 0xc7, 0x79, 0x3c,
  0xf5, 0x04, 0x9b, 0xbc, 0xe4, 0xc9, 0xa8, 0xbb, 0x06, 0xfe, 0xff, 0xff,
  0x44, 0x00, 0x00, 0x00, 0x05, 0x00, 0x00, 0x00, 0x08, 0x00, 0x00, 0x00,
  0x40, 0x00, 0x00, 0x00, 0x2e, 0x00, 0x00, 0x00, 0x73, 0x65, 0x71, 0x75,
  0x65, 0x6e, 0x74, 0x69, 0x61, 0x6c, 0x5f, 0x35, 0x38, 0x2f, 0x64, 0x65,
  0x6e, 0x73, 0x65, 0x5f, 0x32, 0x39, 0x34, 0x2f, 0x42, 0x69, 0x61, 0x73,
  0x41, 0x64, 0x64, 0x2f, 0x52, 0x65, 0x61, 0x64, 0x56, 0x61, 0x72, 0x69,
  0x61, 0x62, 0x6c, 0x65, 0x4f, 0x70, 0x00, 0x00, 0x01, 0x00, 0x00, 0x00,
  0x0a, 0x00, 0x00, 0x00, 0x10, 0xfe, 0xff, 0xff, 0xee, 0xfe, 0xff, 0xff,
  0x04, 0x00, 0x00, 0x00, 0x28, 0x00, 0x00, 0x00, 0xff, 0x17, 0xb9, 0x3c,
  0x90, 0x72, 0xbe, 0x3a, 0x83, 0x78, 0xed, 0xbb, 0x83, 0x6e, 0x8f, 0x3b,
  0x6b, 0xa6, 0xce, 0xbc, 0xe0, 0x1e, 0x70, 0x39, 0xd1, 0x71, 0xea, 0xbc,
  0x67, 0x90, 0x52, 0xb9, 0x27, 0xc7, 0xfa, 0x3c, 0x38, 0x42, 0x4b, 0xbb,
  0x8e, 0xfe, 0xff, 0xff, 0x44, 0x00, 0x00, 0x00, 0x04, 0x00, 0x00, 0x00,
  0x08, 0x00, 0x00, 0x00, 0x40, 0x00, 0x00, 0x00, 0x2e, 0x00, 0x00, 0x00,
  0x73, 0x65, 0x71, 0x75, 0x65, 0x6e, 0x74, 0x69, 0x61, 0x6c, 0x5f, 0x35,
  0x38, 0x2f, 0x64, 0x65, 0x6e, 0x73, 0x65, 0x5f, 0x32, 0x39, 0x33, 0x2f,
  0x42, 0x69, 0x61, 0x73, 0x41, 0x64, 0x64, 0x2f, 0x52, 0x65, 0x61, 0x64,
  0x56, 0x61, 0x72, 0x69, 0x61, 0x62, 0x6c, 0x65, 0x4f, 0x70, 0x00, 0x00,
  0x01, 0x00, 0x00, 0x00, 0x0a, 0x00, 0x00, 0x00, 0x98, 0xfe, 0xff, 0xff,
  0x76, 0xff, 0xff, 0xff, 0x04, 0x00, 0x00, 0x00, 0x28, 0x00, 0x00, 0x00,
  0x0c, 0x61, 0x7f, 0x3b, 0x8d, 0x77, 0xa3, 0xbc, 0x78, 0x21, 0x3d, 0xbc,
  0xa8, 0xd2, 0xad, 0xba, 0xd4, 0x6c, 0xff, 0xbc, 0xa4, 0xe5, 0xba, 0xbc,
  0x3b, 0x07, 0xf3, 0x3c, 0x76, 0xb0, 0x94, 0xbc, 0xb3, 0xcd, 0xd1, 0x3a,
  0xc1, 0x86, 0xcd, 0x3c, 0x16, 0xff, 0xff, 0xff, 0x44, 0x00, 0x00, 0x00,
  0x03, 0x00, 0x00, 0x00, 0x08, 0x00, 0x00, 0x00, 0x40, 0x00, 0x00, 0x00,
  0x2e, 0x00, 0x00, 0x00, 0x73, 0x65, 0x71, 0x75, 0x65, 0x6e, 0x74, 0x69,
  0x61, 0x6c, 0x5f, 0x35, 0x38, 0x2f, 0x64, 0x65, 0x6e, 0x73, 0x65, 0x5f,
  0x32, 0x39, 0x32, 0x2f, 0x42, 0x69, 0x61, 0x73, 0x41, 0x64, 0x64, 0x2f,
  0x52, 0x65, 0x61, 0x64, 0x56, 0x61, 0x72, 0x69, 0x61, 0x62, 0x6c, 0x65,
  0x4f, 0x70, 0x00, 0x00, 0x01, 0x00, 0x00, 0x00, 0x0a, 0x00, 0x00, 0x00,
  0x70, 0xff, 0xff, 0xff, 0x00, 0x00, 0x06, 0x00, 0x08, 0x00, 0x04, 0x00,
  0x06, 0x00, 0x00, 0x00, 0x04, 0x00, 0x00, 0x00, 0x28, 0x00, 0x00, 0x00,
  0x6e, 0x8f, 0x9e, 0xbc, 0x9e, 0x3d, 0x09, 0xbc, 0x8f, 0x48, 0xfc, 0xbc,
  0xc3, 0xf2, 0x11, 0x3d, 0x73, 0xe5, 0x72, 0x3c, 0xbf, 0x56, 0x8d, 0x3b,
  0x08, 0x8e, 0xb7, 0xbb, 0xef, 0x3a, 0x24, 0xbc, 0x1b, 0xf5, 0xf8, 0xbb,
  0x6b, 0x64, 0x66, 0x3c, 0xa6, 0xff, 0xff, 0xff, 0x44, 0x00, 0x00, 0x00,
  0x02, 0x00, 0x00, 0x00, 0x08, 0x00, 0x00, 0x00, 0x44, 0x00, 0x00, 0x00,
  0x2e, 0x00, 0x00, 0x00, 0x73, 0x65, 0x71, 0x75, 0x65, 0x6e, 0x74, 0x69,
  0x61, 0x6c, 0x5f, 0x35, 0x38, 0x2f, 0x64, 0x65, 0x6e, 0x73, 0x65, 0x5f,
  0x32, 0x39, 0x31, 0x2f, 0x42, 0x69, 0x61, 0x73, 0x41, 0x64, 0x64, 0x2f,
  0x52, 0x65, 0x61, 0x64, 0x56, 0x61, 0x72, 0x69, 0x61, 0x62, 0x6c, 0x65,
  0x4f, 0x70, 0x00, 0x00, 0x01, 0x00, 0x00, 0x00, 0x0a, 0x00, 0x00, 0x00,
  0x04, 0x00, 0x06, 0x00, 0x04, 0x00, 0x00, 0x00, 0x00, 0x00, 0x0e, 0x00,
  0x14, 0x00, 0x04, 0x00, 0x00, 0x00, 0x08, 0x00, 0x0c, 0x00, 0x10, 0x00,
  0x0e, 0x00, 0x00, 0x00, 0x24, 0x00, 0x00, 0x00, 0x01, 0x00, 0x00, 0x00,
  0x08, 0x00, 0x00, 0x00, 0x24, 0x00, 0x00, 0x00, 0x0f, 0x00, 0x00, 0x00,
  0x64, 0x65, 0x6e, 0x73, 0x65, 0x5f, 0x32, 0x39, 0x31, 0x5f, 0x69, 0x6e,
  0x70, 0x75, 0x74, 0x00, 0x02, 0x00, 0x00, 0x00, 0x01, 0x00, 0x00, 0x00,
  0x40, 0x00, 0x00, 0x00, 0xfc, 0xff, 0xff, 0xff, 0x04, 0x00, 0x04, 0x00,
  0x04, 0x00, 0x00, 0x00
};
unsigned int g_model_len = 11152;
