unsigned char g_model[] = {
  0x1c, 0x00, 0x00, 0x00, 0x54, 0x46, 0x4c, 0x33, 0x00, 0x00, 0x12, 0x00,
  0x1c, 0x00, 0x04, 0x00, 0x08, 0x00, 0x0c, 0x00, 0x10, 0x00, 0x14, 0x00,
  0x00, 0x00, 0x18, 0x00, 0x12, 0x00, 0x00, 0x00, 0x03, 0x00, 0x00, 0x00,
  0xb4, 0x00, 0x00, 0x00, 0xa8, 0x00, 0x00, 0x00, 0x08, 0x01, 0x00, 0x00,
  0x08, 0x00, 0x00, 0x00, 0xb0, 0x00, 0x00, 0x00, 0x25, 0x00, 0x00, 0x00,
  0xbc, 0x20, 0x00, 0x00, 0xb8, 0x20, 0x00, 0x00, 0xdc, 0x1f, 0x00, 0x00,
  0x48, 0x1f, 0x00, 0x00, 0xbc, 0x1e, 0x00, 0x00, 0x30, 0x1e, 0x00, 0x00,
  0xa4, 0x1d, 0x00, 0x00, 0x18, 0x1d, 0x00, 0x00, 0x8c, 0x1c, 0x00, 0x00,
  0x00, 0x1c, 0x00, 0x00, 0x74, 0x1b, 0x00, 0x00, 0xe8, 0x1a, 0x00, 0x00,
  0x78, 0x1a, 0x00, 0x00, 0x80, 0x19, 0x00, 0x00, 0x98, 0x17, 0x00, 0x00,
  0xb0, 0x15, 0x00, 0x00, 0xc8, 0x13, 0x00, 0x00, 0xe0, 0x11, 0x00, 0x00,
  0xf8, 0x0f, 0x00, 0x00, 0x10, 0x0e, 0x00, 0x00, 0x28, 0x0c, 0x00, 0x00,
  0x40, 0x0a, 0x00, 0x00, 0x58, 0x08, 0x00, 0x00, 0x88, 0x07, 0x00, 0x00,
  0x5c, 0x20, 0x00, 0x00, 0x58, 0x20, 0x00, 0x00, 0x54, 0x20, 0x00, 0x00,
  0x50, 0x20, 0x00, 0x00, 0x4c, 0x20, 0x00, 0x00, 0x48, 0x20, 0x00, 0x00,
  0x44, 0x20, 0x00, 0x00, 0x40, 0x20, 0x00, 0x00, 0x3c, 0x20, 0x00, 0x00,
  0x38, 0x20, 0x00, 0x00, 0x34, 0x20, 0x00, 0x00, 0x30, 0x20, 0x00, 0x00,
  0x4c, 0x00, 0x00, 0x00, 0x01, 0x00, 0x00, 0x00, 0x84, 0x00, 0x00, 0x00,
  0x02, 0x00, 0x00, 0x00, 0xf0, 0x06, 0x00, 0x00, 0xb0, 0x01, 0x00, 0x00,
  0x01, 0x00, 0x00, 0x00, 0x0c, 0x00, 0x00, 0x00, 0x08, 0x00, 0x0c, 0x00,
  0x04, 0x00, 0x08, 0x00, 0x08, 0x00, 0x00, 0x00, 0x08, 0x00, 0x00, 0x00,
  0x24, 0x00, 0x00, 0x00, 0x13, 0x00, 0x00, 0x00, 0x6d, 0x69, 0x6e, 0x5f,
  0x72, 0x75, 0x6e, 0x74, 0x69, 0x6d, 0x65, 0x5f, 0x76, 0x65, 0x72, 0x73,
  0x69, 0x6f, 0x6e, 0x00, 0xfe, 0xe0, 0xff, 0xff, 0x04, 0x00, 0x00, 0x00,
  0x10, 0x00, 0x00, 0x00, 0x31, 0x2e, 0x35, 0x2e, 0x30, 0x00, 0x00, 0x00,
  0x00, 0x00, 0x00, 0x00, 0x00, 0x00, 0x00, 0x00, 0x0f, 0x00, 0x00, 0x00,
  0x4d, 0x4c, 0x49, 0x52, 0x20, 0x43, 0x6f, 0x6e, 0x76, 0x65, 0x72, 0x74,
  0x65, 0x64, 0x2e, 0x00, 0x00, 0x00, 0x0e, 0x00, 0x18, 0x00, 0x04, 0x00,
  0x08, 0x00, 0x0c, 0x00, 0x10, 0x00, 0x14, 0x00, 0x0e, 0x00, 0x00, 0x00,
  0x64, 0x00, 0x00, 0x00, 0x58, 0x00, 0x00, 0x00, 0x4c, 0x00, 0x00, 0x00,
  0x14, 0x00, 0x00, 0x00, 0x04, 0x00, 0x00, 0x00, 0x04, 0x00, 0x00, 0x00,
  0x6d, 0x61, 0x69, 0x6e, 0x00, 0x00, 0x00, 0x00, 0x0c, 0x00, 0x00, 0x00,
  0x10, 0x06, 0x00, 0x00, 0x84, 0x05, 0x00, 0x00, 0x08, 0x05, 0x00, 0x00,
  0x8c, 0x04, 0x00, 0x00, 0x10, 0x04, 0x00, 0x00, 0x94, 0x03, 0x00, 0x00,
  0x18, 0x03, 0x00, 0x00, 0x9c, 0x02, 0x00, 0x00, 0x20, 0x02, 0x00, 0x00,
  0xa4, 0x01, 0x00, 0x00, 0x28, 0x01, 0x00, 0x00, 0xb4, 0x00, 0x00, 0x00,
  0x01, 0x00, 0x00, 0x00, 0x22, 0x00, 0x00, 0x00, 0x01, 0x00, 0x00, 0x00,
  0x00, 0x00, 0x00, 0x00, 0x23, 0x00, 0x00, 0x00, 0xf8, 0x1e, 0x00, 0x00,
  0x8c, 0x1e, 0x00, 0x00, 0xf8, 0x1d, 0x00, 0x00, 0x6c, 0x1d, 0x00, 0x00,
  0xe0, 0x1c, 0x00, 0x00, 0x54, 0x1c, 0x00, 0x00, 0xc8, 0x1b, 0x00, 0x00,
  0x3c, 0x1b, 0x00, 0x00, 0xb0, 0x1a, 0x00, 0x00, 0x24, 0x1a, 0x00, 0x00,
  0x98, 0x19, 0x00, 0x00, 0x0c, 0x19, 0x00, 0x00, 0xa8, 0x18, 0x00, 0x00,
  0xb0, 0x17, 0x00, 0x00, 0xc8, 0x15, 0x00, 0x00, 0xe0, 0x13, 0x00, 0x00,
  0xf8, 0x11, 0x00, 0x00, 0x10, 0x10, 0x00, 0x00, 0x28, 0x0e, 0x00, 0x00,
  0x40, 0x0c, 0x00, 0x00, 0x58, 0x0a, 0x00, 0x00, 0x70, 0x08, 0x00, 0x00,
  0x88, 0x06, 0x00, 0x00, 0xb8, 0x05, 0x00, 0x00, 0x14, 0x05, 0x00, 0x00,
  0x98, 0x04, 0x00, 0x00, 0x1c, 0x04, 0x00, 0x00, 0xa0, 0x03, 0x00, 0x00,
  0x24, 0x03, 0x00, 0x00, 0xa8, 0x02, 0x00, 0x00, 0x2c, 0x02, 0x00, 0x00,
  0xb0, 0x01, 0x00, 0x00, 0x34, 0x01, 0x00, 0x00, 0xb8, 0x00, 0x00, 0x00,
  0x50, 0x00, 0x00, 0x00, 0x00, 0x00, 0x0e, 0x00, 0x18, 0x00, 0x08, 0x00,
  0x0c, 0x00, 0x10, 0x00, 0x07, 0x00, 0x14, 0x00, 0x0e, 0x00, 0x00, 0x00,
  0x00, 0x00, 0x00, 0x09, 0x01, 0x00, 0x00, 0x00, 0x1c, 0x00, 0x00, 0x00,
  0x10, 0x00, 0x00, 0x00, 0x04, 0x00, 0x00, 0x00, 0x5e, 0xe2, 0xff, 0xff,
  0x00, 0x00, 0x80, 0x3f, 0x01, 0x00, 0x00, 0x00, 0x22, 0x00, 0x00, 0x00,
  0x01, 0x00, 0x00, 0x00, 0x21, 0x00, 0x00, 0x00, 0xce, 0xfa, 0xff, 0xff,
  0x00, 0x00, 0x00, 0x19, 0x01, 0x00, 0x00, 0x00, 0xee, 0xe1, 0xff, 0xff,
  0x20, 0x00, 0x00, 0x00, 0x23, 0x00, 0x00, 0x00, 0x08, 0x00, 0x00, 0x00,
  0x20, 0x00, 0x00, 0x00, 0x08, 0x00, 0x00, 0x00, 0x49, 0x64, 0x65, 0x6e,
  0x74, 0x69, 0x74, 0x79, 0x00, 0x00, 0x00, 0x00, 0x02, 0x00, 0x00, 0x00,
  0x01, 0x00, 0x00, 0x00, 0x03, 0x00, 0x00, 0x00, 0xd8, 0xe1, 0xff, 0xff,
  0x4e, 0xfb, 0xff, 0xff, 0x00, 0x00, 0x00, 0x08, 0x18, 0x00, 0x00, 0x00,
  0x0c, 0x00, 0x00, 0x00, 0x04, 0x00, 0x00, 0x00, 0xf0, 0xe1, 0xff, 0xff,
  0x01, 0x00, 0x00, 0x00, 0x21, 0x00, 0x00, 0x00, 0x03, 0x00, 0x00, 0x00,
  0x20, 0x00, 0x00, 0x00, 0x16, 0x00, 0x00, 0x00, 0x0b, 0x00, 0x00, 0x00,
  0x52, 0xe2, 0xff, 0xff, 0x34, 0x00, 0x00, 0x00, 0x22, 0x00, 0x00, 0x00,
  0x08, 0x00, 0x00, 0x00, 0x34, 0x00, 0x00, 0x00, 0x1f, 0x00, 0x00, 0x00,
  0x73, 0x65, 0x71, 0x75, 0x65, 0x6e, 0x74, 0x69, 0x61, 0x6c, 0x5f, 0x35,
  0x35, 0x2f, 0x64, 0x65, 0x6e, 0x73, 0x65, 0x5f, 0x32, 0x36, 0x38, 0x2f,
  0x42, 0x69, 0x61, 0x73, 0x41, 0x64, 0x64, 0x00, 0x02, 0x00, 0x00, 0x00,
  0x01, 0x00, 0x00, 0x00, 0x03, 0x00, 0x00, 0x00, 0x50, 0xe2, 0xff, 0xff,
  0xc6, 0xfb, 0xff, 0xff, 0x00, 0x00, 0x00, 0x08, 0x18, 0x00, 0x00, 0x00,
  0x0c, 0x00, 0x00, 0x00, 0x04, 0x00, 0x00, 0x00, 0x68, 0xe2, 0xff, 0xff,
  0x01, 0x00, 0x00, 0x00, 0x20, 0x00, 0x00, 0x00, 0x03, 0x00, 0x00, 0x00,
  0x1f, 0x00, 0x00, 0x00, 0x15, 0x00, 0x00, 0x00, 0x0a, 0x00, 0x00, 0x00,
  0xca, 0xe2, 0xff, 0xff, 0x34, 0x00, 0x00, 0x00, 0x21, 0x00, 0x00, 0x00,
  0x08, 0x00, 0x00, 0x00, 0x34, 0x00, 0x00, 0x00, 0x1f, 0x00, 0x00, 0x00,
  0x73, 0x65, 0x71, 0x75, 0x65, 0x6e, 0x74, 0x69, 0x61, 0x6c, 0x5f, 0x35,
  0x35, 0x2f, 0x64, 0x65, 0x6e, 0x73, 0x65, 0x5f, 0x32, 0x36, 0x37, 0x2f,
  0x42, 0x69, 0x61, 0x73, 0x41, 0x64, 0x64, 0x00, 0x02, 0x00, 0x00, 0x00,
  0x01, 0x00, 0x00, 0x00, 0x0a, 0x00, 0x00, 0x00, 0xc8, 0xe2, 0xff, 0xff,
  0x3e, 0xfc, 0xff, 0xff, 0x00, 0x00, 0x00, 0x08, 0x18, 0x00, 0x00, 0x00,
  0x0c, 0x00, 0x00, 0x00, 0x04, 0x00, 0x00, 0x00, 0xe0, 0xe2, 0xff, 0xff,
  0x01, 0x00, 0x00, 0x00, 0x1f, 0x00, 0x00, 0x00, 0x03, 0x00, 0x00, 0x00,
  0x1e, 0x00, 0x00, 0x00, 0x14, 0x00, 0x00, 0x00, 0x09, 0x00, 0x00, 0x00,
  0x42, 0xe3, 0xff, 0xff, 0x34, 0x00, 0x00, 0x00, 0x20, 0x00, 0x00, 0x00,
  0x08, 0x00, 0x00, 0x00, 0x34, 0x00, 0x00, 0x00, 0x1f, 0x00, 0x00, 0x00,
  0x73, 0x65, 0x71, 0x75, 0x65, 0x6e, 0x74, 0x69, 0x61, 0x6c, 0x5f, 0x35,
  0x35, 0x2f, 0x64, 0x65, 0x6e, 0x73, 0x65, 0x5f, 0x32, 0x36, 0x36, 0x2f,
  0x42, 0x69, 0x61, 0x73, 0x41, 0x64, 0x64, 0x00, 0x02, 0x00, 0x00, 0x00,
  0x01, 0x00, 0x00, 0x00, 0x0a, 0x00, 0x00, 0x00, 0x40, 0xe3, 0xff, 0xff,
  0xb6, 0xfc, 0xff, 0xff, 0x00, 0x00, 0x00, 0x08, 0x18, 0x00, 0x00, 0x00,
  0x0c, 0x00, 0x00, 0x00, 0x04, 0x00, 0x00, 0x00, 0x58, 0xe3, 0xff, 0xff,
  0x01, 0x00, 0x00, 0x00, 0x1e, 0x00, 0x00, 0x00, 0x03, 0x00, 0x00, 0x00,
  0x1d, 0x00, 0x00, 0x00, 0x13, 0x00, 0x00, 0x00, 0x08, 0x00, 0x00, 0x00,
  0xba, 0xe3, 0xff, 0xff, 0x34, 0x00, 0x00, 0x00, 0x1f, 0x00, 0x00, 0x00,
  0x08, 0x00, 0x00, 0x00, 0x34, 0x00, 0x00, 0x00, 0x1f, 0x00, 0x00, 0x00,
  0x73, 0x65, 0x71, 0x75, 0x65, 0x6e, 0x74, 0x69, 0x61, 0x6c, 0x5f, 0x35,
  0x35, 0x2f, 0x64, 0x65, 0x6e, 0x73, 0x65, 0x5f, 0x32, 0x36, 0x35, 0x2f,
  0x42, 0x69, 0x61, 0x73, 0x41, 0x64, 0x64, 0x00, 0x02, 0x00, 0x00, 0x00,
  0x01, 0x00, 0x00, 0x00, 0x0a, 0x00, 0x00, 0x00, 0xb8, 0xe3, 0xff, 0xff,
  0x2e, 0xfd, 0xff, 0xff, 0x00, 0x00, 0x00, 0x08, 0x18, 0x00, 0x00, 0x00,
  0x0c, 0x00, 0x00, 0x00, 0x04, 0x00, 0x00, 0x00, 0xd0, 0xe3, 0xff, 0xff,
  0x01, 0x00, 0x00, 0x00, 0x1d, 0x00, 0x00, 0x00, 0x03, 0x00, 0x00, 0x00,
  0x1c, 0x00, 0x00, 0x00, 0x12, 0x00, 0x00, 0x00, 0x07, 0x00, 0x00, 0x00,
  0x32, 0xe4, 0xff, 0xff, 0x34, 0x00, 0x00, 0x00, 0x1e, 0x00, 0x00, 0x00,
  0x08, 0x00, 0x00, 0x00, 0x34, 0x00, 0x00, 0x00, 0x1f, 0x00, 0x00, 0x00,
  0x73, 0x65, 0x71, 0x75, 0x65, 0x6e, 0x74, 0x69, 0x61, 0x6c, 0x5f, 0x35,
  0x35, 0x2f, 0x64, 0x65, 0x6e, 0x73, 0x65, 0x5f, 0x32, 0x36, 0x34, 0x2f,
  0x42, 0x69, 0x61, 0x73, 0x41, 0x64, 0x64, 0x00, 0x02, 0x00, 0x00, 0x00,
  0x01, 0x00, 0x00, 0x00, 0x0a, 0x00, 0x00, 0x00, 0x30, 0xe4, 0xff, 0xff,
  0xa6, 0xfd, 0xff, 0xff, 0x00, 0x00, 0x00, 0x08, 0x18, 0x00, 0x00, 0x00,
  0x0c, 0x00, 0x00, 0x00, 0x04, 0x00, 0x00, 0x00, 0x48, 0xe4, 0xff, 0xff,
  0x01, 0x00, 0x00, 0x00, 0x1c, 0x00, 0x00, 0x00, 0x03, 0x00, 0x00, 0x00,
  0x1b, 0x00, 0x00, 0x00, 0x11, 0x00, 0x00, 0x00, 0x06, 0x00, 0x00, 0x00,
  0xaa, 0xe4, 0xff, 0xff, 0x34, 0x00, 0x00, 0x00, 0x1d, 0x00, 0x00, 0x00,
  0x08, 0x00, 0x00, 0x00, 0x34, 0x00, 0x00, 0x00, 0x1f, 0x00, 0x00, 0x00,
  0x73, 0x65, 0x71, 0x75, 0x65, 0x6e, 0x74, 0x69, 0x61, 0x6c, 0x5f, 0x35,
  0x35, 0x2f, 0x64, 0x65, 0x6e, 0x73, 0x65, 0x5f, 0x32, 0x36, 0x33, 0x2f,
  0x42, 0x69, 0x61, 0x73, 0x41, 0x64, 0x64, 0x00, 0x02, 0x00, 0x00, 0x00,
  0x01, 0x00, 0x00, 0x00, 0x0a, 0x00, 0x00, 0x00, 0xa8, 0xe4, 0xff, 0xff,
  0x1e, 0xfe, 0xff, 0xff, 0x00, 0x00, 0x00, 0x08, 0x18, 0x00, 0x00, 0x00,
  0x0c, 0x00, 0x00, 0x00, 0x04, 0x00, 0x00, 0x00, 0xc0, 0xe4, 0xff, 0xff,
  0x01, 0x00, 0x00, 0x00, 0x1b, 0x00, 0x00, 0x00, 0x03, 0x00, 0x00, 0x00,
  0x1a, 0x00, 0x00, 0x00, 0x10, 0x00, 0x00, 0x00, 0x05, 0x00, 0x00, 0x00,
  0x22, 0xe5, 0xff, 0xff, 0x34, 0x00, 0x00, 0x00, 0x1c, 0x00, 0x00, 0x00,
  0x08, 0x00, 0x00, 0x00, 0x34, 0x00, 0x00, 0x00, 0x1f, 0x00, 0x00, 0x00,
  0x73, 0x65, 0x71, 0x75, 0x65, 0x6e, 0x74, 0x69, 0x61, 0x6c, 0x5f, 0x35,
  0x35, 0x2f, 0x64, 0x65, 0x6e, 0x73, 0x65, 0x5f, 0x32, 0x36, 0x32, 0x2f,
  0x42, 0x69, 0x61, 0x73, 0x41, 0x64, 0x64, 0x00, 0x02, 0x00, 0x00, 0x00,
  0x01, 0x00, 0x00, 0x00, 0x0a, 0x00, 0x00, 0x00, 0x20, 0xe5, 0xff, 0xff,
  0x96, 0xfe, 0xff, 0xff, 0x00, 0x00, 0x00, 0x08, 0x18, 0x00, 0x00, 0x00,
  0x0c, 0x00, 0x00, 0x00, 0x04, 0x00, 0x00, 0x00, 0x38, 0xe5, 0xff, 0xff,
  0x01, 0x00, 0x00, 0x00, 0x1a, 0x00, 0x00, 0x00, 0x03, 0x00, 0x00, 0x00,
  0x19, 0x00, 0x00, 0x00, 0x0f, 0x00, 0x00, 0x00, 0x04, 0x00, 0x00, 0x00,
  0x9a, 0xe5, 0xff, 0xff, 0x34, 0x00, 0x00, 0x00, 0x1b, 0x00, 0x00, 0x00,
  0x08, 0x00, 0x00, 0x00, 0x34, 0x00, 0x00, 0x00, 0x1f, 0x00, 0x00, 0x00,
  0x73, 0x65, 0x71, 0x75, 0x65, 0x6e, 0x74, 0x69, 0x61, 0x6c, 0x5f, 0x35,
  0x35, 0x2f, 0x64, 0x65, 0x6e, 0x73, 0x65, 0x5f, 0x32, 0x36, 0x31, 0x2f,
  0x42, 0x69, 0x61, 0x73, 0x41, 0x64, 0x64, 0x00, 0x02, 0x00, 0x00, 0x00,
  0x01, 0x00, 0x00, 0x00, 0x0a, 0x00, 0x00, 0x00, 0x98, 0xe5, 0xff, 0xff,
  0x0e, 0xff, 0xff, 0xff, 0x00, 0x00, 0x00, 0x08, 0x18, 0x00, 0x00, 0x00,
  0x0c, 0x00, 0x00, 0x00, 0x04, 0x00, 0x00, 0x00, 0xb0, 0xe5, 0xff, 0xff,
  0x01, 0x00, 0x00, 0x00, 0x19, 0x00, 0x00, 0x00, 0x03, 0x00, 0x00, 0x00,
  0x18, 0x00, 0x00, 0x00, 0x0e, 0x00, 0x00, 0x00, 0x03, 0x00, 0x00, 0x00,
  0x12, 0xe6, 0xff, 0xff, 0x34, 0x00, 0x00, 0x00, 0x1a, 0x00, 0x00, 0x00,
  0x08, 0x00, 0x00, 0x00, 0x34, 0x00, 0x00, 0x00, 0x1f, 0x00, 0x00, 0x00,
  0x73, 0x65, 0x71, 0x75, 0x65, 0x6e, 0x74, 0x69, 0x61, 0x6c, 0x5f, 0x35,
  0x35, 0x2f, 0x64, 0x65, 0x6e, 0x73, 0x65, 0x5f, 0x32, 0x36, 0x30, 0x2f,
  0x42, 0x69, 0x61, 0x73, 0x41, 0x64, 0x64, 0x00, 0x02, 0x00, 0x00, 0x00,
  0x01, 0x00, 0x00, 0x00, 0x0a, 0x00, 0x00, 0x00, 0x10, 0xe6, 0xff, 0xff,
  0x86, 0xff, 0xff, 0xff, 0x00, 0x00, 0x00, 0x08, 0x18, 0x00, 0x00, 0x00,
  0x0c, 0x00, 0x00, 0x00, 0x04, 0x00, 0x00, 0x00, 0x28, 0xe6, 0xff, 0xff,
  0x01, 0x00, 0x00, 0x00, 0x18, 0x00, 0x00, 0x00, 0x03, 0x00, 0x00, 0x00,
  0x17, 0x00, 0x00, 0x00, 0x0d, 0x00, 0x00, 0x00, 0x02, 0x00, 0x00, 0x00,
  0x8a, 0xe6, 0xff, 0xff, 0x34, 0x00, 0x00, 0x00, 0x19, 0x00, 0x00, 0x00,
  0x08, 0x00, 0x00, 0x00, 0x34, 0x00, 0x00, 0x00, 0x1f, 0x00, 0x00, 0x00,
  0x73, 0x65, 0x71, 0x75, 0x65, 0x6e, 0x74, 0x69, 0x61, 0x6c, 0x5f, 0x35,
  0x35, 0x2f, 0x64, 0x65, 0x6e, 0x73, 0x65, 0x5f, 0x32, 0x35, 0x39, 0x2f,
  0x42, 0x69, 0x61, 0x73, 0x41, 0x64, 0x64, 0x00, 0x02, 0x00, 0x00, 0x00,
  0x01, 0x00, 0x00, 0x00, 0x0a, 0x00, 0x00, 0x00, 0xd8, 0xe6, 0xff, 0xff,
  0x00, 0x00, 0x0e, 0x00, 0x14, 0x00, 0x00, 0x00, 0x08, 0x00, 0x0c, 0x00,
  0x07, 0x00, 0x10, 0x00, 0x0e, 0x00, 0x00, 0x00, 0x00, 0x00, 0x00, 0x08,
  0x18, 0x00, 0x00, 0x00, 0x0c, 0x00, 0x00, 0x00, 0x04, 0x00, 0x00, 0x00,
  0xb0, 0xe6, 0xff, 0xff, 0x01, 0x00, 0x00, 0x00, 0x17, 0x00, 0x00, 0x00,
  0x03, 0x00, 0x00, 0x00, 0x00, 0x00, 0x00, 0x00, 0x0c, 0x00, 0x00, 0x00,
  0x01, 0x00, 0x00, 0x00, 0x00, 0x00, 0x0a, 0x00, 0x0c, 0x00, 0x07, 0x00,
  0x00, 0x00, 0x08, 0x00, 0x0a, 0x00, 0x00, 0x00, 0x00, 0x00, 0x00, 0x09,
  0x01, 0x00, 0x00, 0x00, 0x2a, 0xe7, 0xff, 0xff, 0x34, 0x00, 0x00, 0x00,
  0x18, 0x00, 0x00, 0x00, 0x08, 0x00, 0x00, 0x00, 0x34, 0x00, 0x00, 0x00,
  0x1f, 0x00, 0x00, 0x00, 0x73, 0x65, 0x71, 0x75, 0x65, 0x6e, 0x74, 0x69,
  0x61, 0x6c, 0x5f, 0x35, 0x35, 0x2f, 0x64, 0x65, 0x6e, 0x73, 0x65, 0x5f,
  0x32, 0x35, 0x38, 0x2f, 0x42, 0x69, 0x61, 0x73, 0x41, 0x64, 0x64, 0x00,
  0x02, 0x00, 0x00, 0x00, 0x01, 0x00, 0x00, 0x00, 0x0a, 0x00, 0x00, 0x00,
  0x28, 0xe7, 0xff, 0xff, 0x06, 0xe8, 0xff, 0xff, 0x04, 0x00, 0x00, 0x00,
  0x78, 0x00, 0x00, 0x00, 0x6e, 0x5c, 0x7b, 0x3c, 0xf4, 0xb4, 0x85, 0x3e,
  0x90, 0xf3, 0x84, 0x3e, 0xbb, 0xd7, 0xc0, 0xbe, 0x48, 0xe1, 0x04, 0xbf,
  0x8e, 0xe2, 0x1d, 0xbf, 0xd4, 0x8b, 0x28, 0x3e, 0x27, 0x55, 0x1f, 0xbf,
  0xb7, 0x2b, 0xb6, 0xbe, 0x17, 0x14, 0xe3, 0x3d, 0x51, 0xc0, 0xa3, 0x3e,
  0xd0, 0xf0, 0xbb, 0xbe, 0x5a, 0xb1, 0xdf, 0xbe, 0xab, 0xf6, 0x12, 0xbf,
  0x2b, 0x81, 0x0a, 0x3f, 0x6a, 0x8f, 0xa4, 0x3e, 0x7e, 0xfc, 0xd3, 0xbe,
  0x76, 0x41, 0xe3, 0xbe, 0xd2, 0xec, 0x23, 0x3f, 0x03, 0xbd, 0x2d, 0xbe,
  0x71, 0x91, 0x9e, 0xbe, 0x2f, 0xd1, 0x8b, 0x3e, 0x40, 0x8a, 0xbf, 0x3e,
  0xc8, 0x98, 0xa6, 0xbe, 0xab, 0xb9, 0x8d, 0x3e, 0x6d, 0x0e, 0x19, 0x3f,
  0xf3, 0x4b, 0x09, 0x3f, 0x36, 0xc9, 0x1a, 0xbf, 0xbe, 0xee, 0x00, 0xbe,
  0x9b, 0xac, 0x6e, 0x3e, 0xf6, 0xe7, 0xff, 0xff, 0x34, 0x00, 0x00, 0x00,
  0x17, 0x00, 0x00, 0x00, 0x08, 0x00, 0x00, 0x00, 0x34, 0x00, 0x00, 0x00,
  0x1e, 0x00, 0x00, 0x00, 0x73, 0x65, 0x71, 0x75, 0x65, 0x6e, 0x74, 0x69,
  0x61, 0x6c, 0x5f, 0x35, 0x35, 0x2f, 0x64, 0x65, 0x6e, 0x73, 0x65, 0x5f,
  0x32, 0x36, 0x38, 0x2f, 0x4d, 0x61, 0x74, 0x4d, 0x75, 0x6c, 0x00, 0x00,
  0x02, 0x00, 0x00, 0x00, 0x03, 0x00, 0x00, 0x00, 0x0a, 0x00, 0x00, 0x00,
  0xf4, 0xe7, 0xff, 0xff, 0xd2, 0xe8, 0xff, 0xff, 0x04, 0x00, 0x00, 0x00,
  0x90, 0x01, 0x00, 0x00, 0x3e, 0x77, 0xd0, 0x3d, 0x48, 0x32, 0x8f, 0xbe,
  0xde, 0xb6, 0x07, 0xbf, 0x76, 0x7c, 0x92, 0x3e, 0xe1, 0x66, 0xa8, 0x3e,
  0xf1, 0x24, 0x89, 0xbc, 0xa8, 0xb9, 0x36, 0x3e, 0xb3, 0x0a, 0xe9, 0xbe,
  0xf0, 0x25, 0x1d, 0x3e, 0x94, 0xf5, 0xf5, 0xbe, 0x4a, 0xba, 0xe9, 0xbc,
  0x1b, 0x45, 0x61, 0xbe, 0x01, 0x7e, 0x56, 0x3e, 0xc2, 0xed, 0xf9, 0xbe,
  0xba, 0x39, 0xf9, 0xbe, 0xbd, 0xbf, 0xb8, 0x3e, 0x04, 0x47, 0xb1, 0x3e,
  0x1c, 0xf2, 0x69, 0x3e, 0x72, 0x1b, 0x25, 0xbe, 0xdf, 0x7f, 0xf0, 0xbe,
  0xdd, 0xb7, 0x88, 0x3e, 0x9e, 0x40, 0xd9, 0x3e, 0xe7, 0x48, 0x8b, 0xbe,
  0xb9, 0x6f, 0x8b, 0xbd, 0x1f, 0x43, 0x9f, 0x3e, 0xcc, 0xde, 0x67, 0x3c,
  0x29, 0x2b, 0x52, 0xbe, 0x60, 0xc9, 0x92, 0xbc, 0x6c, 0x25, 0x53, 0xbe,
  0xee, 0x20, 0x86, 0x3e, 0x3a, 0x5e, 0x01, 0x3f, 0x60, 0x82, 0x7e, 0xbe,
  0x21, 0x76, 0x00, 0xbf, 0xd0, 0x6e, 0xbf, 0xbe, 0xb7, 0xe1, 0xfa, 0xbc,
  0x98, 0xc4, 0x21, 0x3e, 0xa0, 0xca, 0xdb, 0x3e, 0x32, 0x3c, 0x85, 0x3e,
  0xa7, 0xd2, 0xd2, 0xbe, 0x39, 0x98, 0x4e, 0x3e, 0x82, 0x47, 0x13, 0x3e,
  0x3f, 0x64, 0xeb, 0x3e, 0x47, 0x64, 0x58, 0x3e, 0x32, 0x92, 0x20, 0x3e,
  0x66, 0xc8, 0xc1, 0xbe, 0xef, 0xa8, 0x2a, 0xbc, 0x4f, 0xf8, 0x57, 0x3e,
  0x23, 0x65, 0xdf, 0x3d, 0xbf, 0x75, 0x0a, 0xbd, 0x54, 0xaf, 0xd6, 0x3e,
  0x7a, 0x09, 0x80, 0x3e, 0xdd, 0x33, 0x71, 0xbe, 0x5f, 0x33, 0x02, 0x3f,
  0x1d, 0xb0, 0xfa, 0xbe, 0x60, 0x2b, 0xf4, 0xbe, 0xef, 0xe1, 0x0e, 0x3e,
  0x03, 0x8b, 0x13, 0xbe, 0x02, 0xed, 0xa9, 0x3e, 0xed, 0xa6, 0x8f, 0x3e,
  0xbc, 0x2e, 0x98, 0xbe, 0xa5, 0xda, 0xfb, 0x3d, 0xe2, 0x1a, 0xe8, 0xbd,
  0x0c, 0x06, 0x01, 0x3f, 0x54, 0x6e, 0xce, 0xbe, 0x62, 0x7c, 0x09, 0xbf,
  0x4f, 0x26, 0x0d, 0xbe, 0x1e, 0xa8, 0xe5, 0xbe, 0x1b, 0x36, 0xb1, 0xbe,
  0xff, 0xa6, 0x67, 0x3e, 0x0a, 0x9b, 0xbb, 0x3e, 0xb6, 0xb6, 0xcc, 0xbe,
  0x7f, 0x77, 0x95, 0x3d, 0xa4, 0xcb, 0x38, 0xbe, 0x19, 0x2e, 0x3d, 0x3e,
  0x3c, 0x4e, 0x89, 0xbe, 0x70, 0x84, 0xa2, 0xbe, 0xcc, 0xcf, 0x8e, 0xbe,
  0xde, 0x1e, 0xb5, 0xbe, 0xfd, 0xf7, 0xf4, 0xbe, 0xa6, 0xaf, 0xc9, 0xbe,
  0xf8, 0x90, 0x00, 0xbf, 0xf1, 0x3a, 0x4a, 0x3d, 0xfc, 0x5f, 0x4c, 0x3e,
  0x38, 0xec, 0xc1, 0x3e, 0x01, 0xed, 0x37, 0x3e, 0x26, 0x2c, 0x19, 0x3b,
  0x35, 0xcc, 0x31, 0x3e, 0xb0, 0x42, 0x01, 0xbf, 0x55, 0xcb, 0x70, 0x3e,
  0x79, 0xeb, 0x39, 0xbe, 0xb2, 0x6d, 0xed, 0x3c, 0x4f, 0xf7, 0x7d, 0xbe,
  0xc7, 0x09, 0xfd, 0xbe, 0x68, 0x35, 0x04, 0xbf, 0x61, 0xe8, 0x3f, 0xbd,
  0x21, 0x6a, 0x97, 0xbe, 0x9c, 0xac, 0x65, 0xbe, 0x33, 0x93, 0x06, 0xbf,
  0x1a, 0x18, 0x04, 0xbf, 0x70, 0x00, 0xe8, 0x3e, 0xda, 0xe9, 0xff, 0xff,
  0x34, 0x00, 0x00, 0x00, 0x16, 0x00, 0x00, 0x00, 0x08, 0x00, 0x00, 0x00,
  0x34, 0x00, 0x00, 0x00, 0x1e, 0x00, 0x00, 0x00, 0x73, 0x65, 0x71, 0x75,
  0x65, 0x6e, 0x74, 0x69, 0x61, 0x6c, 0x5f, 0x35, 0x35, 0x2f, 0x64, 0x65,
  0x6e, 0x73, 0x65, 0x5f, 0x32, 0x36, 0x37, 0x2f, 0x4d, 0x61, 0x74, 0x4d,
  0x75, 0x6c, 0x00, 0x00, 0x02, 0x00, 0x00, 0x00, 0x0a, 0x00, 0x00, 0x00,
  0x0a, 0x00, 0x00, 0x00, 0xd8, 0xe9, 0xff, 0xff, 0xb6, 0xea, 0xff, 0xff,
  0x04, 0x00, 0x00, 0x00, 0x90, 0x01, 0x00, 0x00, 0x72, 0x1d, 0x32, 0xbe,
  0x71, 0xe4, 0xee, 0xbe, 0x02, 0xbe, 0xb7, 0x3e, 0x09, 0x8d, 0x8a, 0xbd,
  0x86, 0xe8, 0x22, 0xbd, 0xb3, 0x7c, 0x82, 0x3d, 0x9d, 0xad, 0xc3, 0xbe,
  0xc7, 0x2f, 0x8e, 0xbd, 0xa3, 0xe1, 0xeb, 0xbc, 0x08, 0xdf, 0xe6, 0x3e,
  0x74, 0xf2, 0x18, 0xbe, 0xb9, 0x12, 0x0a, 0x3e, 0xfd, 0xfa, 0xd4, 0x3e,
  0xec, 0xf7, 0x85, 0xbe, 0xe6, 0x7d, 0xc7, 0x3e, 0x55, 0x8e, 0x01, 0xbe,
  0x99, 0x0d, 0xdd, 0xbe, 0xca, 0x4e, 0x21, 0xbe, 0xe4, 0xb3, 0xcb, 0x3e,
  0xf7, 0xea, 0x87, 0xbe, 0xdc, 0xf0, 0x2a, 0xbe, 0x0f, 0x4a, 0xda, 0xbe,
  0x83, 0x29, 0x4e, 0xbe, 0xa7, 0xfa, 0xe8, 0x3d, 0xfe, 0x17, 0x97, 0xbe,
  0x55, 0x05, 0x08, 0x3f, 0x2d, 0x72, 0x32, 0x3d, 0xda, 0x91, 0xbb, 0x3e,
  0x90, 0x69, 0xb6, 0xbe, 0xc2, 0xbc, 0xa1, 0xbc, 0xdb, 0xb2, 0xa3, 0x3e,
  0x20, 0x4f, 0x02, 0xbf, 0x18, 0x81, 0xaa, 0xbe, 0xc9, 0xdf, 0x92, 0x3d,
  0x2a, 0xad, 0xf4, 0x3e, 0x20, 0x10, 0xa7, 0xbe, 0x31, 0x8a, 0x27, 0xbe,
  0x3f, 0x83, 0xae, 0x3c, 0x05, 0x35, 0x10, 0x3e, 0xd5, 0xac, 0x08, 0x3f,
  0xc9, 0xc5, 0xee, 0xbd, 0x12, 0x01, 0xf8, 0x3e, 0x09, 0x97, 0xf3, 0xbe,
  0x7d, 0x61, 0x13, 0x3e, 0x2a, 0x7b, 0xf5, 0x3e, 0x16, 0x05, 0x9f, 0xbe,
  0x5d, 0x00, 0xb2, 0x3e, 0x44, 0xa0, 0xc0, 0x3d, 0xf6, 0xaf, 0x81, 0x3e,
  0xab, 0x94, 0x5f, 0xbe, 0xc9, 0x2c, 0xbb, 0xbe, 0x9a, 0xf5, 0xb2, 0xbc,
  0x33, 0xfb, 0xc2, 0x3e, 0xd0, 0xca, 0xcd, 0xbd, 0xeb, 0x83, 0xcb, 0xbe,
  0x86, 0x31, 0xca, 0x3e, 0xac, 0xa7, 0xd5, 0xbe, 0xc0, 0xd4, 0x80, 0xbe,
  0x7a, 0x67, 0xf0, 0x3d, 0x22, 0xef, 0xc9, 0xbd, 0x59, 0x96, 0x2c, 0x3d,
  0x74, 0x26, 0x03, 0x3f, 0xed, 0x30, 0xc5, 0xbe, 0x8a, 0xe2, 0x41, 0xbe,
  0xf4, 0xfa, 0xc8, 0xbd, 0x85, 0x8e, 0xb8, 0x3e, 0x6e, 0x76, 0xec, 0xbd,
  0x5a, 0x51, 0xa3, 0x3c, 0xfd, 0x78, 0xf9, 0xbc, 0x47, 0x0b, 0xe5, 0x3e,
  0x33, 0xa1, 0x97, 0x3d, 0xa0, 0xbc, 0x84, 0xbe, 0xcc, 0x7a, 0x9f, 0x3e,
  0x9c, 0x53, 0x55, 0xbe, 0x40, 0x04, 0xf1, 0xbe, 0x18, 0xae, 0x31, 0x3e,
  0xf4, 0xbc, 0x32, 0xbe, 0xa5, 0xdc, 0x93, 0xbe, 0x4f, 0xa5, 0xc8, 0xbe,
  0xdd, 0xc1, 0x11, 0xbe, 0x2a, 0x4a, 0xd6, 0xbe, 0x03, 0xf7, 0x23, 0x3e,
  0x6f, 0x36, 0x8c, 0x3e, 0xa7, 0x24, 0x04, 0xbd, 0xf1, 0xdd, 0x70, 0x3e,
  0xb5, 0x8d, 0xa9, 0x3c, 0x05, 0x14, 0xf9, 0xbd, 0xc1, 0xe3, 0xc1, 0xbe,
  0xae, 0x68, 0x5b, 0x3e, 0xb1, 0x19, 0xbf, 0x3e, 0x8b, 0xcb, 0xbf, 0x3e,
  0xa0, 0xaf, 0x8a, 0xbe, 0x5b, 0x4b, 0x8a, 0xbd, 0x70, 0xc3, 0x8c, 0x3e,
  0x32, 0x58, 0xea, 0xbe, 0x2b, 0xc3, 0x82, 0x3c, 0xd6, 0xc2, 0xfa, 0xbe,
  0x8c, 0xb1, 0xf5, 0xbe, 0x47, 0x80, 0x87, 0xbe, 0x29, 0x43, 0x2a, 0xbe,
  0xbe, 0xeb, 0xff, 0xff, 0x34, 0x00, 0x00, 0x00, 0x15, 0x00, 0x00, 0x00,
  0x08, 0x00, 0x00, 0x00, 0x34, 0x00, 0x00, 0x00, 0x1e, 0x00, 0x00, 0x00,
  0x73, 0x65, 0x71, 0x75, 0x65, 0x6e, 0x74, 0x69, 0x61, 0x6c, 0x5f, 0x35,
  0x35, 0x2f, 0x64, 0x65, 0x6e, 0x73, 0x65, 0x5f, 0x32, 0x36, 0x36, 0x2f,
  0x4d, 0x61, 0x74, 0x4d, 0x75, 0x6c, 0x00, 0x00, 0x02, 0x00, 0x00, 0x00,
  0x0a, 0x00, 0x00, 0x00, 0x0a, 0x00, 0x00, 0x00, 0xbc, 0xeb, 0xff, 0xff,
  0x9a, 0xec, 0xff, 0xff, 0x04, 0x00, 0x00, 0x00, 0x90, 0x01, 0x00, 0x00,
  0x12, 0x12, 0xf8, 0xbd, 0xc2, 0x31, 0xb9, 0xbc, 0xdd, 0x11, 0xe2, 0x3e,
  0x27, 0xf6, 0xa9, 0xbe, 0x6f, 0x2e, 0xdd, 0x3e, 0xad, 0x1c, 0xd1, 0xbe,
  0x37, 0x4b, 0xf3, 0xbe, 0xeb, 0x45, 0xdf, 0xbe, 0x10, 0x7d, 0xaf, 0xbe,
  0x6c, 0x2e, 0x2c, 0x3e, 0xb8, 0xf4, 0xb4, 0xbe, 0x5b, 0x7f, 0x82, 0xbe,
  0x58, 0xd4, 0xc8, 0x3d, 0xcc, 0xde, 0x7d, 0x3c, 0xf4, 0x17, 0xe7, 0xbe,
  0x62, 0x57, 0x23, 0xbe, 0x12, 0xc5, 0x9b, 0xbe, 0x1a, 0xa3, 0x7a, 0x3e,
  0x9f, 0x41, 0x1c, 0x3e, 0x97, 0x0d, 0x72, 0xbd, 0x07, 0x8b, 0x66, 0x3e,
  0x53, 0xa0, 0x67, 0xbd, 0xad, 0xbd, 0xa7, 0xbe, 0xc2, 0xc3, 0x1a, 0x3e,
  0xba, 0x5c, 0xe6, 0x3e, 0xe0, 0x2e, 0xfc, 0xbe, 0xf0, 0x16, 0xe9, 0x3e,
  0xf9, 0x93, 0x95, 0xbe, 0x37, 0x03, 0xd9, 0x3e, 0x12, 0x30, 0x05, 0x3f,
  0x13, 0x1c, 0x0f, 0x3e, 0x09, 0x21, 0xd4, 0xbe, 0x6f, 0x16, 0x58, 0xbc,
  0x6a, 0x83, 0xaa, 0x3d, 0xec, 0xe3, 0xaa, 0x3e, 0x66, 0xff, 0x66, 0x3e,
  0xf1, 0xc6, 0xb8, 0xbd, 0xcb, 0x07, 0xb0, 0x3d, 0x88, 0x51, 0x76, 0xbd,
  0x93, 0x9d, 0x4a, 0x3d, 0xfe, 0x3a, 0x9a, 0x3e, 0xc8, 0xa8, 0x78, 0x3e,
  0xec, 0x76, 0x8e, 0xbe, 0xdb, 0x25, 0x00, 0x3f, 0x8d, 0x70, 0x1c, 0xbe,
  0xfb, 0x2d, 0x38, 0x3e, 0xc3, 0xc7, 0x41, 0xbe, 0x12, 0xe1, 0x97, 0xbe,
  0x51, 0x47, 0x09, 0xbf, 0x42, 0xfc, 0xcd, 0x3d, 0x1d, 0x5a, 0x60, 0xbe,
  0x40, 0xe5, 0xdf, 0x3e, 0xc3, 0x4f, 0x9b, 0x3e, 0x6c, 0x4c, 0xbf, 0xbe,
  0x64, 0xd8, 0x31, 0x3e, 0x4f, 0x90, 0xa3, 0xbd, 0xac, 0xc1, 0xe9, 0xbe,
  0x07, 0x37, 0xcf, 0xbd, 0xa3, 0x60, 0xdf, 0xbe, 0x49, 0x7a, 0xce, 0xbe,
  0x06, 0xe2, 0x09, 0xbf, 0x80, 0x01, 0x9c, 0x3d, 0x53, 0x60, 0x82, 0x3c,
  0x5b, 0x1b, 0xdf, 0xbe, 0x50, 0x59, 0x98, 0x3e, 0x2a, 0x3a, 0xbc, 0x3e,
  0xc4, 0x14, 0x6a, 0xbe, 0xb8, 0xd9, 0xf5, 0xbe, 0xa6, 0x19, 0x99, 0xbe,
  0x4f, 0xba, 0x45, 0xbe, 0xf0, 0x1b, 0x09, 0x3f, 0x90, 0xe4, 0xee, 0xbe,
  0xdc, 0xa7, 0x06, 0x3f, 0x96, 0x6d, 0x82, 0xbe, 0x88, 0x0b, 0x25, 0x3d,
  0x03, 0x2c, 0xf8, 0x3d, 0x70, 0x5e, 0xf1, 0xbe, 0xc6, 0x55, 0xcd, 0x3e,
  0x26, 0x53, 0xe9, 0x3d, 0x8d, 0x86, 0x4f, 0x3e, 0xb9, 0x2b, 0xc4, 0x3e,
  0xab, 0xb1, 0xe3, 0xbe, 0x71, 0x4d, 0xc5, 0xbe, 0x1e, 0x2b, 0x08, 0xbf,
  0xe7, 0x6d, 0x3e, 0x3e, 0xe8, 0xf3, 0x46, 0xbe, 0xfe, 0xdb, 0xd9, 0xbe,
  0x10, 0x91, 0x85, 0xbe, 0xe8, 0xf1, 0x89, 0x3e, 0xf1, 0x5c, 0x56, 0xbe,
  0x45, 0x73, 0x4a, 0x3e, 0x59, 0x60, 0x94, 0x3e, 0x71, 0xba, 0xde, 0xbe,
  0x3c, 0x4b, 0x83, 0xbc, 0xb8, 0xc1, 0xd8, 0x3e, 0xc4, 0xde, 0x7d, 0x3e,
  0xee, 0x7e, 0xa5, 0x3d, 0xbf, 0x2d, 0x01, 0xbf, 0x51, 0x05, 0xbb, 0x3e,
  0x04, 0x31, 0x03, 0x3f, 0xa2, 0xed, 0xff, 0xff, 0x34, 0x00, 0x00, 0x00,
  0x14, 0x00, 0x00, 0x00, 0x08, 0x00, 0x00, 0x00, 0x34, 0x00, 0x00, 0x00,
  0x1e, 0x00, 0x00, 0x00, 0x73, 0x65, 0x71, 0x75, 0x65, 0x6e, 0x74, 0x69,
  0x61, 0x6c, 0x5f, 0x35, 0x35, 0x2f, 0x64, 0x65, 0x6e, 0x73, 0x65, 0x5f,
  0x32, 0x36, 0x35, 0x2f, 0x4d, 0x61, 0x74, 0x4d, 0x75, 0x6c, 0x00, 0x00,
  0x02, 0x00, 0x00, 0x00, 0x0a, 0x00, 0x00, 0x00, 0x0a, 0x00, 0x00, 0x00,
  0xa0, 0xed, 0xff, 0xff, 0x7e, 0xee, 0xff, 0xff, 0x04, 0x00, 0x00, 0x00,
  0x90, 0x01, 0x00, 0x00, 0x17, 0xb5, 0x15, 0x3e, 0x4c, 0x36, 0xe6, 0x3e,
  0x61, 0x23, 0x5e, 0xbe, 0x43, 0xae, 0xbc, 0xbd, 0xf7, 0x5f, 0xec, 0x3e,
  0xb6, 0x66, 0x98, 0xbc, 0x57, 0x17, 0xe3, 0xbe, 0x4f, 0x98, 0xef, 0x3e,
  0xc5, 0x3a, 0xc2, 0x3d, 0x12, 0xa9, 0xee, 0x3e, 0x22, 0xd6, 0x19, 0x3e,
  0x15, 0x41, 0x52, 0x3e, 0x38, 0xc5, 0x06, 0x3f, 0xfa, 0x4a, 0x01, 0xbf,
  0x29, 0x39, 0xfe, 0xbd, 0xee, 0xba, 0x33, 0x3e, 0xc0, 0x52, 0xf7, 0x3e,
  0x64, 0xa2, 0xa1, 0xbe, 0xd2, 0x7f, 0x7e, 0x3e, 0x58, 0x7a, 0xe7, 0x3d,
  0x4f, 0xde, 0x48, 0x3e, 0xdd, 0x27, 0xcc, 0x3e, 0x34, 0x71, 0xb7, 0x3e,
  0x21, 0x68, 0xba, 0xbb, 0x82, 0x9b, 0xec, 0x3e, 0xa7, 0x39, 0xe3, 0xbe,
  0x1b, 0xe8, 0xd4, 0x3d, 0x24, 0x85, 0xbc, 0xbe, 0x53, 0x43, 0x89, 0xbe,
  0xd4, 0x06, 0x7f, 0xbd, 0x0a, 0xe7, 0xba, 0x3e, 0x23, 0xc6, 0xd7, 0xbe,
  0xb5, 0x6d, 0x09, 0xbf, 0x44, 0xc6, 0x98, 0xbe, 0x03, 0xd6, 0xed, 0xbe,
  0xa2, 0x93, 0x85, 0x3e, 0x82, 0x5f, 0x91, 0x3e, 0x2a, 0xdd, 0x9d, 0xbe,
  0xc0, 0x4c, 0x02, 0x3f, 0x23, 0x33, 0x90, 0xbe, 0xc6, 0x2c, 0xf8, 0x3e,
  0xa9, 0xc1, 0xe5, 0xbe, 0x50, 0xe3, 0xaf, 0x3d, 0x18, 0xd3, 0x70, 0xbd,
  0x2e, 0x9a, 0x9c, 0xbe, 0x8e, 0x7c, 0x72, 0x3c, 0x1a, 0xd6, 0xd1, 0x3e,
  0xc1, 0xfa, 0xee, 0xbe, 0x48, 0xba, 0xfd, 0x3e, 0xa5, 0xaa, 0xd5, 0xbe,
  0x10, 0x26, 0xb5, 0x3e, 0xc9, 0xb6, 0x96, 0x3e, 0x41, 0x29, 0x01, 0x3f,
  0xa9, 0xf5, 0x90, 0xbc, 0xd7, 0x5e, 0xc7, 0xbe, 0x85, 0x72, 0xb4, 0xbe,
  0x1b, 0xd3, 0x73, 0x3e, 0x4b, 0xdb, 0x9e, 0x3e, 0x57, 0x6b, 0xa0, 0x3e,
  0xdb, 0x65, 0xfe, 0xbe, 0x74, 0x5c, 0x04, 0x3e, 0xd1, 0xaf, 0x8f, 0xbd,
  0xc4, 0x6d, 0x0a, 0x3d, 0xa6, 0x03, 0x05, 0x3d, 0xec, 0xef, 0xf7, 0xbe,
  0x28, 0x01, 0xe1, 0xbd, 0x3a, 0x20, 0xf0, 0xbb, 0x03, 0xe8, 0xe8, 0x3e,
  0xe7, 0x0a, 0xe2, 0xbe, 0x72, 0x79, 0xd4, 0x3e, 0x90, 0x03, 0xb2, 0x3e,
  0x1a, 0xb6, 0x5f, 0x3e, 0xb6, 0x2e, 0xaf, 0xbd, 0xae, 0xa4, 0x08, 0xbc,
  0x35, 0xb4, 0x79, 0x3e, 0x9f, 0x37, 0xec, 0x3e, 0x5f, 0xac, 0xd7, 0xbe,
  0xf4, 0x84, 0x17, 0xbe, 0xaa, 0xcd, 0xa4, 0xbe, 0xa8, 0x95, 0xd5, 0x3e,
  0x20, 0x2c, 0xb4, 0x3e, 0xc8, 0x5c, 0x9d, 0xbe, 0x7e, 0x0c, 0x7d, 0x3e,
  0xfd, 0x82, 0x2d, 0xbe, 0xce, 0x94, 0x8c, 0xbd, 0xa5, 0x5b, 0x3a, 0xbd,
  0x56, 0x3d, 0xd4, 0x3e, 0x86, 0x01, 0xc4, 0xbe, 0xf3, 0xfd, 0xfe, 0xbd,
  0x2f, 0x15, 0xc0, 0x3d, 0x36, 0x6f, 0x97, 0xbe, 0xf3, 0x7e, 0x01, 0xbf,
  0x60, 0x83, 0x71, 0x3e, 0x8e, 0x17, 0xf0, 0x3d, 0x57, 0xe0, 0xa9, 0x3d,
  0x3f, 0x04, 0xe4, 0xbe, 0xe8, 0xd8, 0x0a, 0xbe, 0x71, 0xf0, 0x91, 0xbd,
  0x4a, 0x33, 0x1a, 0x3d, 0xe7, 0xfe, 0xef, 0x3e, 0x86, 0xef, 0xff, 0xff,
  0x34, 0x00, 0x00, 0x00, 0x13, 0x00, 0x00, 0x00, 0x08, 0x00, 0x00, 0x00,
  0x34, 0x00, 0x00, 0x00, 0x1e, 0x00, 0x00, 0x00, 0x73, 0x65, 0x71, 0x75,
  0x65, 0x6e, 0x74, 0x69, 0x61, 0x6c, 0x5f, 0x35, 0x35, 0x2f, 0x64, 0x65,
  0x6e, 0x73, 0x65, 0x5f, 0x32, 0x36, 0x34, 0x2f, 0x4d, 0x61, 0x74, 0x4d,
  0x75, 0x6c, 0x00, 0x00, 0x02, 0x00, 0x00, 0x00, 0x0a, 0x00, 0x00, 0x00,
  0x0a, 0x00, 0x00, 0x00, 0x84, 0xef, 0xff, 0xff, 0x62, 0xf0, 0xff, 0xff,
  0x04, 0x00, 0x00, 0x00, 0x90, 0x01, 0x00, 0x00, 0x71, 0x20, 0xe9, 0xbe,
  0x72, 0x44, 0xab, 0xbe, 0xb4, 0x94, 0x20, 0x3e, 0xa4, 0xf9, 0x47, 0xbe,
  0xe8, 0x0a, 0xbd, 0x3e, 0x6d, 0xda, 0xd1, 0xbe, 0xf4, 0xfc, 0x17, 0xbe,
  0xf1, 0x21, 0x7d, 0xbe, 0x9c, 0x1e, 0xd2, 0xbe, 0x57, 0x3b, 0xe8, 0xbe,
  0x04, 0x01, 0xf8, 0xbe, 0x90, 0xba, 0x97, 0x3e, 0x27, 0x4d, 0x69, 0x3c,
  0xa5, 0xa8, 0xa3, 0xbe, 0x4a, 0xd4, 0xad, 0xbe, 0x9d, 0xba, 0x7c, 0xbe,
  0x98, 0xf0, 0x80, 0x3e, 0xea, 0xad, 0xd4, 0x3c, 0x4f, 0x06, 0x90, 0x3e,
  0x51, 0xe7, 0xbc, 0xbe, 0x90, 0xa7, 0x74, 0x3e, 0xec, 0xa1, 0x91, 0x3e,
  0x83, 0x17, 0x9e, 0xbd, 0x65, 0xf6, 0xed, 0xbd, 0xb0, 0x8f, 0x78, 0xbe,
  0xdb, 0x25, 0xeb, 0x3e, 0x17, 0xc0, 0x76, 0x3e, 0x35, 0x6b, 0xf9, 0x3e,
  0xb7, 0x16, 0x61, 0x3e, 0xe1, 0xbd, 0x12, 0xbd, 0x2e, 0x7a, 0xfa, 0xbe,
  0xe1, 0x94, 0xcf, 0xbe, 0x34, 0xd6, 0x04, 0x3d, 0x63, 0xdb, 0xb5, 0xbe,
  0x63, 0x21, 0x60, 0xbe, 0xd7, 0x35, 0x7f, 0xbe, 0x6f, 0xbc, 0x14, 0xbe,
  0xc1, 0xbe, 0x0b, 0xbf, 0xc7, 0xe6, 0xbd, 0x3e, 0x15, 0xc3, 0xa5, 0xbb,
  0xd9, 0xe6, 0x14, 0xbd, 0x94, 0x5d, 0xd4, 0x3e, 0x24, 0x7a, 0xd1, 0x3e,
  0xf6, 0xe9, 0x44, 0xbe, 0x36, 0x58, 0x87, 0x3d, 0x05, 0x01, 0x0e, 0xbd,
  0x5d, 0x15, 0xf3, 0x3e, 0xb6, 0x3f, 0x0c, 0xbd, 0xc7, 0xec, 0xf5, 0xbe,
  0x17, 0xfd, 0x81, 0x3e, 0xc0, 0x83, 0xb4, 0x3e, 0x4f, 0xc9, 0xfd, 0x3e,
  0xc5, 0x14, 0xcd, 0xbe, 0xb1, 0xda, 0x81, 0x3e, 0x6b, 0xf8, 0xef, 0x3e,
  0x8e, 0xc1, 0x08, 0x3f, 0x05, 0xd3, 0xaa, 0x3e, 0x06, 0x30, 0x04, 0xbf,
  0x82, 0x82, 0x9a, 0x3c, 0x8c, 0xbd, 0x0c, 0x3f, 0x17, 0x05, 0xb8, 0x3e,
  0x56, 0x25, 0xb1, 0xbd, 0x09, 0xcc, 0x41, 0xbe, 0x98, 0xe9, 0x90, 0x3d,
  0xed, 0xa5, 0xa9, 0xbe, 0x32, 0x4b, 0xcb, 0x3d, 0x42, 0xd7, 0x08, 0xbd,
  0x48, 0xb7, 0x15, 0xbe, 0x02, 0xc4, 0xfa, 0x3d, 0xad, 0x7f, 0x00, 0x3f,
  0xc2, 0x4f, 0x50, 0x3e, 0x14, 0x6c, 0xc1, 0xbe, 0x35, 0x29, 0x82, 0xbd,
  0x9c, 0x84, 0xda, 0x3e, 0xb4, 0x28, 0xa8, 0x3e, 0x10, 0x79, 0xf8, 0x3c,
  0x12, 0x8c, 0x53, 0x3e, 0x4c, 0x91, 0x5e, 0x3e, 0xf1, 0x9f, 0xc0, 0xbe,
  0x91, 0xf5, 0xbe, 0xbe, 0x1e, 0x7a, 0xbf, 0xbe, 0x6f, 0x7f, 0xe9, 0xbe,
  0x41, 0x3c, 0x7a, 0xbd, 0x4d, 0xff, 0x37, 0xbe, 0xd1, 0x84, 0x36, 0xbe,
  0xf6, 0x7b, 0x2e, 0xbd, 0x95, 0xa0, 0xf3, 0xbe, 0x25, 0x36, 0xfa, 0xbd,
  0xed, 0x6f, 0xa8, 0xbe, 0x2a, 0xef, 0x58, 0x3d, 0x23, 0x4f, 0xb1, 0x3e,
  0x45, 0x95, 0xbd, 0xbd, 0xf1, 0x70, 0x7b, 0x3e, 0xa0, 0x85, 0x27, 0xbd,
  0xef, 0x20, 0xd3, 0xbe, 0x67, 0xa0, 0x80, 0xbe, 0x37, 0x9d, 0xc3, 0x3e,
  0xc1, 0x62, 0x07, 0x3f, 0x26, 0x9a, 0xdf, 0x3e, 0xaa, 0x6d, 0x03, 0xbf,
  0x6a, 0xf1, 0xff, 0xff, 0x34, 0x00, 0x00, 0x00, 0x12, 0x00, 0x00, 0x00,
  0x08, 0x00, 0x00, 0x00, 0x34, 0x00, 0x00, 0x00, 0x1e, 0x00, 0x00, 0x00,
  0x73, 0x65, 0x71, 0x75, 0x65, 0x6e, 0x74, 0x69, 0x61, 0x6c, 0x5f, 0x35,
  0x35, 0x2f, 0x64, 0x65, 0x6e, 0x73, 0x65, 0x5f, 0x32, 0x36, 0x33, 0x2f,
  0x4d, 0x61, 0x74, 0x4d, 0x75, 0x6c, 0x00, 0x00, 0x02, 0x00, 0x00, 0x00,
  0x0a, 0x00, 0x00, 0x00, 0x0a, 0x00, 0x00, 0x00, 0x68, 0xf1, 0xff, 0xff,
  0x46, 0xf2, 0xff, 0xff, 0x04, 0x00, 0x00, 0x00, 0x90, 0x01, 0x00, 0x00,
  0xa8, 0x51, 0x08, 0xbe, 0xb5, 0x40, 0xf2, 0xbe, 0x90, 0x10, 0xb2, 0xbe,
  0xe3, 0x48, 0x81, 0x3e, 0xde, 0xce, 0xe0, 0xbe, 0x85, 0x24, 0x57, 0x3e,
  0xdd, 0xa5, 0x16, 0xbb, 0x72, 0x44, 0x99, 0xbd, 0x49, 0xc7, 0x00, 0x3d,
  0xdd, 0x87, 0xc7, 0x3e, 0x42, 0xa6, 0xa8, 0x3d, 0x40, 0x25, 0x81, 0x3d,
  0x47, 0xd2, 0xb9, 0xbd, 0xb6, 0xac, 0xf0, 0xbe, 0xba, 0x7d, 0xb6, 0xbe,
  0x49, 0x91, 0x25, 0xbe, 0x10, 0x48, 0xec, 0x3e, 0x0c, 0x01, 0x1d, 0xbe,
  0x3e, 0x2e, 0x43, 0xbe, 0x51, 0x45, 0xa7, 0x3e, 0x47, 0xe8, 0xc9, 0xbe,
  0xea, 0x4d, 0xc1, 0xbd, 0x0c, 0x27, 0xf4, 0x3d, 0x5d, 0x55, 0xb3, 0xbd,
  0x30, 0x8a, 0xd2, 0x3e, 0xeb, 0x99, 0x88, 0xbe, 0xda, 0xdb, 0xa9, 0x3e,
  0x46, 0x5b, 0x07, 0xbf, 0x16, 0x44, 0x84, 0x3e, 0x8c, 0x81, 0xa6, 0xbe,
  0xa9, 0xf5, 0x48, 0x3e, 0x5b, 0xc4, 0xe4, 0xbe, 0x34, 0xe0, 0xe2, 0xbe,
  0x2e, 0x4f, 0xcf, 0x3e, 0x04, 0x65, 0xa3, 0x3e, 0xa3, 0x44, 0xea, 0x3d,
  0xc7, 0x62, 0x8d, 0xbe, 0xa4, 0xb3, 0xb3, 0xbe, 0x43, 0x1c, 0xb9, 0x3d,
  0x53, 0x63, 0x60, 0x3d, 0x31, 0xbc, 0xa0, 0xbe, 0xc2, 0x42, 0x78, 0xbe,
  0x99, 0x4f, 0x56, 0x3e, 0x24, 0x54, 0x45, 0x3e, 0x5d, 0xf2, 0xd5, 0x3e,
  0x5a, 0x38, 0xd1, 0x3e, 0x03, 0x86, 0xea, 0x3e, 0xc6, 0x80, 0x16, 0x3e,
  0x5f, 0xfe, 0xdf, 0xbe, 0x67, 0xc9, 0x61, 0xbe, 0xab, 0xa6, 0xfe, 0xbe,
  0xa2, 0xdc, 0x8a, 0x3e, 0x56, 0xa1, 0x08, 0x3f, 0xaa, 0xe0, 0xd1, 0x3e,
  0xef, 0xf3, 0xd4, 0xbd, 0xc0, 0x7d, 0x4b, 0xbe, 0xbe, 0x47, 0x88, 0x3e,
  0x9e, 0xb0, 0x8c, 0x3e, 0x28, 0x1a, 0x7b, 0x3e, 0x30, 0x24, 0xaf, 0xbe,
  0x50, 0x0d, 0x02, 0x3f, 0x05, 0x89, 0xce, 0x3e, 0xce, 0x8c, 0x49, 0x3e,
  0xf5, 0x08, 0xfc, 0x3e, 0x35, 0xa2, 0x99, 0x3e, 0x6e, 0xe0, 0x36, 0x3e,
  0x7a, 0xbe, 0x0c, 0xbf, 0x20, 0x31, 0x09, 0xbf, 0x7e, 0x79, 0x03, 0x3f,
  0x67, 0xe5, 0xec, 0x3d, 0x87, 0x6d, 0x54, 0xbe, 0x2d, 0x1b, 0xc1, 0x3e,
  0xab, 0x35, 0x61, 0xbe, 0x70, 0x7e, 0xd5, 0xbe, 0x4a, 0x38, 0xd5, 0x3e,
  0x35, 0xee, 0x0e, 0x3f, 0xc1, 0x49, 0x73, 0x3e, 0xb0, 0xe5, 0x0d, 0xbe,
  0x65, 0x1d, 0x81, 0x3d, 0x28, 0x9b, 0x94, 0xbe, 0x64, 0xc6, 0x04, 0x3f,
  0xde, 0x57, 0x2e, 0xbe, 0x1f, 0x42, 0x55, 0x3e, 0xb4, 0xa8, 0xa6, 0xbd,
  0x19, 0x55, 0xde, 0x3d, 0xd9, 0x27, 0x9f, 0x3e, 0xab, 0x17, 0x6e, 0xbe,
  0xcf, 0x98, 0x29, 0x3e, 0x73, 0x32, 0xab, 0x3e, 0xf1, 0x0d, 0x95, 0x3d,
  0xbd, 0xfb, 0xf6, 0x3e, 0xae, 0xc7, 0x03, 0xbf, 0x71, 0xb9, 0xd8, 0xbe,
  0x7e, 0xda, 0x08, 0xbf, 0x87, 0x9d, 0xc8, 0xbe, 0x7d, 0x27, 0xd2, 0xbe,
  0x5e, 0x6b, 0xf8, 0xbe, 0x51, 0xed, 0xe8, 0x3d, 0x15, 0x4d, 0xf4, 0xbc,
  0x6f, 0x84, 0xa9, 0xbe, 0x4e, 0xf3, 0xff, 0xff, 0x34, 0x00, 0x00, 0x00,
  0x11, 0x00, 0x00, 0x00, 0x08, 0x00, 0x00, 0x00, 0x34, 0x00, 0x00, 0x00,
  0x1e, 0x00, 0x00, 0x00, 0x73, 0x65, 0x71, 0x75, 0x65, 0x6e, 0x74, 0x69,
  0x61, 0x6c, 0x5f, 0x35, 0x35, 0x2f, 0x64, 0x65, 0x6e, 0x73, 0x65, 0x5f,
  0x32, 0x36, 0x32, 0x2f, 0x4d, 0x61, 0x74, 0x4d, 0x75, 0x6c, 0x00, 0x00,
  0x02, 0x00, 0x00, 0x00, 0x0a, 0x00, 0x00, 0x00, 0x0a, 0x00, 0x00, 0x00,
  0x4c, 0xf3, 0xff, 0xff, 0x2a, 0xf4, 0xff, 0xff, 0x04, 0x00, 0x00, 0x00,
  0x90, 0x01, 0x00, 0x00, 0x69, 0x2d, 0x21, 0x3e, 0xd9, 0xfd, 0x21, 0x3e,
  0x9b, 0xbb, 0x0d, 0x3e, 0x84, 0x93, 0x87, 0xbe, 0xb6, 0x99, 0x9c, 0x3e,
  0x12, 0xa7, 0x8c, 0x3d, 0xf4, 0x3a, 0xa2, 0xbd, 0x7d, 0xfa, 0xba, 0xbe,
  0x2a, 0x81, 0x87, 0xbe, 0xd7, 0x53, 0x8a, 0xbe, 0x23, 0xee, 0x12, 0x3e,
  0xaa, 0x2d, 0xe5, 0xbe, 0xd7, 0x33, 0xdc, 0x3e, 0xed, 0x0f, 0xef, 0x3e,
  0x27, 0x8f, 0x32, 0xbd, 0x29, 0xd5, 0xb5, 0x3e, 0x42, 0xc8, 0xe8, 0x3e,
  0x36, 0xa9, 0xfd, 0xbe, 0x7c, 0x0e, 0x97, 0xbe, 0x6d, 0xfc, 0xb5, 0x3e,
  0xb6, 0x86, 0x1c, 0x3e, 0xb8, 0xd9, 0x77, 0xbe, 0x8c, 0x01, 0x9f, 0xbe,
  0x4b, 0x82, 0x31, 0xbe, 0x91, 0x73, 0xc4, 0xbe, 0x04, 0xdf, 0x58, 0xbe,
  0xb8, 0x0c, 0x10, 0x3d, 0x52, 0xbb, 0x1f, 0xbe, 0x8c, 0xba, 0xaa, 0x3e,
  0xa6, 0x1b, 0xa8, 0xbe, 0xf0, 0x34, 0xc8, 0xbe, 0x69, 0xbe, 0xb5, 0x3e,
  0xc9, 0xa3, 0xe1, 0xbe, 0xba, 0xd1, 0x38, 0xbe, 0xe1, 0x8a, 0x66, 0xbd,
  0x67, 0x4d, 0x62, 0xbd, 0x15, 0xe2, 0xd1, 0xbe, 0xc9, 0x7d, 0xd2, 0x3e,
  0x63, 0xe5, 0xef, 0x3e, 0xde, 0xd8, 0xa2, 0x3e, 0xc2, 0x91, 0x07, 0xb9,
  0x04, 0xa8, 0xe7, 0x3e, 0xf7, 0x36, 0x9a, 0xbe, 0xc3, 0x10, 0x23, 0x3d,
  0x3d, 0x7f, 0xcf, 0xbe, 0x87, 0x98, 0x14, 0x3e, 0x3a, 0x65, 0xf9, 0x3e,
  0x00, 0xed, 0xba, 0xbe, 0x7f, 0x45, 0xfc, 0x3e, 0x7f, 0x9e, 0xb0, 0x3e,
  0x67, 0x10, 0x07, 0x3f, 0xe4, 0x89, 0x0a, 0x3f, 0xb3, 0xa0, 0x8d, 0xbe,
  0xd5, 0x98, 0x20, 0x3e, 0xf9, 0xfc, 0xdc, 0xbe, 0x7d, 0x20, 0xda, 0x3e,
  0x4b, 0xc5, 0x87, 0x3e, 0xbd, 0x1f, 0xfd, 0x3e, 0x85, 0xc0, 0xb2, 0x3e,
  0x21, 0x3f, 0xd3, 0x3c, 0xf0, 0xa4, 0xf1, 0x3e, 0x61, 0x94, 0xd4, 0x3d,
  0x1f, 0x03, 0xf7, 0xbe, 0x12, 0x67, 0x4d, 0xbe, 0x8b, 0xe2, 0x66, 0x3e,
  0x99, 0xbb, 0x10, 0x3d, 0x85, 0xfb, 0x6e, 0x3e, 0xbb, 0xb8, 0xd8, 0x3d,
  0x55, 0x63, 0xbf, 0x3e, 0x09, 0xbf, 0x05, 0x3f, 0x5f, 0xbc, 0xf9, 0x3e,
  0x09, 0x2d, 0xe9, 0xbd, 0x6c, 0x78, 0x5a, 0x3e, 0xf4, 0xd6, 0x75, 0xbe,
  0x7e, 0x56, 0xd1, 0x3e, 0x32, 0xf5, 0x51, 0xbe, 0x6d, 0x24, 0xc8, 0x3e,
  0xd2, 0x41, 0x3d, 0x3e, 0xa9, 0x4a, 0xdb, 0xbe, 0xee, 0xe6, 0xaf, 0xbd,
  0x51, 0xcf, 0xd3, 0x3e, 0x6c, 0x5e, 0x89, 0x3e, 0x34, 0xc5, 0x8c, 0xba,
  0x2b, 0x01, 0x90, 0x3e, 0xb7, 0x5c, 0x35, 0x3c, 0x6c, 0x19, 0xc9, 0x3e,
  0xdf, 0xb8, 0xb3, 0x3e, 0x53, 0x6b, 0x0b, 0xbf, 0x01, 0x9c, 0x6d, 0x3e,
  0x79, 0x30, 0x37, 0xbe, 0xc2, 0xe0, 0x75, 0x3e, 0x33, 0xac, 0x0e, 0xbe,
  0xec, 0x37, 0x09, 0xbf, 0x04, 0x26, 0xc9, 0xbe, 0x27, 0xc0, 0x40, 0x3e,
  0x97, 0x65, 0xa2, 0x3e, 0x1c, 0x12, 0x33, 0x3e, 0x50, 0xfa, 0x93, 0xbc,
  0x7d, 0x59, 0x08, 0xbf, 0x22, 0x50, 0x01, 0x3f, 0x32, 0xf5, 0xff, 0xff,
  0x34, 0x00, 0x00, 0x00, 0x10, 0x00, 0x00, 0x00, 0x08, 0x00, 0x00, 0x00,
  0x34, 0x00, 0x00, 0x00, 0x1e, 0x00, 0x00, 0x00, 0x73, 0x65, 0x71, 0x75,
  0x65, 0x6e, 0x74, 0x69, 0x61, 0x6c, 0x5f, 0x35, 0x35, 0x2f, 0x64, 0x65,
  0x6e, 0x73, 0x65, 0x5f, 0x32, 0x36, 0x31, 0x2f, 0x4d, 0x61, 0x74, 0x4d,
  0x75, 0x6c, 0x00, 0x00, 0x02, 0x00, 0x00, 0x00, 0x0a, 0x00, 0x00, 0x00,
  0x0a, 0x00, 0x00, 0x00, 0x30, 0xf5, 0xff, 0xff, 0x0e, 0xf6, 0xff, 0xff,
  0x04, 0x00, 0x00, 0x00, 0x90, 0x01, 0x00, 0x00, 0xba, 0xa7, 0x6e, 0xbd,
  0x31, 0x19, 0xcd, 0xbc, 0x88, 0x99, 0xdb, 0x3e, 0x09, 0x6e, 0x08, 0xbf,
  0x79, 0x6a, 0xc7, 0xbd, 0x92, 0x5b, 0xc8, 0x3e, 0x9b, 0x56, 0xc5, 0x3e,
  0x77, 0x28, 0x86, 0x3d, 0xec, 0x50, 0xfd, 0xbe, 0x3a, 0x67, 0xf7, 0x3e,
  0x15, 0xb2, 0x28, 0x3e, 0x42, 0xcd, 0x21, 0xbc, 0x52, 0xf7, 0x05, 0x3f,
  0x44, 0x9e, 0x04, 0x3f, 0x3f, 0x9f, 0x00, 0x3e, 0x21, 0xf4, 0xdc, 0xbd,
  0xff, 0xda, 0x16, 0x3e, 0x42, 0x23, 0xa2, 0xbe, 0x2b, 0x1d, 0x89, 0x3e,
  0x21, 0xd0, 0x82, 0xbe, 0x89, 0xcb, 0x48, 0x3e, 0xc2, 0x2a, 0xc5, 0x3d,
  0x71, 0xf8, 0xcf, 0xbc, 0x69, 0xbf, 0xfd, 0xbd, 0x4f, 0xba, 0xa6, 0xbe,
  0x46, 0x6f, 0x06, 0x3e, 0x59, 0xb6, 0x13, 0x3e, 0x3f, 0x52, 0x00, 0xbf,
  0x62, 0x2e, 0x90, 0x3e, 0x3f, 0x71, 0xdb, 0xbe, 0x9d, 0x2e, 0x02, 0xbf,
  0xcf, 0xcb, 0x55, 0x3e, 0x24, 0x8f, 0xd7, 0xbd, 0x2c, 0xff, 0xcc, 0xbe,
  0xb7, 0xdd, 0xd0, 0xba, 0xfc, 0xb7, 0x72, 0xbe, 0xba, 0x9e, 0xe8, 0xbe,
  0x3e, 0x13, 0x0a, 0x3f, 0xce, 0xf2, 0xa9, 0x3d, 0xa2, 0xc5, 0xce, 0x3d,
  0x1d, 0x7d, 0x5f, 0x3c, 0x46, 0xc3, 0xf8, 0xbe, 0x62, 0x64, 0xf9, 0x3e,
  0xb4, 0x46, 0x81, 0x3e, 0x3d, 0x85, 0xad, 0x3e, 0xbf, 0xa5, 0xd7, 0xbe,
  0x97, 0x28, 0x3b, 0x3e, 0xbc, 0x8f, 0xad, 0x3e, 0x7a, 0x0b, 0x53, 0x3e,
  0x6f, 0x55, 0x03, 0xbf, 0xb4, 0x4a, 0x25, 0xbe, 0xa9, 0x5d, 0x33, 0xbe,
  0x12, 0x6f, 0x1e, 0x3d, 0xba, 0x0c, 0x92, 0xbe, 0x17, 0xe7, 0x0a, 0xbf,
  0x17, 0xd7, 0x73, 0x3d, 0xf6, 0xb7, 0xbd, 0xbe, 0x71, 0xb8, 0x8f, 0x3e,
  0x30, 0x7d, 0xe8, 0xbe, 0xe4, 0x25, 0xf6, 0xbe, 0x99, 0x3c, 0x2a, 0x3e,
  0x6d, 0xcc, 0x77, 0x3e, 0x75, 0x71, 0x00, 0xbf, 0xd0, 0x43, 0x98, 0x3e,
  0x61, 0x39, 0x96, 0xbe, 0xb7, 0x95, 0x6a, 0x3e, 0xfe, 0xc7, 0xf7, 0x3e,
  0x00, 0x35, 0xe9, 0xbe, 0x6a, 0xf9, 0x81, 0xbe, 0x7c, 0x56, 0x17, 0x3e,
  0xa7, 0xc7, 0xef, 0x3e, 0xdd, 0xc1, 0x04, 0xbe, 0xc7, 0xa6, 0x44, 0x3c,
  0xf5, 0x82, 0xe8, 0xbe, 0xff, 0x6b, 0x59, 0x3e, 0x18, 0xcb, 0xb8, 0xbe,
  0xaf, 0xa1, 0x97, 0xbd, 0xae, 0x25, 0x02, 0xbf, 0xed, 0xfc, 0x21, 0xbd,
  0x5a, 0xb5, 0x71, 0x3e, 0xeb, 0x0b, 0x18, 0x3e, 0x69, 0xa9, 0xed, 0x3e,
  0xac, 0x57, 0x49, 0xbd, 0xe1, 0x75, 0xce, 0x3e, 0xc6, 0x03, 0x3e, 0x3e,
  0xa4, 0xe3, 0xc3, 0x3e, 0x9b, 0xcb, 0x8c, 0xbd, 0xc6, 0x50, 0x97, 0xbe,
  0xba, 0x68, 0x58, 0xbe, 0x3c, 0x50, 0xba, 0x3e, 0x73, 0x98, 0x02, 0xbf,
  0x5e, 0x32, 0x8f, 0xbc, 0x72, 0xa4, 0x9a, 0x3e, 0x03, 0x34, 0x3e, 0xbe,
  0xb9, 0xec, 0xc4, 0xbe, 0x53, 0xbe, 0x3e, 0xbe, 0x04, 0xcd, 0xfc, 0x3d,
  0x1d, 0xf3, 0x45, 0x3e, 0xfa, 0x19, 0x55, 0xbe, 0x3a, 0x04, 0xc8, 0xbe,
  0x16, 0xf7, 0xff, 0xff, 0x34, 0x00, 0x00, 0x00, 0x0f, 0x00, 0x00, 0x00,
  0x08, 0x00, 0x00, 0x00, 0x34, 0x00, 0x00, 0x00, 0x1e, 0x00, 0x00, 0x00,
  0x73, 0x65, 0x71, 0x75, 0x65, 0x6e, 0x74, 0x69, 0x61, 0x6c, 0x5f, 0x35,
  0x35, 0x2f, 0x64, 0x65, 0x6e, 0x73, 0x65, 0x5f, 0x32, 0x36, 0x30, 0x2f,
  0x4d, 0x61, 0x74, 0x4d, 0x75, 0x6c, 0x00, 0x00, 0x02, 0x00, 0x00, 0x00,
  0x0a, 0x00, 0x00, 0x00, 0x0a, 0x00, 0x00, 0x00, 0x14, 0xf7, 0xff, 0xff,
  0xf2, 0xf7, 0xff, 0xff, 0x04, 0x00, 0x00, 0x00, 0x90, 0x01, 0x00, 0x00,
  0x4d, 0x43, 0x02, 0xbf, 0xa2, 0xbb, 0x97, 0x3e, 0x5b, 0x4d, 0x7c, 0xbe,
  0x3d, 0x51, 0xbb, 0x3e, 0x32, 0xd5, 0xb1, 0x3d, 0x6c, 0xc2, 0xde, 0xbe,
  0xad, 0xc7, 0x4e, 0x3e, 0xee, 0xd2, 0x59, 0x3e, 0xc1, 0x97, 0x09, 0x3f,
  0xd0, 0x4a, 0x8d, 0xbe, 0x53, 0x3c, 0x98, 0x3e, 0x59, 0x23, 0xc4, 0x3e,
  0xd3, 0x6c, 0xfe, 0xbe, 0x2c, 0xf1, 0x7d, 0xbe, 0xea, 0xa4, 0xe4, 0xbe,
  0xb2, 0x96, 0xa8, 0x3e, 0xd3, 0x05, 0xea, 0xbe, 0x0e, 0xd5, 0xa2, 0x3d,
  0x42, 0x30, 0x6f, 0xbe, 0x46, 0xc9, 0x20, 0x3d, 0x79, 0x0c, 0x1f, 0xbd,
  0xdd, 0x93, 0xb9, 0xbe, 0xf4, 0x72, 0xf7, 0x3d, 0x0c, 0x7c, 0xc9, 0x3e,
  0x20, 0x0f, 0x78, 0x3c, 0x13, 0x86, 0xc7, 0x3e, 0xa2, 0x01, 0x0c, 0x3f,
  0xf8, 0xaf, 0xb8, 0x3b, 0xeb, 0xd5, 0xed, 0xbd, 0x76, 0xc0, 0xf3, 0xbe,
  0x34, 0xde, 0x9a, 0xbe, 0x4a, 0x22, 0x9d, 0xbe, 0x5c, 0xfd, 0x1b, 0xbe,
  0x24, 0x4c, 0x68, 0x3e, 0x48, 0x69, 0xb7, 0xbe, 0xbf, 0xc1, 0x78, 0xbe,
  0xf2, 0x10, 0x00, 0xbf, 0xe9, 0xc9, 0xd4, 0x3e, 0xb6, 0xc8, 0x95, 0xbe,
  0x97, 0x1c, 0x9d, 0x3e, 0x7a, 0xbf, 0x07, 0xbf, 0x8f, 0x86, 0x2c, 0x3e,
  0x08, 0x3a, 0xc0, 0x3e, 0xd5, 0xa3, 0x53, 0xbe, 0xcb, 0x32, 0x87, 0xbd,
  0x37, 0xba, 0x3c, 0x3e, 0xac, 0xc6, 0xec, 0xbd, 0x3d, 0x2c, 0xd8, 0xbe,
  0x18, 0x4c, 0x96, 0xbd, 0x19, 0xd0, 0x53, 0xbe, 0x44, 0x5e, 0x5e, 0x3e,
  0x77, 0x20, 0x82, 0x3d, 0xfb, 0x44, 0xee, 0xbd, 0xd3, 0x6c, 0xad, 0xbe,
  0x59, 0xaf, 0xf7, 0xbd, 0xc0, 0x48, 0x8f, 0xbe, 0xde, 0xf4, 0x11, 0x3d,
  0x76, 0x64, 0x92, 0x3e, 0x45, 0xda, 0xaa, 0x3e, 0x78, 0x3f, 0xa0, 0xbe,
  0xc6, 0x12, 0x0e, 0xbc, 0xfa, 0xcd, 0xe5, 0xbe, 0x60, 0xbe, 0x6d, 0xbe,
  0xa0, 0x7a, 0xa1, 0x3e, 0xe1, 0xc3, 0xbd, 0x3e, 0xbc, 0x31, 0xb1, 0xbe,
  0xdd, 0xa1, 0x61, 0x3e, 0xb5, 0x35, 0x9c, 0xbe, 0xd3, 0x4a, 0x8e, 0xbe,
  0xaa, 0xe1, 0x47, 0xbe, 0x5a, 0x8c, 0x0f, 0xbe, 0xce, 0x6a, 0x05, 0xbf,
  0xbc, 0x6c, 0xca, 0xbe, 0x1b, 0xe4, 0x01, 0xbf, 0xaf, 0x53, 0x93, 0xbe,
  0x9a, 0x2c, 0x13, 0xbe, 0x14, 0xc7, 0xbd, 0xbe, 0x3e, 0xeb, 0x96, 0x3c,
  0x0e, 0x9f, 0x8b, 0xbe, 0x5c, 0x28, 0x37, 0x3e, 0xce, 0x10, 0xe6, 0x3e,
  0xc9, 0x4a, 0xcb, 0x3d, 0xf7, 0xdf, 0xfa, 0x3e, 0x99, 0xe3, 0xed, 0x3e,
  0xd8, 0xa6, 0xc8, 0x3e, 0xc5, 0xbc, 0x8f, 0xbe, 0x19, 0xfc, 0xfb, 0x3e,
  0xcd, 0xde, 0x0a, 0x3f, 0xa6, 0xc1, 0x24, 0x3e, 0x8b, 0x51, 0x08, 0x3f,
  0x0a, 0x83, 0x65, 0x3d, 0x2d, 0xbf, 0x27, 0xbe, 0xeb, 0xea, 0xcb, 0xbe,
  0x7a, 0xed, 0xc2, 0x3e, 0x6f, 0x35, 0x9f, 0xbe, 0xb6, 0x2c, 0x8b, 0xbe,
  0xad, 0x6c, 0xd7, 0xbc, 0x28, 0x1e, 0x8a, 0xbe, 0x4a, 0xaf, 0x3d, 0x3e,
  0x4f, 0xfc, 0x8c, 0x3e, 0xfa, 0xf8, 0xff, 0xff, 0x34, 0x00, 0x00, 0x00,
  0x0e, 0x00, 0x00, 0x00, 0x08, 0x00, 0x00, 0x00, 0x34, 0x00, 0x00, 0x00,
  0x1e, 0x00, 0x00, 0x00, 0x73, 0x65, 0x71, 0x75, 0x65, 0x6e, 0x74, 0x69,
  0x61, 0x6c, 0x5f, 0x35, 0x35, 0x2f, 0x64, 0x65, 0x6e, 0x73, 0x65, 0x5f,
  0x32, 0x35, 0x39, 0x2f, 0x4d, 0x61, 0x74, 0x4d, 0x75, 0x6c, 0x00, 0x00,
  0x02, 0x00, 0x00, 0x00, 0x0a, 0x00, 0x00, 0x00, 0x0a, 0x00, 0x00, 0x00,
  0xf8, 0xf8, 0xff, 0xff, 0xd6, 0xf9, 0xff, 0xff, 0x04, 0x00, 0x00, 0x00,
  0xa0, 0x00, 0x00, 0x00, 0x2c, 0xf0, 0xf9, 0xbe, 0x45, 0x3b, 0x5d, 0xbc,
  0x3b, 0x20, 0x4e, 0xbe, 0xe7, 0xdb, 0x0c, 0xbf, 0x95, 0xca, 0x71, 0xbe,
  0x4e, 0xda, 0x18, 0x3f, 0xd6, 0xe3, 0x1b, 0xbf, 0x8d, 0x31, 0xe0, 0x3e,
  0xb8, 0x88, 0x14, 0xbd, 0x6f, 0xc8, 0x46, 0x3e, 0x01, 0x52, 0x0c, 0x3f,
  0xdf, 0x9e, 0xaf, 0x3c, 0x54, 0xcc, 0x3e, 0xbe, 0x4b, 0xf6, 0x83, 0x3e,
  0x7b, 0x69, 0x39, 0x3c, 0x35, 0x13, 0xad, 0xbc, 0x10, 0xa2, 0xed, 0x3e,
  0x58, 0xd2, 0xa3, 0xbe, 0xea, 0xc7, 0x03, 0xbf, 0x96, 0xcb, 0xb5, 0xbc,
  0x03, 0xcd, 0x22, 0x3f, 0xcd, 0xe7, 0x3a, 0x3e, 0xe5, 0xb1, 0x90, 0x3e,
  0x11, 0xf9, 0x8b, 0x3e, 0x29, 0x73, 0xb3, 0xbe, 0x10, 0xb8, 0xf1, 0x3e,
  0xc7, 0x54, 0xc7, 0x3e, 0xc2, 0x36, 0x8c, 0x3e, 0xdc, 0x17, 0x1f, 0xbf,
  0x31, 0xb3, 0xf2, 0x3e, 0xbd, 0xe5, 0x0e, 0xbf, 0x8a, 0x00, 0x3e, 0x3b,
  0x18, 0x6f, 0x6f, 0xbe, 0x81, 0x71, 0x0a, 0x3e, 0x79, 0x17, 0xed, 0x3e,
  0xb9, 0x77, 0xdb, 0x3e, 0x36, 0xb1, 0xea, 0x3c, 0x25, 0x0e, 0x1f, 0x3f,
  0x5f, 0x50, 0x6f, 0xbe, 0xe4, 0x02, 0x15, 0x3f, 0xee, 0xf9, 0xff, 0xff,
  0x34, 0x00, 0x00, 0x00, 0x0d, 0x00, 0x00, 0x00, 0x08, 0x00, 0x00, 0x00,
  0x34, 0x00, 0x00, 0x00, 0x1e, 0x00, 0x00, 0x00, 0x73, 0x65, 0x71, 0x75,
  0x65, 0x6e, 0x74, 0x69, 0x61, 0x6c, 0x5f, 0x35, 0x35, 0x2f, 0x64, 0x65,
  0x6e, 0x73, 0x65, 0x5f, 0x32, 0x35, 0x38, 0x2f, 0x4d, 0x61, 0x74, 0x4d,
  0x75, 0x6c, 0x00, 0x00, 0x02, 0x00, 0x00, 0x00, 0x0a, 0x00, 0x00, 0x00,
  0x04, 0x00, 0x00, 0x00, 0xec, 0xf9, 0xff, 0xff, 0xca, 0xfa, 0xff, 0xff,
  0x04, 0x00, 0x00, 0x00, 0x0c, 0x00, 0x00, 0x00, 0x9b, 0xd9, 0xd7, 0x3c,
  0x8b, 0x87, 0xd1, 0xbb, 0x29, 0x3f, 0x6c, 0xbc, 0x4e, 0xfa, 0xff, 0xff,
  0x44, 0x00, 0x00, 0x00, 0x0c, 0x00, 0x00, 0x00, 0x08, 0x00, 0x00, 0x00,
  0x40, 0x00, 0x00, 0x00, 0x2e, 0x00, 0x00, 0x00, 0x73, 0x65, 0x71, 0x75,
  0x65, 0x6e, 0x74, 0x69, 0x61, 0x6c, 0x5f, 0x35, 0x35, 0x2f, 0x64, 0x65,
  0x6e, 0x73, 0x65, 0x5f, 0x32, 0x36, 0x38, 0x2f, 0x42, 0x69, 0x61, 0x73,
  0x41, 0x64, 0x64, 0x2f, 0x52, 0x65, 0x61, 0x64, 0x56, 0x61, 0x72, 0x69,
  0x61, 0x62, 0x6c, 0x65, 0x4f, 0x70, 0x00, 0x00, 0x01, 0x00, 0x00, 0x00,
  0x03, 0x00, 0x00, 0x00, 0x58, 0xfa, 0xff, 0xff, 0x36, 0xfb, 0xff, 0xff,
  0x04, 0x00, 0x00, 0x00, 0x28, 0x00, 0x00, 0x00, 0x8a, 0xc8, 0x9a, 0x3b,
  0x0f, 0xe6, 0xcd, 0x3b, 0x2c, 0xca, 0x4d, 0x3b, 0x13, 0x73, 0x36, 0x3b,
  0x6c, 0x1c, 0xd6, 0xbc, 0xfb, 0x81, 0xcb, 0xbc, 0xbe, 0x6f, 0x0e, 0xbb,
  0xf5, 0x7b, 0x0f, 0xbc, 0xff, 0xaf, 0x45, 0xbc, 0x04, 0xd5, 0x62, 0xb9,
  0xd6, 0xfa, 0xff, 0xff, 0x44, 0x00, 0x00, 0x00, 0x0b, 0x00, 0x00, 0x00,
  0x08, 0x00, 0x00, 0x00, 0x40, 0x00, 0x00, 0x00, 0x2e, 0x00, 0x00, 0x00,
  0x73, 0x65, 0x71, 0x75, 0x65, 0x6e, 0x74, 0x69, 0x61, 0x6c, 0x5f, 0x35,
  0x35, 0x2f, 0x64, 0x65, 0x6e, 0x73, 0x65, 0x5f, 0x32, 0x36, 0x37, 0x2f,
  0x42, 0x69, 0x61, 0x73, 0x41, 0x64, 0x64, 0x2f, 0x52, 0x65, 0x61, 0x64,
  0x56, 0x61, 0x72, 0x69, 0x61, 0x62, 0x6c, 0x65, 0x4f, 0x70, 0x00, 0x00,
  0x01, 0x00, 0x00, 0x00, 0x0a, 0x00, 0x00, 0x00, 0xe0, 0xfa, 0xff, 0xff,
  0xbe, 0xfb, 0xff, 0xff, 0x04, 0x00, 0x00, 0x00, 0x28, 0x00, 0x00, 0x00,
  0x49, 0x54, 0x50, 0xbb, 0xfe, 0x6d, 0xc4, 0xbc, 0x4a, 0x2e, 0xc0, 0xbc,
  0x75, 0xc3, 0x01, 0x3b, 0xcc, 0xce, 0x83, 0x3c, 0xae, 0xa9, 0x9b, 0xbb,
  0xca, 0x40, 0x02, 0x3b, 0x54, 0xcc, 0x0a, 0xbc, 0x06, 0x5f, 0x9e, 0xbc,
  0x3d, 0xf9, 0xe9, 0xba, 0x5e, 0xfb, 0xff, 0xff, 0x44, 0x00, 0x00, 0x00,
  0x0a, 0x00, 0x00, 0x00, 0x08, 0x00, 0x00, 0x00, 0x40, 0x00, 0x00, 0x00,
  0x2e, 0x00, 0x00, 0x00, 0x73, 0x65, 0x71, 0x75, 0x65, 0x6e, 0x74, 0x69,
  0x61, 0x6c, 0x5f, 0x35, 0x35, 0x2f, 0x64, 0x65, 0x6e, 0x73, 0x65, 0x5f,
  0x32, 0x36, 0x36, 0x2f, 0x42, 0x69, 0x61, 0x73, 0x41, 0x64, 0x64, 0x2f,
  0x52, 0x65, 0x61, 0x64, 0x56, 0x61, 0x72, 0x69, 0x61, 0x62, 0x6c, 0x65,
  0x4f, 0x70, 0x00, 0x00, 0x01, 0x00, 0x00, 0x00, 0x0a, 0x00, 0x00, 0x00,
  0x68, 0xfb, 0xff, 0xff, 0x46, 0xfc, 0xff, 0xff, 0x04, 0x00, 0x00, 0x00,
  0x28, 0x00, 0x00, 0x00, 0x02, 0xce, 0x98, 0x3c, 0xa4, 0x50, 0x8a, 0x3c,
  0x89, 0x61, 0x0f, 0xbc, 0xd1, 0x2c, 0x7c, 0x3c, 0x68, 0xc4, 0xe3, 0x3b,
  0xab, 0x1b, 0x70, 0xbc, 0xca, 0x6f, 0x57, 0x3c, 0x05, 0x8d, 0xe2, 0x3a,
  0x5d, 0xf6, 0x0f, 0x3c, 0x05, 0x4a, 0x82, 0xbb, 0xe6, 0xfb, 0xff, 0xff,
  0x44, 0x00, 0x00, 0x00, 0x09, 0x00, 0x00, 0x00, 0x08, 0x00, 0x00, 0x00,
  0x40, 0x00, 0x00, 0x00, 0x2e, 0x00, 0x00, 0x00, 0x73, 0x65, 0x71, 0x75,
  0x65, 0x6e, 0x74, 0x69, 0x61, 0x6c, 0x5f, 0x35, 0x35, 0x2f, 0x64, 0x65,
  0x6e, 0x73, 0x65, 0x5f, 0x32, 0x36, 0x35, 0x2f, 0x42, 0x69, 0x61, 0x73,
  0x41, 0x64, 0x64, 0x2f, 0x52, 0x65, 0x61, 0x64, 0x56, 0x61, 0x72, 0x69,
  0x61, 0x62, 0x6c, 0x65, 0x4f, 0x70, 0x00, 0x00, 0x01, 0x00, 0x00, 0x00,
  0x0a, 0x00, 0x00, 0x00, 0xf0, 0xfb, 0xff, 0xff, 0xce, 0xfc, 0xff, 0xff,
  0x04, 0x00, 0x00, 0x00, 0x28, 0x00, 0x00, 0x00, 0x07, 0x61, 0x9c, 0xbb,
  0x01, 0xd1, 0xa0, 0xbc, 0x79, 0x0c, 0x19, 0xbb, 0x7f, 0x09, 0x2b, 0xba,
  0x0d, 0x29, 0x94, 0xbc, 0x8c, 0x97, 0xa3, 0x3b, 0xaa, 0xfa, 0x18, 0xbc,
  0xef, 0x77, 0x45, 0xbb, 0x1c, 0x51, 0x19, 0xbc, 0x07, 0x46, 0xc7, 0xbc,
  0x6e, 0xfc, 0xff, 0xff, 0x44, 0x00, 0x00, 0x00, 0x08, 0x00, 0x00, 0x00,
  0x08, 0x00, 0x00, 0x00, 0x40, 0x00, 0x00, 0x00, 0x2e, 0x00, 0x00, 0x00,
  0x73, 0x65, 0x71, 0x75, 0x65, 0x6e, 0x74, 0x69, 0x61, 0x6c, 0x5f, 0x35,
  0x35, 0x2f, 0x64, 0x65, 0x6e, 0x73, 0x65, 0x5f, 0x32, 0x36, 0x34, 0x2f,
  0x42, 0x69, 0x61, 0x73, 0x41, 0x64, 0x64, 0x2f, 0x52, 0x65, 0x61, 0x64,
  0x56, 0x61, 0x72, 0x69, 0x61, 0x62, 0x6c, 0x65, 0x4f, 0x70, 0x00, 0x00,
  0x01, 0x00, 0x00, 0x00, 0x0a, 0x00, 0x00, 0x00, 0x78, 0xfc, 0xff, 0xff,
  0x56, 0xfd, 0xff, 0xff, 0x04, 0x00, 0x00, 0x00, 0x28, 0x00, 0x00, 0x00,
  0x61, 0x7d, 0x59, 0xbc, 0x7d, 0x5a, 0x4d, 0x3c, 0xea, 0x64, 0x92, 0xbc,
  0x2d, 0xc9, 0xa4, 0x3c, 0xa6, 0xc3, 0xac, 0x3c, 0x6d, 0xba, 0x62, 0xbb,
  0xeb, 0x9a, 0x9c, 0xbc, 0x1d, 0x71, 0xd0, 0x3b, 0xb4, 0xf6, 0xc5, 0x3a,
  0xbe, 0xe0, 0x0e, 0xbc, 0xf6, 0xfc, 0xff, 0xff, 0x44, 0x00, 0x00, 0x00,
  0x07, 0x00, 0x00, 0x00, 0x08, 0x00, 0x00, 0x00, 0x40, 0x00, 0x00, 0x00,
  0x2e, 0x00, 0x00, 0x00, 0x73, 0x65, 0x71, 0x75, 0x65, 0x6e, 0x74, 0x69,
  0x61, 0x6c, 0x5f, 0x35, 0x35, 0x2f, 0x64, 0x65, 0x6e, 0x73, 0x65, 0x5f,
  0x32, 0x36, 0x33, 0x2f, 0x42, 0x69, 0x61, 0x73, 0x41, 0x64, 0x64, 0x2f,
  0x52, 0x65, 0x61, 0x64, 0x56, 0x61, 0x72, 0x69, 0x61, 0x62, 0x6c, 0x65,
  0x4f, 0x70, 0x00, 0x00, 0x01, 0x00, 0x00, 0x00, 0x0a, 0x00, 0x00, 0x00,
  0x00, 0xfd, 0xff, 0xff, 0xde, 0xfd, 0xff, 0xff, 0x04, 0x00, 0x00, 0x00,
  0x28, 0x00, 0x00, 0x00, 0xbd, 0x96, 0x19, 0xbc, 0xec, 0xca, 0x6f, 0x3a,
  0x83, 0x88, 0xb3, 0x3b, 0x95, 0x5b, 0x8b, 0xbc, 0xfe, 0xa3, 0x96, 0x3c,
  0xe1, 0x8e, 0xdb, 0xbc, 0xc8, 0x17, 0x47, 0xba, 0x3d, 0x55, 0x62, 0xbc,
  0x89, 0xc2, 0x8f, 0xbb, 0x21, 0x6e, 0x2b, 0x3c, 0x7e, 0xfd, 0xff, 0xff,
  0x44, 0x00, 0x00, 0x00, 0x06, 0x00, 0x00, 0x00, 0x08, 0x00, 0x00, 0x00,
  0x40, 0x00, 0x00, 0x00, 0x2e, 0x00, 0x00, 0x00, 0x73, 0x65, 0x71, 0x75,
  0x65, 0x6e, 0x74, 0x69, 0x61, 0x6c, 0x5f, 0x35, 0x35, 0x2f, 0x64, 0x65,
  0x6e, 0x73, 0x65, 0x5f, 0x32, 0x36, 0x32, 0x2f, 0x42, 0x69, 0x61, 0x73,
  0x41, 0x64, 0x64, 0x2f, 0x52, 0x65, 0x61, 0x64, 0x56, 0x61, 0x72, 0x69,
  0x61, 0x62, 0x6c, 0x65, 0x4f, 0x70, 0x00, 0x00, 0x01, 0x00, 0x00, 0x00,
  0x0a, 0x00, 0x00, 0x00, 0x88, 0xfd, 0xff, 0xff, 0x66, 0xfe, 0xff, 0xff,
  0x04, 0x00, 0x00, 0x00, 0x28, 0x00, 0x00, 0x00, 0x3e, 0xbe, 0x86, 0x3a,
  0x84, 0x88, 0x45, 0x3c, 0x57, 0xe6, 0xa1, 0x3c, 0xd2, 0xc8, 0x40, 0xbc,
  0x80, 0xd0, 0x74, 0x3c, 0x3a, 0x58, 0x0a, 0xbc, 0x74, 0x16, 0xfa, 0x3b,
  0xec, 0x5b, 0x37, 0x3b, 0xcf, 0x18, 0xb6, 0xbb, 0xdb, 0xa3, 0xa2, 0xbb,
  0x06, 0xfe, 0xff, 0xff, 0x44, 0x00, 0x00, 0x00, 0x05, 0x00, 0x00, 0x00,
  0x08, 0x00, 0x00, 0x00, 0x40, 0x00, 0x00, 0x00, 0x2e, 0x00, 0x00, 0x00,
  0x73, 0x65, 0x71, 0x75, 0x65, 0x6e, 0x74, 0x69, 0x61, 0x6c, 0x5f, 0x35,
  0x35, 0x2f, 0x64, 0x65, 0x6e, 0x73, 0x65, 0x5f, 0x32, 0x36, 0x31, 0x2f,
  0x42, 0x69, 0x61, 0x73, 0x41, 0x64, 0x64, 0x2f, 0x52, 0x65, 0x61, 0x64,
  0x56, 0x61, 0x72, 0x69, 0x61, 0x62, 0x6c, 0x65, 0x4f, 0x70, 0x00, 0x00,
  0x01, 0x00, 0x00, 0x00, 0x0a, 0x00, 0x00, 0x00, 0x10, 0xfe, 0xff, 0xff,
  0xee, 0xfe, 0xff, 0xff, 0x04, 0x00, 0x00, 0x00, 0x28, 0x00, 0x00, 0x00,
  0x93, 0xdf, 0xc2, 0xbb, 0xa1, 0xc6, 0xff, 0xbb, 0x17, 0x26, 0xb8, 0x3b,
  0xad, 0xa9, 0x75, 0xbc, 0xf7, 0x68, 0xaf, 0x3b, 0x6f, 0x65, 0xc3, 0xbb,
  0x5b, 0x43, 0xc4, 0xbb, 0x5f, 0x12, 0x4c, 0xbc, 0x7e, 0x1f, 0xf8, 0xbb,
  0xbf, 0x51, 0x48, 0xbc, 0x8e, 0xfe, 0xff, 0xff, 0x44, 0x00, 0x00, 0x00,
  0x04, 0x00, 0x00, 0x00, 0x08, 0x00, 0x00, 0x00, 0x40, 0x00, 0x00, 0x00,
  0x2e, 0x00, 0x00, 0x00, 0x73, 0x65, 0x71, 0x75, 0x65, 0x6e, 0x74, 0x69,
  0x61, 0x6c, 0x5f, 0x35, 0x35, 0x2f, 0x64, 0x65, 0x6e, 0x73, 0x65, 0x5f,
  0x32, 0x36, 0x30, 0x2f, 0x42, 0x69, 0x61, 0x73, 0x41, 0x64, 0x64, 0x2f,
  0x52, 0x65, 0x61, 0x64, 0x56, 0x61, 0x72, 0x69, 0x61, 0x62, 0x6c, 0x65,
  0x4f, 0x70, 0x00, 0x00, 0x01, 0x00, 0x00, 0x00, 0x0a, 0x00, 0x00, 0x00,
  0x98, 0xfe, 0xff, 0xff, 0x76, 0xff, 0xff, 0xff, 0x04, 0x00, 0x00, 0x00,
  0x28, 0x00, 0x00, 0x00, 0xee, 0x21, 0x63, 0x3b, 0xd7, 0x28, 0xa7, 0x3b,
  0x97, 0x92, 0x02, 0xbc, 0x3f, 0x7f, 0xbf, 0x3c, 0x82, 0x1f, 0x9c, 0x3b,
  0x41, 0x5e, 0x38, 0x3a, 0xe3, 0xb5, 0x20, 0x3c, 0x51, 0xac, 0xa8, 0xba,
  0xb9, 0x18, 0xc4, 0x3b, 0xcc, 0x9a, 0x86, 0x3b, 0x16, 0xff, 0xff, 0xff,
  0x44, 0x00, 0x00, 0x00, 0x03, 0x00, 0x00, 0x00, 0x08, 0x00, 0x00, 0x00,
  0x40, 0x00, 0x00, 0x00, 0x2e, 0x00, 0x00, 0x00, 0x73, 0x65, 0x71, 0x75,
  0x65, 0x6e, 0x74, 0x69, 0x61, 0x6c, 0x5f, 0x35, 0x35, 0x2f, 0x64, 0x65,
  0x6e, 0x73, 0x65, 0x5f, 0x32, 0x35, 0x39, 0x2f, 0x42, 0x69, 0x61, 0x73,
  0x41, 0x64, 0x64, 0x2f, 0x52, 0x65, 0x61, 0x64, 0x56, 0x61, 0x72, 0x69,
  0x61, 0x62, 0x6c, 0x65, 0x4f, 0x70, 0x00, 0x00, 0x01, 0x00, 0x00, 0x00,
  0x0a, 0x00, 0x00, 0x00, 0x70, 0xff, 0xff, 0xff, 0x00, 0x00, 0x06, 0x00,
  0x08, 0x00, 0x04, 0x00, 0x06, 0x00, 0x00, 0x00, 0x04, 0x00, 0x00, 0x00,
  0x28, 0x00, 0x00, 0x00, 0x13, 0x5f, 0x08, 0x3b, 0x04, 0xf2, 0x51, 0x3b,
  0x49, 0x02, 0x4b, 0x3b, 0x97, 0xb8, 0x48, 0x3b, 0xae, 0xb2, 0x37, 0x3b,
  0x8c, 0xe4, 0x16, 0xbc, 0x7b, 0xc0, 0x68, 0xba, 0x17, 0x10, 0x54, 0x3c,
  0xce, 0x3d, 0x4f, 0x3b, 0x12, 0x87, 0xfe, 0x3b, 0xa6, 0xff, 0xff, 0xff,
  0x44, 0x00, 0x00, 0x00, 0x02, 0x00, 0x00, 0x00, 0x08, 0x00, 0x00, 0x00,
  0x44, 0x00, 0x00, 0x00, 0x2e, 0x00, 0x00, 0x00, 0x73, 0x65, 0x71, 0x75,
  0x65, 0x6e, 0x74, 0x69, 0x61, 0x6c, 0x5f, 0x35, 0x35, 0x2f, 0x64, 0x65,
  0x6e, 0x73, 0x65, 0x5f, 0x32, 0x35, 0x38, 0x2f, 0x42, 0x69, 0x61, 0x73,
  0x41, 0x64, 0x64, 0x2f, 0x52, 0x65, 0x61, 0x64, 0x56, 0x61, 0x72, 0x69,
  0x61, 0x62, 0x6c, 0x65, 0x4f, 0x70, 0x00, 0x00, 0x01, 0x00, 0x00, 0x00,
  0x0a, 0x00, 0x00, 0x00, 0x04, 0x00, 0x06, 0x00, 0x04, 0x00, 0x00, 0x00,
  0x00, 0x00, 0x0e, 0x00, 0x14, 0x00, 0x04, 0x00, 0x00, 0x00, 0x08, 0x00,
  0x0c, 0x00, 0x10, 0x00, 0x0e, 0x00, 0x00, 0x00, 0x24, 0x00, 0x00, 0x00,
  0x01, 0x00, 0x00, 0x00, 0x08, 0x00, 0x00, 0x00, 0x24, 0x00, 0x00, 0x00,
  0x0f, 0x00, 0x00, 0x00, 0x64, 0x65, 0x6e, 0x73, 0x65, 0x5f, 0x32, 0x35,
  0x38, 0x5f, 0x69, 0x6e, 0x70, 0x75, 0x74, 0x00, 0x02, 0x00, 0x00, 0x00,
  0x01, 0x00, 0x00, 0x00, 0x04, 0x00, 0x00, 0x00, 0xfc, 0xff, 0xff, 0xff,
  0x04, 0x00, 0x04, 0x00, 0x04, 0x00, 0x00, 0x00
};
unsigned int g_model_len = 8444;
