unsigned char g_model[] = {
  0x1c, 0x00, 0x00, 0x00, 0x54, 0x46, 0x4c, 0x33, 0x00, 0x00, 0x12, 0x00,
  0x1c, 0x00, 0x04, 0x00, 0x08, 0x00, 0x0c, 0x00, 0x10, 0x00, 0x14, 0x00,
  0x00, 0x00, 0x18, 0x00, 0x12, 0x00, 0x00, 0x00, 0x03, 0x00, 0x00, 0x00,
  0x54, 0x00, 0x00, 0x00, 0x48, 0x00, 0x00, 0x00, 0xa8, 0x00, 0x00, 0x00,
  0x08, 0x00, 0x00, 0x00, 0x50, 0x00, 0x00, 0x00, 0x0d, 0x00, 0x00, 0x00,
  0xc0, 0x14, 0x00, 0x00, 0xbc, 0x14, 0x00, 0x00, 0xe0, 0x13, 0x00, 0x00,
  0xac, 0x12, 0x00, 0x00, 0x40, 0x12, 0x00, 0x00, 0x38, 0x0d, 0x00, 0x00,
  0x10, 0x05, 0x00, 0x00, 0x28, 0x03, 0x00, 0x00, 0xa0, 0x14, 0x00, 0x00,
  0x9c, 0x14, 0x00, 0x00, 0x98, 0x14, 0x00, 0x00, 0x94, 0x14, 0x00, 0x00,
  0x4c, 0x00, 0x00, 0x00, 0x01, 0x00, 0x00, 0x00, 0x84, 0x00, 0x00, 0x00,
  0x02, 0x00, 0x00, 0x00, 0xb0, 0x02, 0x00, 0x00, 0x30, 0x01, 0x00, 0x00,
  0x01, 0x00, 0x00, 0x00, 0x0c, 0x00, 0x00, 0x00, 0x08, 0x00, 0x0c, 0x00,
  0x04, 0x00, 0x08, 0x00, 0x08, 0x00, 0x00, 0x00, 0x08, 0x00, 0x00, 0x00,
  0x0c, 0x00, 0x00, 0x00, 0x13, 0x00, 0x00, 0x00, 0x6d, 0x69, 0x6e, 0x5f,
  0x72, 0x75, 0x6e, 0x74, 0x69, 0x6d, 0x65, 0x5f, 0x76, 0x65, 0x72, 0x73,
  0x69, 0x6f, 0x6e, 0x00, 0x9a, 0xec, 0xff, 0xff, 0x04, 0x00, 0x00, 0x00,
  0x10, 0x00, 0x00, 0x00, 0x31, 0x2e, 0x35, 0x2e, 0x30, 0x00, 0x00, 0x00,
  0x00, 0x00, 0x00, 0x00, 0x00, 0x00, 0x00, 0x00, 0x0f, 0x00, 0x00, 0x00,
  0x4d, 0x4c, 0x49, 0x52, 0x20, 0x43, 0x6f, 0x6e, 0x76, 0x65, 0x72, 0x74,
  0x65, 0x64, 0x2e, 0x00, 0x00, 0x00, 0x0e, 0x00, 0x18, 0x00, 0x04, 0x00,
  0x08, 0x00, 0x0c, 0x00, 0x10, 0x00, 0x14, 0x00, 0x0e, 0x00, 0x00, 0x00,
  0x44, 0x00, 0x00, 0x00, 0x38, 0x00, 0x00, 0x00, 0x2c, 0x00, 0x00, 0x00,
  0x14, 0x00, 0x00, 0x00, 0x04, 0x00, 0x00, 0x00, 0x04, 0x00, 0x00, 0x00,
  0x6d, 0x61, 0x69, 0x6e, 0x00, 0x00, 0x00, 0x00, 0x04, 0x00, 0x00, 0x00,
  0xd0, 0x01, 0x00, 0x00, 0x44, 0x01, 0x00, 0x00, 0xc8, 0x00, 0x00, 0x00,
  0x54, 0x00, 0x00, 0x00, 0x01, 0x00, 0x00, 0x00, 0x0a, 0x00, 0x00, 0x00,
  0x01, 0x00, 0x00, 0x00, 0x00, 0x00, 0x00, 0x00, 0x0b, 0x00, 0x00, 0x00,
  0x7c, 0x13, 0x00, 0x00, 0x10, 0x13, 0x00, 0x00, 0x7c, 0x12, 0x00, 0x00,
  0x50, 0x11, 0x00, 0x00, 0xf0, 0x10, 0x00, 0x00, 0xe8, 0x0b, 0x00, 0x00,
  0xc0, 0x03, 0x00, 0x00, 0xd8, 0x01, 0x00, 0x00, 0x34, 0x01, 0x00, 0x00,
  0xb8, 0x00, 0x00, 0x00, 0x50, 0x00, 0x00, 0x00, 0x00, 0x00, 0x0e, 0x00,
  0x18, 0x00, 0x08, 0x00, 0x0c, 0x00, 0x10, 0x00, 0x07, 0x00, 0x14, 0x00,
  0x0e, 0x00, 0x00, 0x00, 0x00, 0x00, 0x00, 0x09, 0x01, 0x00, 0x00, 0x00,
  0x1c, 0x00, 0x00, 0x00, 0x10, 0x00, 0x00, 0x00, 0x04, 0x00, 0x00, 0x00,
  0x7a, 0xed, 0xff, 0xff, 0x00, 0x00, 0x80, 0x3f, 0x01, 0x00, 0x00, 0x00,
  0x0a, 0x00, 0x00, 0x00, 0x01, 0x00, 0x00, 0x00, 0x09, 0x00, 0x00, 0x00,
  0x8e, 0xfe, 0xff, 0xff, 0x00, 0x00, 0x00, 0x19, 0x01, 0x00, 0x00, 0x00,
  0x0a, 0xed, 0xff, 0xff, 0x20, 0x00, 0x00, 0x00, 0x0b, 0x00, 0x00, 0x00,
  0x08, 0x00, 0x00, 0x00, 0x20, 0x00, 0x00, 0x00, 0x08, 0x00, 0x00, 0x00,
  0x49, 0x64, 0x65, 0x6e, 0x74, 0x69, 0x74, 0x79, 0x00, 0x00, 0x00, 0x00,
  0x02, 0x00, 0x00, 0x00, 0x01, 0x00, 0x00, 0x00, 0x02, 0x00, 0x00, 0x00,
  0xf4, 0xec, 0xff, 0xff, 0x0e, 0xff, 0xff, 0xff, 0x00, 0x00, 0x00, 0x08,
  0x18, 0x00, 0x00, 0x00, 0x0c, 0x00, 0x00, 0x00, 0x04, 0x00, 0x00, 0x00,
  0x0c, 0xed, 0xff, 0xff, 0x01, 0x00, 0x00, 0x00, 0x09, 0x00, 0x00, 0x00,
  0x03, 0x00, 0x00, 0x00, 0x08, 0x00, 0x00, 0x00, 0x06, 0x00, 0x00, 0x00,
  0x03, 0x00, 0x00, 0x00, 0x6e, 0xed, 0xff, 0xff, 0x34, 0x00, 0x00, 0x00,
  0x0a, 0x00, 0x00, 0x00, 0x08, 0x00, 0x00, 0x00, 0x34, 0x00, 0x00, 0x00,
  0x1f, 0x00, 0x00, 0x00, 0x73, 0x65, 0x71, 0x75, 0x65, 0x6e, 0x74, 0x69,
  0x61, 0x6c, 0x5f, 0x35, 0x33, 0x2f, 0x64, 0x65, 0x6e, 0x73, 0x65, 0x5f,
  0x32, 0x35, 0x34, 0x2f, 0x42, 0x69, 0x61, 0x73, 0x41, 0x64, 0x64, 0x00,
  0x02, 0x00, 0x00, 0x00, 0x01, 0x00, 0x00, 0x00, 0x02, 0x00, 0x00, 0x00,
  0x6c, 0xed, 0xff, 0xff, 0x86, 0xff, 0xff, 0xff, 0x00, 0x00, 0x00, 0x08,
  0x18, 0x00, 0x00, 0x00, 0x0c, 0x00, 0x00, 0x00, 0x04, 0x00, 0x00, 0x00,
  0x84, 0xed, 0xff, 0xff, 0x01, 0x00, 0x00, 0x00, 0x08, 0x00, 0x00, 0x00,
  0x03, 0x00, 0x00, 0x00, 0x07, 0x00, 0x00, 0x00, 0x05, 0x00, 0x00, 0x00,
  0x02, 0x00, 0x00, 0x00, 0xe6, 0xed, 0xff, 0xff, 0x34, 0x00, 0x00, 0x00,
  0x09, 0x00, 0x00, 0x00, 0x08, 0x00, 0x00, 0x00, 0x34, 0x00, 0x00, 0x00,
  0x1f, 0x00, 0x00, 0x00, 0x73, 0x65, 0x71, 0x75, 0x65, 0x6e, 0x74, 0x69,
  0x61, 0x6c, 0x5f, 0x35, 0x33, 0x2f, 0x64, 0x65, 0x6e, 0x73, 0x65, 0x5f,
  0x32, 0x35, 0x33, 0x2f, 0x42, 0x69, 0x61, 0x73, 0x41, 0x64, 0x64, 0x00,
  0x02, 0x00, 0x00, 0x00, 0x01, 0x00, 0x00, 0x00, 0x32, 0x00, 0x00, 0x00,
  0x34, 0xee, 0xff, 0xff, 0x00, 0x00, 0x0e, 0x00, 0x14, 0x00, 0x00, 0x00,
  0x08, 0x00, 0x0c, 0x00, 0x07, 0x00, 0x10, 0x00, 0x0e, 0x00, 0x00, 0x00,
  0x00, 0x00, 0x00, 0x08, 0x18, 0x00, 0x00, 0x00, 0x0c, 0x00, 0x00, 0x00,
  0x04, 0x00, 0x00, 0x00, 0x0c, 0xee, 0xff, 0xff, 0x01, 0x00, 0x00, 0x00,
  0x07, 0x00, 0x00, 0x00, 0x03, 0x00, 0x00, 0x00, 0x00, 0x00, 0x00, 0x00,
  0x04, 0x00, 0x00, 0x00, 0x01, 0x00, 0x00, 0x00, 0x00, 0x00, 0x0a, 0x00,
  0x0c, 0x00, 0x07, 0x00, 0x00, 0x00, 0x08, 0x00, 0x0a, 0x00, 0x00, 0x00,
  0x00, 0x00, 0x00, 0x09, 0x01, 0x00, 0x00, 0x00, 0x86, 0xee, 0xff, 0xff,
  0x34, 0x00, 0x00, 0x00, 0x08, 0x00, 0x00, 0x00, 0x08, 0x00, 0x00, 0x00,
  0x34, 0x00, 0x00, 0x00, 0x1f, 0x00, 0x00, 0x00, 0x73, 0x65, 0x71, 0x75,
  0x65, 0x6e, 0x74, 0x69, 0x61, 0x6c, 0x5f, 0x35, 0x33, 0x2f, 0x64, 0x65,
  0x6e, 0x73, 0x65, 0x5f, 0x32, 0x35, 0x32, 0x2f, 0x42, 0x69, 0x61, 0x73,
  0x41, 0x64, 0x64, 0x00, 0x02, 0x00, 0x00, 0x00, 0x01, 0x00, 0x00, 0x00,
  0x0a, 0x00, 0x00, 0x00, 0x84, 0xee, 0xff, 0xff, 0x62, 0xef, 0xff, 0xff,
  0x04, 0x00, 0x00, 0x00, 0x90, 0x01, 0x00, 0x00, 0x20, 0xa9, 0xff, 0xbc,
  0xe4, 0xd6, 0x1d, 0x3e, 0x80, 0x14, 0x35, 0x3e, 0x47, 0xdf, 0x63, 0x3d,
  0x97, 0x86, 0x23, 0xbe, 0x73, 0x39, 0x6e, 0x3e, 0x5b, 0xaf, 0x90, 0x3e,
  0x9e, 0x96, 0x2d, 0x3c, 0x00, 0x39, 0x34, 0xbd, 0x5f, 0xf3, 0x37, 0x3d,
  0x9b, 0x8c, 0x53, 0xbe, 0xea, 0x01, 0xb3, 0xbd, 0x53, 0x0d, 0x4f, 0xbe,
  0x31, 0x7a, 0x52, 0xbd, 0xd3, 0xb4, 0x49, 0x3e, 0x70, 0xa9, 0x1e, 0x3e,
  0x17, 0x9e, 0x8e, 0xbe, 0xc9, 0x45, 0xe5, 0x3d, 0xec, 0xaf, 0xce, 0x3c,
  0x3e, 0x84, 0x5a, 0xbe, 0x08, 0xe9, 0xf3, 0x3b, 0x5c, 0x6b, 0x6d, 0xbe,
  0x25, 0x0f, 0x23, 0x3e, 0xab, 0x55, 0x34, 0xbe, 0x6d, 0x6c, 0xca, 0xbd,
  0xd0, 0x6c, 0xe1, 0x3d, 0x8d, 0x5c, 0xaf, 0x3e, 0x86, 0x58, 0x72, 0x3e,
  0x7f, 0x8b, 0xa1, 0x3e, 0x52, 0x80, 0xc3, 0x3d, 0x96, 0x21, 0x8f, 0xbe,
  0xe6, 0x61, 0xbe, 0xbc, 0x1f, 0x0a, 0x18, 0xbe, 0x9a, 0x4d, 0x72, 0x3e,
  0x49, 0x8d, 0x30, 0x3e, 0xd5, 0xa2, 0x19, 0xbe, 0xfd, 0xec, 0x2b, 0x3e,
  0x35, 0x2b, 0x09, 0xbe, 0xfa, 0x8f, 0x99, 0xbe, 0x3c, 0xab, 0x0d, 0xbc,
  0xe9, 0xfa, 0xa8, 0xbe, 0xba, 0x98, 0x42, 0xbe, 0x8c, 0xdd, 0x78, 0x3e,
  0x89, 0x98, 0x8b, 0xbc, 0x17, 0x8d, 0x28, 0x3e, 0xf5, 0x5b, 0xb4, 0x3d,
  0x57, 0x2a, 0x9e, 0xbe, 0x81, 0xea, 0x82, 0xbe, 0xb6, 0x20, 0xd6, 0xbd,
  0xe4, 0xc0, 0xe9, 0xbd, 0x38, 0xb5, 0x65, 0x3e, 0x88, 0x63, 0x28, 0x3e,
  0x65, 0xc3, 0x2d, 0xbe, 0xff, 0x17, 0x0c, 0xbd, 0xad, 0x31, 0x5c, 0xbe,
  0x1e, 0x7c, 0xf5, 0xbd, 0xcd, 0x93, 0xf4, 0x3c, 0xe2, 0x66, 0x91, 0x3e,
  0x77, 0x4a, 0x38, 0x3e, 0x54, 0x44, 0xa2, 0xbe, 0x13, 0x8b, 0x2a, 0xbe,
  0x06, 0xe5, 0x88, 0xbe, 0x35, 0xe0, 0x57, 0xbd, 0xae, 0x59, 0xa5, 0x3e,
  0x41, 0xa4, 0xcc, 0x3d, 0xcd, 0xb4, 0x5e, 0x3c, 0x1e, 0x8d, 0x85, 0xbe,
  0xcb, 0xc9, 0x84, 0x3e, 0xcb, 0x04, 0x96, 0x3e, 0x55, 0x67, 0x81, 0x3e,
  0x0c, 0x82, 0x68, 0xbe, 0x37, 0x46, 0x58, 0xbe, 0xf4, 0xa5, 0x9c, 0xbe,
  0xf3, 0x3b, 0x4a, 0xbd, 0x9c, 0x97, 0xf7, 0xbd, 0x69, 0x78, 0x9c, 0x3e,
  0x87, 0xf0, 0x91, 0x3e, 0x0e, 0x24, 0x1f, 0xbd, 0xbb, 0x9f, 0xb8, 0xbd,
  0xb9, 0x33, 0x95, 0x3e, 0x31, 0xb8, 0xa2, 0xbe, 0xf1, 0xb6, 0x74, 0x3e,
  0x28, 0x47, 0x4f, 0x3e, 0x73, 0x25, 0x6b, 0xbc, 0x7f, 0x58, 0x46, 0x3e,
  0x91, 0xbc, 0x06, 0xbe, 0xaa, 0x61, 0x37, 0xbe, 0x48, 0xd4, 0x8b, 0x3e,
  0x08, 0xee, 0xb2, 0xbe, 0x0c, 0xaa, 0xfe, 0xbb, 0x91, 0xde, 0x63, 0x3d,
  0x67, 0x98, 0x36, 0xbc, 0x65, 0x49, 0xea, 0xbd, 0x62, 0xd0, 0x97, 0x3e,
  0xf0, 0x4f, 0x79, 0x3e, 0x62, 0x59, 0x0e, 0x3e, 0x96, 0x66, 0xa0, 0x3e,
  0x0d, 0x48, 0x9d, 0xbe, 0x71, 0x9a, 0x8a, 0xbe, 0xe7, 0xca, 0xa3, 0x3e,
  0x6a, 0xf0, 0xff, 0xff, 0x34, 0x00, 0x00, 0x00, 0x07, 0x00, 0x00, 0x00,
  0x08, 0x00, 0x00, 0x00, 0x34, 0x00, 0x00, 0x00, 0x1e, 0x00, 0x00, 0x00,
  0x73, 0x65, 0x71, 0x75, 0x65, 0x6e, 0x74, 0x69, 0x61, 0x6c, 0x5f, 0x35,
  0x33, 0x2f, 0x64, 0x65, 0x6e, 0x73, 0x65, 0x5f, 0x32, 0x35, 0x34, 0x2f,
  0x4d, 0x61, 0x74, 0x4d, 0x75, 0x6c, 0x00, 0x00, 0x02, 0x00, 0x00, 0x00,
  0x02, 0x00, 0x00, 0x00, 0x32, 0x00, 0x00, 0x00, 0x68, 0xf0, 0xff, 0xff,
  0x46, 0xf1, 0xff, 0xff, 0x04, 0x00, 0x00, 0x00, 0xd0, 0x07, 0x00, 0x00,
  0x52, 0x0c, 0x4b, 0xbe, 0xc2, 0xa6, 0xc6, 0xb9, 0x2a, 0x28, 0x7e, 0xbd,
  0x9f, 0x23, 0x33, 0xbe, 0x59, 0x57, 0xda, 0x3d, 0x35, 0x43, 0xa6, 0x3e,
  0x75, 0xf5, 0x4c, 0xbd, 0x8c, 0x35, 0x85, 0xbe, 0x4a, 0x0d, 0xa8, 0x3e,
  0xa9, 0x80, 0x4d, 0xbe, 0x69, 0xc9, 0xc4, 0x3d, 0x9f, 0x62, 0xcf, 0x3d,
  0x9a, 0x12, 0xe8, 0xbd, 0x87, 0xfd, 0x71, 0x3e, 0xe5, 0xd5, 0x8f, 0xbe,
  0x51, 0xf2, 0x25, 0x3e, 0x1c, 0x27, 0x39, 0x3e, 0xda, 0x51, 0x9a, 0xbc,
  0x2a, 0xa7, 0x8e, 0xbe, 0xe7, 0x13, 0x6d, 0x3e, 0x07, 0xa9, 0xc7, 0x3d,
  0x8c, 0x76, 0x1f, 0xbc, 0x7b, 0xb3, 0xf8, 0x3a, 0x55, 0xae, 0x46, 0xbd,
  0x3e, 0xab, 0xd8, 0x3d, 0x25, 0xa2, 0xa1, 0xbe, 0x9d, 0x30, 0x7b, 0xbe,
  0x4e, 0xcf, 0x6d, 0x3d, 0xff, 0xa3, 0x15, 0xbe, 0xea, 0x21, 0x89, 0x3e,
  0xfb, 0x23, 0x99, 0xbe, 0x51, 0xea, 0x6a, 0x3e, 0xd7, 0x89, 0x91, 0x3e,
  0x2d, 0x05, 0xfb, 0xbd, 0xbf, 0x4a, 0x94, 0x3e, 0x5f, 0x6e, 0x44, 0xbe,
  0x49, 0xc9, 0xbf, 0x3d, 0x2b, 0x32, 0x3c, 0x3e, 0x8a, 0xb3, 0x09, 0xbe,
  0x29, 0x5f, 0x57, 0x3e, 0xc0, 0x9b, 0x0b, 0x3e, 0x75, 0x04, 0x77, 0x3e,
  0xfd, 0xd6, 0x96, 0xbe, 0x41, 0x83, 0x6e, 0x3e, 0xb2, 0x8f, 0x5e, 0xbe,
  0x85, 0x3b, 0xca, 0x3d, 0x00, 0x03, 0x28, 0xbe, 0x33, 0xc1, 0x5d, 0xbe,
  0xc7, 0x93, 0x9f, 0xbe, 0xf4, 0xf3, 0x92, 0xbe, 0x9c, 0x8e, 0x76, 0xbe,
  0xa6, 0x18, 0x6c, 0xbe, 0xf3, 0x88, 0x8c, 0x3e, 0x34, 0xb4, 0xa0, 0xbe,
  0xbc, 0x9d, 0x8d, 0x3e, 0x23, 0x76, 0x5f, 0xbe, 0x60, 0xb3, 0xb4, 0xbd,
  0xb7, 0x48, 0x4a, 0xbe, 0xa6, 0x1e, 0x95, 0xbe, 0x09, 0xe5, 0x30, 0x3e,
  0x6a, 0xad, 0xc7, 0xbc, 0x02, 0x8e, 0x6b, 0x3d, 0xd4, 0xa4, 0x9b, 0x3e,
  0x60, 0xce, 0x6d, 0x3e, 0x16, 0x56, 0xf5, 0xbb, 0x91, 0x88, 0x79, 0x3e,
  0x28, 0x1d, 0x35, 0xbe, 0x72, 0x77, 0x92, 0xbe, 0xd6, 0xd2, 0x69, 0xbe,
  0xcc, 0x62, 0x2e, 0x3e, 0xa3, 0x72, 0x46, 0x3e, 0x76, 0x72, 0x1d, 0xbe,
  0xfd, 0x36, 0x91, 0x3e, 0x95, 0x31, 0x4b, 0xbd, 0x32, 0x4d, 0x4a, 0x3e,
  0x28, 0xf4, 0xfe, 0x3d, 0x34, 0x77, 0x5f, 0xbe, 0x04, 0x8f, 0x59, 0x3e,
  0x92, 0xbb, 0xac, 0xbd, 0xd9, 0x2a, 0x6a, 0xbe, 0x14, 0x49, 0x18, 0xbe,
  0x37, 0x37, 0x90, 0xbd, 0x6d, 0x14, 0x81, 0xbe, 0xce, 0xac, 0x99, 0xbe,
  0xed, 0xcd, 0x83, 0x3e, 0x78, 0x8d, 0x69, 0x3e, 0x06, 0x8d, 0x64, 0x3e,
  0x93, 0x63, 0x2d, 0xbe, 0x51, 0xe6, 0x83, 0xbd, 0x69, 0x65, 0x59, 0xbe,
  0x1a, 0x9e, 0x46, 0x3e, 0xbe, 0x93, 0x84, 0xbe, 0x1e, 0xa8, 0xa0, 0xbe,
  0x4c, 0xb2, 0x79, 0x3e, 0x61, 0x83, 0x83, 0x3e, 0xe6, 0x20, 0x40, 0x3e,
  0xe4, 0x2b, 0x02, 0xbe, 0x15, 0x48, 0x6a, 0xbe, 0x7c, 0x9b, 0x56, 0xbe,
  0x44, 0xad, 0x97, 0xbe, 0xfd, 0x0f, 0x4a, 0x3e, 0x2b, 0xab, 0x0e, 0xbe,
  0x8b, 0xa1, 0xa4, 0x3e, 0xaf, 0x98, 0x92, 0x3e, 0xf9, 0xd8, 0x1e, 0x3e,
  0xa5, 0x5f, 0xe9, 0xbd, 0x3c, 0xa8, 0x97, 0x3e, 0xee, 0xdf, 0x3d, 0xbe,
  0x7b, 0x40, 0x36, 0xbe, 0x6f, 0x8a, 0x94, 0x3e, 0x0c, 0xe5, 0x71, 0x3e,
  0xd0, 0xf1, 0x05, 0xbe, 0x5e, 0xb9, 0x65, 0x3e, 0x6f, 0x1c, 0x24, 0x3e,
  0xb8, 0x2b, 0x52, 0x3e, 0xd2, 0x94, 0x99, 0xbd, 0xff, 0xcd, 0x91, 0xbe,
  0x90, 0x66, 0x1a, 0xbe, 0x2e, 0xe5, 0x04, 0x3e, 0xc4, 0x6f, 0x37, 0x3e,
  0xa1, 0xdd, 0xde, 0x3d, 0x72, 0xd1, 0x97, 0x3e, 0x94, 0xe2, 0x29, 0x3e,
  0xec, 0x70, 0x2d, 0xbe, 0x2b, 0x21, 0x28, 0xbe, 0x9b, 0xd5, 0x99, 0x3e,
  0xec, 0x0f, 0xa5, 0x3e, 0xf1, 0xe0, 0x16, 0x3e, 0x47, 0x3e, 0xb6, 0x3d,
  0x83, 0xaf, 0xe9, 0x3d, 0xe4, 0x3e, 0x93, 0xbe, 0x64, 0x86, 0x52, 0xbe,
  0x25, 0x50, 0xf4, 0x3d, 0xc8, 0x94, 0x8e, 0x3e, 0xfc, 0x8d, 0xa2, 0x3e,
  0x21, 0x37, 0xf7, 0x3d, 0x5f, 0x42, 0x06, 0x3e, 0xdc, 0xa4, 0xe2, 0xbd,
  0x34, 0xc2, 0xb3, 0x39, 0x7d, 0x02, 0x9a, 0x3e, 0x03, 0x43, 0x3e, 0xbe,
  0xde, 0x71, 0x5b, 0x3e, 0x07, 0x15, 0xcc, 0x3d, 0x92, 0x47, 0x77, 0xbe,
  0xaf, 0xa0, 0xd2, 0xbd, 0x8f, 0xeb, 0x72, 0x3e, 0xac, 0x22, 0x80, 0xbe,
  0xe2, 0x19, 0x24, 0x3e, 0x34, 0x72, 0x11, 0x3e, 0xd9, 0xff, 0x26, 0xbe,
  0x7d, 0x2f, 0x86, 0xbd, 0x63, 0xbc, 0x95, 0x3e, 0x63, 0x0b, 0x6f, 0xbd,
  0x7a, 0x42, 0xaa, 0xbd, 0x73, 0xfc, 0xeb, 0x3a, 0xa8, 0x7a, 0xc2, 0x3d,
  0xda, 0x96, 0xe7, 0xbc, 0xff, 0xb7, 0x3b, 0x3e, 0x27, 0x8d, 0x98, 0x3d,
  0xa4, 0x22, 0x99, 0x3d, 0xa3, 0x45, 0xab, 0xbd, 0x89, 0x18, 0x26, 0x3e,
  0xc0, 0x28, 0x43, 0x3e, 0x46, 0xb6, 0xe7, 0x3d, 0x90, 0xa6, 0xe3, 0xbd,
  0x5f, 0x7a, 0x15, 0x3e, 0x75, 0xb3, 0x74, 0x3e, 0x56, 0xe9, 0x89, 0x3e,
  0xcf, 0x68, 0x03, 0xbe, 0xbf, 0x17, 0x37, 0x3d, 0xcf, 0x8c, 0x91, 0xbc,
  0x6e, 0x8e, 0x67, 0xbe, 0xb4, 0x6f, 0x84, 0x3e, 0xd6, 0xa6, 0x52, 0x3e,
  0x0d, 0xc1, 0x10, 0xbd, 0xa7, 0xad, 0x08, 0x3e, 0xea, 0x4b, 0x9b, 0xbe,
  0xf1, 0x76, 0x1a, 0x3d, 0xe1, 0x33, 0x6b, 0x3a, 0xb6, 0x50, 0x29, 0xbe,
  0x3a, 0xc5, 0x3c, 0xbe, 0x2a, 0x2f, 0x90, 0xbe, 0x80, 0xab, 0xd4, 0x3c,
  0x15, 0xc3, 0x7c, 0xbe, 0x43, 0x4c, 0x1f, 0x3e, 0x98, 0x33, 0x7c, 0xbd,
  0x59, 0x50, 0x99, 0xbe, 0xa8, 0xd0, 0x43, 0x3e, 0xea, 0x26, 0x1c, 0x3e,
  0xb1, 0xcc, 0xce, 0x3d, 0x41, 0x1e, 0x30, 0x3e, 0xda, 0xbf, 0xd1, 0x3c,
  0xc9, 0x23, 0x29, 0x3e, 0x89, 0xf7, 0x9e, 0x3e, 0xd2, 0x92, 0x01, 0x3e,
  0x5c, 0x11, 0x89, 0x3e, 0x7e, 0x44, 0x95, 0xbd, 0x55, 0xc4, 0x0e, 0xbe,
  0xf1, 0xd9, 0xeb, 0xbc, 0x21, 0x98, 0x41, 0xbe, 0xdf, 0x27, 0x8a, 0x3e,
  0xe6, 0x27, 0x14, 0xbe, 0x22, 0x32, 0xeb, 0x3c, 0x0a, 0x41, 0x8e, 0xbc,
  0xaa, 0x31, 0x12, 0xbe, 0x08, 0xae, 0x5a, 0x3e, 0x86, 0x00, 0x54, 0xbe,
  0x4c, 0xe9, 0xa3, 0x3d, 0xdb, 0xeb, 0x70, 0xbc, 0x4a, 0x12, 0x61, 0xbe,
  0xc1, 0x3f, 0x87, 0xbe, 0xa5, 0x39, 0x57, 0xbd, 0x33, 0x14, 0x8d, 0xbe,
  0x50, 0xa3, 0x0b, 0xbe, 0x51, 0x3d, 0x91, 0x3e, 0x3a, 0x68, 0x34, 0x3e,
  0xfd, 0x2e, 0x95, 0xbe, 0x78, 0xa9, 0x73, 0xbe, 0x26, 0xdf, 0x30, 0x3e,
  0xf0, 0x57, 0x76, 0xbe, 0xf4, 0xb0, 0xe2, 0x3d, 0x78, 0xbb, 0x31, 0xbe,
  0x01, 0xf5, 0x42, 0xbe, 0x60, 0xf9, 0xbd, 0xbd, 0x1c, 0x44, 0x83, 0xbe,
  0xf9, 0x63, 0x48, 0xbd, 0xc7, 0xf7, 0xe3, 0xbd, 0x03, 0xa7, 0x34, 0x3e,
  0xf0, 0x3a, 0x7a, 0xbd, 0xe7, 0xc5, 0x8f, 0x3d, 0xf2, 0x08, 0x37, 0x3e,
  0x95, 0xe8, 0x4c, 0xbe, 0x4a, 0xa5, 0xd9, 0xbc, 0xe6, 0xa6, 0x80, 0x3e,
  0xc5, 0xe5, 0x88, 0x3e, 0xfb, 0x10, 0x38, 0xbd, 0x4b, 0x94, 0x42, 0xbe,
  0x75, 0xed, 0xd0, 0x3d, 0x91, 0x1f, 0xf4, 0xbc, 0x73, 0xee, 0xf9, 0x3c,
  0x7f, 0xb5, 0x76, 0xbd, 0x38, 0x71, 0xa2, 0x3e, 0xe2, 0xf0, 0x52, 0xbe,
  0x0f, 0xaa, 0x5b, 0xbe, 0x25, 0x77, 0x08, 0xbe, 0xf7, 0xca, 0xfd, 0x3d,
  0x80, 0xe1, 0x00, 0xbc, 0xf5, 0x7b, 0x8c, 0x3e, 0x1c, 0x1a, 0x93, 0x3e,
  0xd8, 0x15, 0x81, 0x3e, 0x56, 0x6d, 0x8c, 0xbe, 0xb1, 0x9b, 0x5c, 0xbe,
  0x1a, 0xaa, 0xb4, 0xbd, 0x25, 0xbf, 0xd1, 0x3d, 0xb0, 0x72, 0x7b, 0x3e,
  0x64, 0xc9, 0x33, 0xbe, 0xb6, 0x79, 0xa2, 0x3e, 0xc9, 0xd9, 0x02, 0xbd,
  0x4d, 0x24, 0x62, 0xbe, 0xcb, 0x66, 0xcf, 0xbd, 0xcf, 0x9f, 0x85, 0xbe,
  0x9d, 0x36, 0x62, 0xbd, 0x5c, 0xac, 0x39, 0x3e, 0x58, 0xe5, 0xec, 0x3d,
  0xdb, 0x4c, 0x73, 0x3e, 0x00, 0x14, 0x6d, 0xbe, 0x16, 0x52, 0x9c, 0xbd,
  0xbe, 0x5f, 0x7f, 0xbd, 0xe0, 0x4d, 0x0b, 0xbe, 0x81, 0x97, 0x75, 0xbe,
  0xfa, 0xfd, 0xc3, 0x3d, 0x35, 0x10, 0x7b, 0xbd, 0xc2, 0x2c, 0x31, 0x3d,
  0x89, 0xd0, 0xf3, 0x3c, 0xde, 0xf4, 0xa1, 0xbe, 0xa0, 0x66, 0x6f, 0x3e,
  0x73, 0x2a, 0xad, 0xbc, 0x38, 0x06, 0x9d, 0xbe, 0xb5, 0x51, 0x06, 0x3e,
  0x47, 0xdd, 0xed, 0xbc, 0xc9, 0x9e, 0x89, 0x3e, 0xb7, 0xbc, 0x1b, 0xbe,
  0x08, 0x07, 0x7f, 0xbd, 0x83, 0x86, 0xb1, 0x3d, 0x83, 0x06, 0x0d, 0xbe,
  0x98, 0x3f, 0x06, 0x3d, 0xe8, 0x31, 0x37, 0xbe, 0x30, 0x8e, 0x1a, 0x3e,
  0xfa, 0x03, 0x33, 0xbe, 0xf1, 0xa1, 0x37, 0xbd, 0xd8, 0xf0, 0x34, 0xbd,
  0x5c, 0x93, 0x4d, 0xbe, 0xc9, 0x72, 0xbf, 0xbc, 0x83, 0x79, 0x78, 0xbe,
  0x71, 0x18, 0x99, 0xbe, 0xb3, 0xc9, 0x94, 0x3e, 0x10, 0x10, 0xea, 0x3d,
  0x72, 0x0f, 0x49, 0x3a, 0x74, 0xd1, 0x88, 0xbe, 0x8c, 0x4d, 0xc6, 0x39,
  0x97, 0xd6, 0xb0, 0x3b, 0x96, 0xb0, 0x83, 0xbe, 0xd9, 0x75, 0x5c, 0xbe,
  0x2c, 0x73, 0x0e, 0x3d, 0x57, 0xee, 0x53, 0xbe, 0x20, 0x23, 0x98, 0x3e,
  0xa6, 0xbf, 0xcd, 0xbd, 0xde, 0xb4, 0x73, 0x3e, 0x26, 0x0d, 0x73, 0xbe,
  0x40, 0x4e, 0x2e, 0x3e, 0x81, 0xb9, 0x5b, 0x3e, 0xe8, 0x96, 0x90, 0xbe,
  0x03, 0x5f, 0x2e, 0xbe, 0x9c, 0x34, 0x91, 0xbe, 0x89, 0x23, 0x72, 0xbd,
  0xe2, 0x04, 0xbc, 0xbc, 0x50, 0xfd, 0x26, 0xbe, 0x95, 0xb0, 0x01, 0x3e,
  0xe2, 0x11, 0xe0, 0x3d, 0x6f, 0x92, 0x8e, 0xbe, 0x59, 0xf3, 0xd1, 0xbd,
  0xa1, 0x3c, 0x01, 0xbe, 0xc8, 0x17, 0x98, 0xbe, 0x60, 0x8e, 0x93, 0xbe,
  0x5f, 0x39, 0x72, 0xbe, 0x31, 0x9f, 0x1c, 0xbe, 0x87, 0xae, 0x8c, 0xbd,
  0xd3, 0xfe, 0xf2, 0x3d, 0xce, 0x7c, 0x34, 0x3e, 0x1c, 0x4f, 0xd3, 0x3c,
  0x30, 0x6c, 0xa5, 0xbd, 0xfb, 0x42, 0x52, 0x3e, 0xda, 0x0d, 0x81, 0xbe,
  0xd0, 0x9d, 0x92, 0x3e, 0x31, 0xb8, 0x8e, 0x3e, 0xb0, 0xbe, 0x80, 0xbe,
  0x28, 0x5c, 0x55, 0xbe, 0x9a, 0x08, 0x90, 0x3e, 0x0a, 0xc5, 0x09, 0x3e,
  0x4b, 0xde, 0x8b, 0xbe, 0xf8, 0xed, 0x2a, 0x3e, 0xf1, 0x4f, 0xa8, 0x3c,
  0x19, 0x98, 0xcc, 0xbd, 0x60, 0xa4, 0xfa, 0x3c, 0x9a, 0x73, 0x23, 0x3e,
  0x16, 0xdb, 0x81, 0x3d, 0xd5, 0xc0, 0x90, 0xbd, 0xbf, 0x5c, 0x86, 0xbe,
  0xd8, 0x0b, 0xe6, 0xbd, 0xa6, 0x2c, 0x25, 0x3e, 0x82, 0xb9, 0x6f, 0x3e,
  0xc1, 0xf3, 0x72, 0x3e, 0x1a, 0xa0, 0x55, 0xbe, 0x7e, 0x95, 0x74, 0xbd,
  0xd1, 0xbd, 0x26, 0x3d, 0xcd, 0x59, 0x2d, 0x3e, 0x2d, 0x81, 0x34, 0xbc,
  0x67, 0xd5, 0x5c, 0xbe, 0xcc, 0x0a, 0x5b, 0xbe, 0x67, 0xdc, 0xdc, 0xbd,
  0x66, 0x3f, 0x90, 0x3e, 0x40, 0x78, 0x5c, 0x3e, 0x4c, 0xa1, 0x9a, 0x3e,
  0x64, 0xe4, 0xe3, 0x3d, 0xc9, 0xea, 0x72, 0xbe, 0x90, 0x90, 0x6d, 0x3e,
  0xb3, 0x88, 0x06, 0xbe, 0x78, 0x4c, 0xa2, 0xbe, 0x45, 0x87, 0x8e, 0xbe,
  0x9b, 0x2a, 0x90, 0x3e, 0x01, 0xc6, 0x88, 0xbe, 0x77, 0xc2, 0x1b, 0x3e,
  0x4f, 0xc6, 0x67, 0x3d, 0xcc, 0xb4, 0x11, 0xbd, 0x94, 0xf0, 0x50, 0xbe,
  0x77, 0x39, 0x71, 0x3e, 0xf1, 0x09, 0x5e, 0xbe, 0x60, 0x8c, 0x37, 0x3e,
  0x6f, 0x5d, 0xdf, 0xbd, 0x2e, 0x19, 0x48, 0x3e, 0xd0, 0x6f, 0xef, 0xbd,
  0x5a, 0x43, 0xbc, 0x3d, 0xcb, 0x45, 0xa4, 0xbe, 0x1a, 0x27, 0x8d, 0xbd,
  0xa1, 0x65, 0x81, 0xbe, 0xc2, 0xc5, 0x47, 0xbe, 0x7d, 0xbc, 0x19, 0x3e,
  0xeb, 0x0c, 0x9f, 0xbd, 0xbc, 0xce, 0xc6, 0x3c, 0x4b, 0xed, 0xae, 0x3c,
  0x14, 0xcb, 0xab, 0x3e, 0x6e, 0xa7, 0x70, 0x3e, 0x34, 0x8b, 0x64, 0x3d,
  0x9f, 0x90, 0x2d, 0xbd, 0x26, 0xbb, 0x62, 0x3d, 0xec, 0xc2, 0x87, 0x3e,
  0x5d, 0x30, 0x0f, 0xbd, 0x17, 0xd6, 0x88, 0x3e, 0xd5, 0x7f, 0x80, 0xbe,
  0xb8, 0xf0, 0x79, 0xbe, 0xbb, 0xba, 0x16, 0xbe, 0x0b, 0x48, 0x04, 0x3e,
  0x8b, 0x27, 0x32, 0xbe, 0x5a, 0x0c, 0x5c, 0xbd, 0x93, 0x58, 0xa5, 0x3e,
  0xd9, 0xdd, 0xe0, 0xbd, 0x30, 0xd2, 0x9f, 0xbd, 0x2b, 0x8b, 0x91, 0xbe,
  0x9c, 0x4c, 0x61, 0x3e, 0x2a, 0xfe, 0x85, 0xbd, 0x42, 0x3e, 0x36, 0xbe,
  0x07, 0x5a, 0x76, 0xbe, 0x76, 0x25, 0x2b, 0xbe, 0x14, 0xa8, 0xfa, 0xbd,
  0x82, 0xea, 0x96, 0x3e, 0xe6, 0x61, 0x64, 0xbe, 0x45, 0x3a, 0x11, 0x3d,
  0xed, 0x09, 0x9a, 0x3d, 0xfb, 0x58, 0xa8, 0xbd, 0x3e, 0x6f, 0x58, 0xbc,
  0xb6, 0x8e, 0x81, 0xbc, 0xd9, 0x45, 0x7c, 0x3e, 0x20, 0xa3, 0xef, 0xbd,
  0x0f, 0xad, 0x91, 0x3e, 0xae, 0x46, 0x42, 0xbe, 0xc4, 0xd4, 0xd4, 0xbb,
  0xe7, 0x2b, 0x21, 0x3c, 0xd5, 0xc8, 0x76, 0x3d, 0x73, 0x96, 0x8e, 0xbe,
  0x98, 0xde, 0x7d, 0x3d, 0x30, 0xc5, 0x93, 0x3e, 0x3b, 0x55, 0x8a, 0xbe,
  0x89, 0xc3, 0xc0, 0x3b, 0x35, 0xcb, 0xed, 0xbd, 0xb9, 0xb2, 0x10, 0x3e,
  0xdf, 0x97, 0xdc, 0xbd, 0x57, 0x07, 0xb2, 0xbd, 0xb9, 0x70, 0xfb, 0x3d,
  0xf0, 0x31, 0x92, 0xbe, 0xbb, 0xc3, 0x3d, 0x3e, 0x82, 0x03, 0xb9, 0xbd,
  0x62, 0xee, 0x58, 0x3d, 0xcb, 0x04, 0xa4, 0x3e, 0x79, 0x85, 0x85, 0xbe,
  0x27, 0x53, 0x50, 0xbe, 0x84, 0x56, 0x9d, 0x3d, 0xeb, 0xd2, 0x21, 0x3e,
  0x7c, 0x69, 0x96, 0xbe, 0xcd, 0x73, 0x07, 0x3c, 0x84, 0x37, 0x94, 0xbe,
  0xb7, 0x4d, 0x28, 0x3c, 0x5b, 0x9a, 0x87, 0xbe, 0xd2, 0xd1, 0x3b, 0x3e,
  0x93, 0xbe, 0xbc, 0x3d, 0xf9, 0x7e, 0x76, 0x3e, 0x5a, 0xee, 0x47, 0xbd,
  0xba, 0x80, 0x1e, 0x3e, 0xc6, 0x20, 0x52, 0x3d, 0x03, 0x45, 0x3b, 0xbe,
  0x99, 0xa3, 0x3d, 0xbd, 0x0d, 0x7e, 0x80, 0x3e, 0xfb, 0x52, 0xf1, 0x3d,
  0x4f, 0x71, 0xa9, 0xbc, 0x99, 0x8f, 0xf8, 0xba, 0xe8, 0xae, 0x61, 0x3e,
  0xec, 0x9c, 0xc3, 0xbd, 0x9b, 0x97, 0x21, 0x3e, 0xbf, 0x54, 0x40, 0x3e,
  0x45, 0x8c, 0x4c, 0xbe, 0x27, 0x51, 0x86, 0xbe, 0xd4, 0x08, 0xd4, 0xbd,
  0xb8, 0xe4, 0x91, 0x3e, 0xe7, 0x40, 0xa0, 0xbe, 0x88, 0x1c, 0x06, 0x3d,
  0x55, 0xe5, 0x91, 0xbc, 0xed, 0xac, 0x33, 0x3c, 0x98, 0xa5, 0x2a, 0xbe,
  0xd3, 0xa5, 0xc0, 0x3c, 0x13, 0xcc, 0x3d, 0x3e, 0xc7, 0x26, 0x52, 0xbd,
  0x36, 0x0b, 0x7f, 0xbe, 0xae, 0xf2, 0x35, 0xbe, 0x38, 0x2c, 0x9f, 0xbe,
  0x59, 0x17, 0xee, 0x3d, 0x9e, 0x1d, 0x92, 0xbc, 0x39, 0x99, 0x5e, 0xbe,
  0x54, 0xf7, 0xdf, 0x3d, 0xab, 0x76, 0x80, 0xbe, 0x5b, 0xa2, 0x4a, 0x3d,
  0x49, 0x00, 0xa3, 0xbe, 0x34, 0xb8, 0x77, 0x3e, 0x7f, 0x53, 0x27, 0x3e,
  0xc0, 0xa7, 0x87, 0xbd, 0xd8, 0x3c, 0x2d, 0xbe, 0x4f, 0xc5, 0x94, 0xbe,
  0x23, 0x48, 0x40, 0xbe, 0xb4, 0xe2, 0x4e, 0xbd, 0xcb, 0xdb, 0xfa, 0xbd,
  0xf5, 0x4f, 0x7e, 0xbe, 0xe0, 0x64, 0x90, 0xbe, 0x8e, 0xf8, 0xff, 0xff,
  0x34, 0x00, 0x00, 0x00, 0x06, 0x00, 0x00, 0x00, 0x08, 0x00, 0x00, 0x00,
  0x34, 0x00, 0x00, 0x00, 0x1e, 0x00, 0x00, 0x00, 0x73, 0x65, 0x71, 0x75,
  0x65, 0x6e, 0x74, 0x69, 0x61, 0x6c, 0x5f, 0x35, 0x33, 0x2f, 0x64, 0x65,
  0x6e, 0x73, 0x65, 0x5f, 0x32, 0x35, 0x33, 0x2f, 0x4d, 0x61, 0x74, 0x4d,
  0x75, 0x6c, 0x00, 0x00, 0x02, 0x00, 0x00, 0x00, 0x32, 0x00, 0x00, 0x00,
  0x0a, 0x00, 0x00, 0x00, 0x8c, 0xf8, 0xff, 0xff, 0x6a, 0xf9, 0xff, 0xff,
  0x04, 0x00, 0x00, 0x00, 0xb0, 0x04, 0x00, 0x00, 0x83, 0x4d, 0xdd, 0xbc,
  0xe5, 0x52, 0xd5, 0x3d, 0xdf, 0x29, 0xf4, 0xbd, 0x8c, 0x46, 0xa1, 0xbe,
  0x57, 0x5e, 0x4c, 0xbe, 0x53, 0x78, 0xeb, 0xbd, 0x04, 0xf0, 0x3f, 0x3e,
  0x96, 0x62, 0xa6, 0x3d, 0x55, 0x08, 0x2f, 0x3d, 0x9a, 0x43, 0xb6, 0x3e,
  0xb5, 0x84, 0x3e, 0xbe, 0x42, 0xc8, 0x91, 0x3e, 0xed, 0xd8, 0xf2, 0x3d,
  0x41, 0xb1, 0x80, 0x3e, 0x00, 0xbb, 0xb6, 0x3e, 0xdb, 0xb9, 0xa3, 0x3e,
  0x3c, 0xed, 0xae, 0xbc, 0x3d, 0x09, 0x69, 0x3d, 0xcb, 0x58, 0xab, 0x3d,
  0x40, 0x24, 0x61, 0x3b, 0xd7, 0xab, 0x63, 0xbe, 0x51, 0xcb, 0x87, 0xbe,
  0xd6, 0x6b, 0x46, 0xbe, 0xcd, 0x0d, 0x55, 0x3d, 0x06, 0xf7, 0x5f, 0xbe,
  0xa8, 0x27, 0xae, 0xbe, 0x77, 0xbd, 0xb7, 0x3e, 0xd9, 0x75, 0x5d, 0xbe,
  0x06, 0x4e, 0x0e, 0xbe, 0x8d, 0xc7, 0xc5, 0xbe, 0x40, 0x2c, 0xaf, 0xbe,
  0x26, 0x51, 0xba, 0xbe, 0x73, 0x00, 0x4c, 0x3e, 0x20, 0x4b, 0x44, 0xbc,
  0x9d, 0x4a, 0x9d, 0xbe, 0xba, 0x41, 0x9a, 0x3e, 0xd0, 0x61, 0x02, 0xbe,
  0x3e, 0xb9, 0x2a, 0xbd, 0xef, 0x2d, 0xca, 0xbe, 0xdc, 0x8e, 0x9b, 0x3d,
  0x20, 0x0b, 0x97, 0xbe, 0x05, 0x14, 0x75, 0x3e, 0xb5, 0xc7, 0x0f, 0xbe,
  0x6f, 0x58, 0xcb, 0x3d, 0xe1, 0x3e, 0xee, 0x3d, 0xf9, 0xfb, 0x7e, 0x3e,
  0xcb, 0xaa, 0x78, 0xbe, 0xbb, 0xc0, 0x33, 0x3e, 0x21, 0x9f, 0x93, 0xbe,
  0x20, 0x69, 0x18, 0x3e, 0x67, 0x55, 0xab, 0xbe, 0x11, 0x99, 0x8a, 0xbe,
  0x3d, 0xb8, 0x92, 0x3e, 0x5c, 0x21, 0x87, 0x3e, 0x85, 0x9b, 0x8e, 0x3d,
  0x7a, 0xb6, 0xff, 0x3b, 0xa8, 0x2c, 0x4a, 0x3e, 0xba, 0x63, 0xb8, 0x3e,
  0x3b, 0x61, 0xac, 0x3e, 0xda, 0xdb, 0x94, 0xbe, 0x68, 0x3f, 0x81, 0xbe,
  0xa3, 0xa2, 0x5b, 0x3e, 0x9e, 0xd1, 0xc3, 0x3e, 0xbd, 0xec, 0x94, 0x3e,
  0x5e, 0xf5, 0xcc, 0x3d, 0x0d, 0xff, 0x4b, 0xbd, 0x6b, 0xdd, 0xc4, 0xbd,
  0x1f, 0x4a, 0xb5, 0x3e, 0x6c, 0xd0, 0x21, 0x3e, 0x9a, 0x43, 0xa7, 0x3e,
  0x7d, 0x59, 0x16, 0xbe, 0xcd, 0xc6, 0x06, 0x3e, 0xf9, 0x45, 0x2c, 0xb9,
  0xc0, 0xc9, 0x9f, 0x3e, 0x67, 0x92, 0x3a, 0x3d, 0x82, 0x2e, 0xa8, 0x3e,
  0x58, 0xf6, 0xa7, 0xbe, 0xd8, 0x8c, 0xac, 0x3e, 0xab, 0xa7, 0x67, 0xbd,
  0x8c, 0xb9, 0x4f, 0xbd, 0x40, 0xf0, 0xb6, 0xbd, 0x5c, 0x9e, 0xcd, 0x3e,
  0x12, 0xa6, 0x8a, 0xbe, 0xad, 0xe1, 0x88, 0xbe, 0x0f, 0x2a, 0x5a, 0xbe,
  0xea, 0x5a, 0x17, 0x3e, 0x5f, 0x1f, 0x71, 0xbe, 0x43, 0x6d, 0x37, 0xbe,
  0xe3, 0x13, 0xb3, 0xbe, 0x3b, 0x63, 0xac, 0x3e, 0x1c, 0x3c, 0x1e, 0x3e,
  0x5f, 0x7d, 0x1e, 0x3e, 0x31, 0x6c, 0xa1, 0xbe, 0xc7, 0x25, 0x3e, 0x3d,
  0xea, 0xbd, 0x00, 0xbe, 0xf1, 0xb9, 0x66, 0xbd, 0x6c, 0x97, 0x80, 0xbe,
  0x02, 0x08, 0xa2, 0x3e, 0x94, 0x13, 0x5a, 0x3e, 0x8c, 0xe7, 0x3f, 0xbe,
  0x25, 0xd6, 0xc4, 0x3e, 0xf4, 0xa2, 0x92, 0xbd, 0x4a, 0x2e, 0xac, 0xbe,
  0x74, 0xa0, 0x4e, 0xbe, 0x1d, 0xbc, 0xb3, 0xbe, 0xa5, 0xf1, 0x87, 0x3e,
  0xb8, 0x0a, 0x1c, 0xbd, 0x70, 0x30, 0xc2, 0x3e, 0xe0, 0xe7, 0x41, 0x3d,
  0x80, 0x0b, 0x94, 0xbe, 0x62, 0xb7, 0xbf, 0x3e, 0x81, 0x0f, 0xbf, 0xbe,
  0x18, 0xeb, 0xaa, 0x3e, 0xb8, 0x89, 0x1f, 0xbe, 0xd5, 0x47, 0x3c, 0x3e,
  0x37, 0xef, 0x42, 0xbe, 0xac, 0xa8, 0x52, 0xbe, 0x17, 0x73, 0x49, 0x3e,
  0x47, 0x3b, 0xf0, 0xbd, 0xc0, 0x1e, 0x89, 0x3c, 0x0f, 0xba, 0xae, 0xbe,
  0x6f, 0x75, 0xb8, 0xbe, 0xd1, 0x62, 0xd8, 0x3d, 0xac, 0x6e, 0x16, 0x3e,
  0x44, 0xce, 0xa2, 0x3e, 0x16, 0x2d, 0xb2, 0x3e, 0x03, 0xec, 0xb3, 0xbe,
  0x41, 0x66, 0x93, 0xbe, 0x45, 0x93, 0xb6, 0x3e, 0x39, 0xea, 0x58, 0x3e,
  0xbb, 0x27, 0x33, 0x3e, 0x54, 0xdb, 0x92, 0xbe, 0x79, 0xc2, 0xed, 0xbd,
  0x3d, 0xca, 0x8c, 0xbe, 0x0e, 0x3c, 0x37, 0x3e, 0xca, 0xa0, 0x31, 0x3e,
  0x8f, 0xf2, 0x89, 0x3e, 0x9a, 0x00, 0x11, 0xbe, 0xc3, 0x37, 0x96, 0x3e,
  0xa4, 0x93, 0x03, 0x3e, 0xde, 0x4f, 0x65, 0xbe, 0x45, 0x55, 0x16, 0xbd,
  0x0e, 0x7d, 0xa3, 0x3e, 0x06, 0x48, 0xa9, 0xbe, 0x4a, 0xfd, 0x15, 0xbe,
  0x71, 0xac, 0x82, 0x3d, 0xfd, 0x7f, 0x88, 0x3e, 0x4b, 0xc5, 0x63, 0xbe,
  0x3b, 0x90, 0x5e, 0x3e, 0x53, 0x57, 0xbb, 0xbe, 0xcc, 0xbc, 0x0e, 0xbe,
  0xbb, 0xa8, 0x39, 0x3d, 0x91, 0x78, 0x14, 0xbb, 0x3a, 0x84, 0x94, 0xbc,
  0x96, 0x4f, 0x79, 0x3e, 0x7e, 0x77, 0x1d, 0xbe, 0xe9, 0x71, 0x37, 0xbd,
  0x50, 0xcb, 0xb3, 0x3e, 0x25, 0xee, 0x6d, 0x3e, 0x5a, 0xc3, 0x80, 0xbd,
  0xaf, 0xe7, 0xaa, 0xbd, 0x8a, 0x77, 0xad, 0xbd, 0x08, 0xd0, 0x2e, 0x3d,
  0x71, 0x00, 0x05, 0x3e, 0x63, 0xfb, 0x1f, 0xbc, 0x07, 0x53, 0x6e, 0x3e,
  0x2f, 0x5a, 0x84, 0x3e, 0xe8, 0xac, 0xe9, 0x3d, 0x00, 0x3b, 0x83, 0x3e,
  0x34, 0xd5, 0x93, 0x3d, 0x3f, 0xb3, 0x5e, 0x3e, 0x8e, 0xb3, 0x8a, 0x3e,
  0x9b, 0x03, 0x65, 0x3e, 0x33, 0x01, 0xae, 0xbd, 0x6c, 0x50, 0xeb, 0xbc,
  0x04, 0xc4, 0x17, 0xbd, 0xd2, 0x4c, 0xa6, 0xbe, 0xdc, 0xfa, 0xb4, 0x3e,
  0x6c, 0xc3, 0x35, 0x3e, 0xc0, 0xa0, 0x8d, 0x3e, 0xc0, 0xde, 0xe1, 0xbd,
  0x4f, 0xdc, 0x63, 0xbe, 0xd3, 0x80, 0xc9, 0x3d, 0x0a, 0xf7, 0xaa, 0x38,
  0x7f, 0xbb, 0x26, 0xbe, 0x11, 0xdc, 0xc4, 0xbe, 0x09, 0xc0, 0x92, 0xbe,
  0x6d, 0xea, 0xcd, 0xbe, 0xa6, 0x3e, 0x35, 0x3e, 0x49, 0x1a, 0x82, 0xbe,
  0xdb, 0xd8, 0x62, 0x3e, 0x52, 0x9b, 0x66, 0x3e, 0x14, 0xd6, 0xee, 0x3d,
  0x15, 0xb7, 0x52, 0xbe, 0x9c, 0x39, 0x47, 0xbe, 0x8d, 0x32, 0x6d, 0xbe,
  0x51, 0x2f, 0x7a, 0xbe, 0x55, 0xbc, 0x0b, 0xbe, 0x88, 0x11, 0xba, 0x3e,
  0x6d, 0xae, 0xc3, 0x3e, 0x94, 0x60, 0x16, 0xbe, 0x36, 0x24, 0x5e, 0xbe,
  0x7a, 0x8f, 0x7c, 0xbe, 0x10, 0xc5, 0x2d, 0xbe, 0x57, 0xbb, 0x88, 0x3d,
  0x11, 0xfe, 0x99, 0xbd, 0xa0, 0xe4, 0x3f, 0x3e, 0x36, 0xa4, 0xc7, 0x3b,
  0x44, 0x0f, 0xb9, 0xbe, 0x4a, 0xe7, 0x37, 0x3e, 0xb0, 0x6d, 0xc0, 0x3e,
  0xcc, 0x17, 0x98, 0xbe, 0x47, 0x84, 0xcd, 0xbd, 0x1f, 0xbb, 0x55, 0x3d,
  0x8a, 0x88, 0x40, 0xbe, 0xb6, 0x57, 0x0b, 0xbe, 0xdf, 0x90, 0x9b, 0x3e,
  0xac, 0xa8, 0x69, 0x3e, 0x7d, 0xca, 0x40, 0x3e, 0xe9, 0x05, 0x32, 0xbe,
  0x1f, 0x4e, 0x50, 0x3e, 0x6e, 0xb5, 0xcf, 0xbd, 0xab, 0xfb, 0x28, 0xbe,
  0x01, 0x79, 0x9c, 0x3e, 0xbe, 0xdc, 0xe8, 0xbd, 0xac, 0x33, 0xd9, 0xbd,
  0xb0, 0x8b, 0x0f, 0xbe, 0x84, 0x0d, 0xf7, 0xbd, 0x78, 0xb0, 0x92, 0x3e,
  0x8e, 0x44, 0x42, 0x3e, 0x2b, 0xa6, 0xaa, 0xbe, 0x97, 0x77, 0x3f, 0xbe,
  0x2d, 0xf8, 0x4e, 0x3e, 0x28, 0x8e, 0xbd, 0xbd, 0x41, 0xce, 0x84, 0x3e,
  0x4a, 0x92, 0x6b, 0xbe, 0xb2, 0xfd, 0x73, 0x3e, 0x20, 0x8c, 0x6b, 0xbd,
  0xe4, 0xbf, 0x95, 0xbe, 0xd9, 0x88, 0x90, 0xbe, 0xac, 0x20, 0x0a, 0xbd,
  0x9e, 0xad, 0xb0, 0xbe, 0xfd, 0x13, 0x7a, 0x3e, 0x31, 0xdf, 0x9c, 0xbc,
  0x84, 0x59, 0x03, 0x3d, 0x45, 0x4e, 0xe8, 0xbc, 0xd5, 0x38, 0x73, 0x3e,
  0x39, 0x39, 0xae, 0x3e, 0x80, 0x7f, 0xc8, 0xbd, 0x9f, 0x02, 0xab, 0xbe,
  0x28, 0x59, 0xab, 0xbe, 0x8f, 0x48, 0x3c, 0x3d, 0xf7, 0x1e, 0x24, 0xbd,
  0xae, 0x7f, 0x72, 0xbe, 0x08, 0xca, 0x9e, 0xba, 0xe6, 0x72, 0xc0, 0xbe,
  0xbe, 0xf8, 0xec, 0xbd, 0xc0, 0xf4, 0x1c, 0xbd, 0x27, 0xfd, 0x45, 0xbe,
  0x67, 0x35, 0x90, 0x3d, 0xad, 0xf0, 0x0b, 0xbe, 0x65, 0x29, 0x40, 0xbe,
  0xe3, 0x07, 0x8c, 0x3d, 0xfd, 0x32, 0x77, 0xbe, 0xdb, 0xb4, 0xb3, 0xbe,
  0xfb, 0xdf, 0x0e, 0xbe, 0xc9, 0xe3, 0x90, 0x3d, 0xd1, 0x33, 0xeb, 0x3d,
  0x69, 0xe7, 0x54, 0x3e, 0x43, 0x1b, 0x0a, 0x3e, 0xd2, 0x8c, 0x73, 0x3e,
  0x7a, 0xfa, 0x28, 0xbd, 0x9a, 0x66, 0xe4, 0xbd, 0x82, 0x55, 0xd8, 0xbd,
  0x9d, 0x22, 0x4e, 0xbe, 0x16, 0xd6, 0x95, 0xbd, 0x53, 0xc6, 0x73, 0xbe,
  0xec, 0x74, 0x86, 0x3e, 0x3e, 0x75, 0x2a, 0xbe, 0xde, 0x17, 0xb6, 0x3e,
  0x0f, 0xd5, 0x42, 0xbe, 0x27, 0xd1, 0x94, 0xbe, 0x5b, 0xb5, 0x0a, 0x3d,
  0x47, 0xd0, 0x80, 0xbd, 0x21, 0x7e, 0xc2, 0xbe, 0x1e, 0x9b, 0x60, 0xbe,
  0x05, 0xd4, 0x25, 0xbd, 0xaf, 0x1c, 0xe1, 0xbd, 0x00, 0xc5, 0xb4, 0xbe,
  0xa5, 0x4e, 0xf1, 0x3d, 0xae, 0x13, 0x4e, 0xbe, 0x72, 0x35, 0xa5, 0xbe,
  0xe9, 0xfb, 0xa3, 0xbe, 0xdc, 0xf0, 0xa8, 0xbe, 0x07, 0xf9, 0x23, 0xbe,
  0x3d, 0x48, 0xc0, 0x3e, 0xb6, 0xfe, 0xaa, 0xbe, 0x9b, 0xd5, 0xa9, 0xbe,
  0xb5, 0x14, 0xe4, 0xbc, 0xe6, 0x6f, 0x66, 0x3e, 0x92, 0xfd, 0xff, 0xff,
  0x34, 0x00, 0x00, 0x00, 0x05, 0x00, 0x00, 0x00, 0x08, 0x00, 0x00, 0x00,
  0x34, 0x00, 0x00, 0x00, 0x1e, 0x00, 0x00, 0x00, 0x73, 0x65, 0x71, 0x75,
  0x65, 0x6e, 0x74, 0x69, 0x61, 0x6c, 0x5f, 0x35, 0x33, 0x2f, 0x64, 0x65,
  0x6e, 0x73, 0x65, 0x5f, 0x32, 0x35, 0x32, 0x2f, 0x4d, 0x61, 0x74, 0x4d,
  0x75, 0x6c, 0x00, 0x00, 0x02, 0x00, 0x00, 0x00, 0x0a, 0x00, 0x00, 0x00,
  0x1e, 0x00, 0x00, 0x00, 0x90, 0xfd, 0xff, 0xff, 0x6e, 0xfe, 0xff, 0xff,
  0x04, 0x00, 0x00, 0x00, 0x08, 0x00, 0x00, 0x00, 0x60, 0x7a, 0x35, 0xbc,
  0x62, 0x7a, 0x35, 0x3c, 0xee, 0xfd, 0xff, 0xff, 0x44, 0x00, 0x00, 0x00,
  0x04, 0x00, 0x00, 0x00, 0x08, 0x00, 0x00, 0x00, 0x40, 0x00, 0x00, 0x00,
  0x2e, 0x00, 0x00, 0x00, 0x73, 0x65, 0x71, 0x75, 0x65, 0x6e, 0x74, 0x69,
  0x61, 0x6c, 0x5f, 0x35, 0x33, 0x2f, 0x64, 0x65, 0x6e, 0x73, 0x65, 0x5f,
  0x32, 0x35, 0x34, 0x2f, 0x42, 0x69, 0x61, 0x73, 0x41, 0x64, 0x64, 0x2f,
  0x52, 0x65, 0x61, 0x64, 0x56, 0x61, 0x72, 0x69, 0x61, 0x62, 0x6c, 0x65,
  0x4f, 0x70, 0x00, 0x00, 0x01, 0x00, 0x00, 0x00, 0x02, 0x00, 0x00, 0x00,
  0xf8, 0xfd, 0xff, 0xff, 0xd6, 0xfe, 0xff, 0xff, 0x04, 0x00, 0x00, 0x00,
  0xc8, 0x00, 0x00, 0x00, 0x5d, 0x00, 0x2b, 0x3c, 0xdf, 0x42, 0x1f, 0x3d,
  0x9c, 0xfb, 0x2b, 0xbc, 0x4f, 0xd3, 0x04, 0xbc, 0x66, 0xca, 0x64, 0xbc,
  0x16, 0x91, 0x29, 0xbc, 0x4c, 0x34, 0x21, 0xbc, 0x45, 0xb9, 0x28, 0x3c,
  0x16, 0x3e, 0x26, 0x3c, 0xdf, 0xdd, 0x33, 0xbc, 0xac, 0xa8, 0x78, 0x3c,
  0x3a, 0xdf, 0x22, 0xbc, 0x55, 0xe5, 0x3e, 0x3c, 0x5b, 0xb7, 0x3d, 0x3c,
  0xdd, 0x94, 0x50, 0xbc, 0xab, 0x9b, 0x44, 0xbc, 0xfb, 0x2a, 0x62, 0x3b,
  0x8b, 0x32, 0x24, 0x3c, 0xb5, 0x53, 0x3e, 0x3c, 0x05, 0xe7, 0x47, 0x3c,
  0x93, 0xc9, 0x3f, 0xbc, 0x67, 0x27, 0x02, 0x3b, 0x92, 0x5e, 0x37, 0xbc,
  0xb6, 0x38, 0x4c, 0x3c, 0x8c, 0xd3, 0x71, 0xbb, 0x4d, 0xab, 0x21, 0x3c,
  0x05, 0x21, 0x5b, 0xbc, 0x27, 0x65, 0x21, 0xbc, 0xb3, 0xc3, 0x33, 0xbc,
  0x41, 0xe6, 0x20, 0x3c, 0x10, 0x8f, 0xd9, 0xbb, 0x8e, 0x6f, 0x26, 0x3c,
  0xdb, 0x6f, 0x29, 0x3c, 0x7e, 0xe1, 0x3e, 0xbc, 0x76, 0xaa, 0xd9, 0x3c,
  0xec, 0x59, 0x21, 0x3a, 0x68, 0xb4, 0x29, 0xbc, 0xbb, 0xa2, 0x2d, 0x3c,
  0x6d, 0xe3, 0x6e, 0xbc, 0x65, 0xb0, 0xc2, 0xbc, 0x81, 0x67, 0x2f, 0x3c,
  0x94, 0xf7, 0x38, 0x3c, 0x9c, 0xe2, 0x3c, 0xbc, 0x81, 0xf3, 0x3c, 0x3c,
  0x6e, 0x3d, 0x0e, 0x3c, 0x80, 0xb4, 0x63, 0x3c, 0xae, 0x7d, 0x2f, 0x3c,
  0x88, 0x67, 0x60, 0xbc, 0xc7, 0xb9, 0x44, 0xbc, 0x14, 0xfc, 0x2d, 0x3c,
  0x16, 0xff, 0xff, 0xff, 0x44, 0x00, 0x00, 0x00, 0x03, 0x00, 0x00, 0x00,
  0x08, 0x00, 0x00, 0x00, 0x40, 0x00, 0x00, 0x00, 0x2e, 0x00, 0x00, 0x00,
  0x73, 0x65, 0x71, 0x75, 0x65, 0x6e, 0x74, 0x69, 0x61, 0x6c, 0x5f, 0x35,
  0x33, 0x2f, 0x64, 0x65, 0x6e, 0x73, 0x65, 0x5f, 0x32, 0x35, 0x33, 0x2f,
  0x42, 0x69, 0x61, 0x73, 0x41, 0x64, 0x64, 0x2f, 0x52, 0x65, 0x61, 0x64,
  0x56, 0x61, 0x72, 0x69, 0x61, 0x62, 0x6c, 0x65, 0x4f, 0x70, 0x00, 0x00,
  0x01, 0x00, 0x00, 0x00, 0x32, 0x00, 0x00, 0x00, 0x70, 0xff, 0xff, 0xff,
  0x00, 0x00, 0x06, 0x00, 0x08, 0x00, 0x04, 0x00, 0x06, 0x00, 0x00, 0x00,
  0x04, 0x00, 0x00, 0x00, 0x28, 0x00, 0x00, 0x00, 0xf9, 0x6c, 0xcc, 0xbb,
  0x3a, 0xe1, 0x88, 0xbc, 0x59, 0x6f, 0x2b, 0x3d, 0x57, 0x16, 0x04, 0xbc,
  0xbc, 0x39, 0x60, 0x3c, 0xbe, 0xae, 0x18, 0x3d, 0x5d, 0xf7, 0x4c, 0x3c,
  0x92, 0x67, 0x2b, 0x3c, 0xe8, 0x9e, 0x75, 0x3c, 0x99, 0x10, 0xc7, 0xbb,
  0xa6, 0xff, 0xff, 0xff, 0x44, 0x00, 0x00, 0x00, 0x02, 0x00, 0x00, 0x00,
  0x08, 0x00, 0x00, 0x00, 0x44, 0x00, 0x00, 0x00, 0x2e, 0x00, 0x00, 0x00,
  0x73, 0x65, 0x71, 0x75, 0x65, 0x6e, 0x74, 0x69, 0x61, 0x6c, 0x5f, 0x35,
  0x33, 0x2f, 0x64, 0x65, 0x6e, 0x73, 0x65, 0x5f, 0x32, 0x35, 0x32, 0x2f,
  0x42, 0x69, 0x61, 0x73, 0x41, 0x64, 0x64, 0x2f, 0x52, 0x65, 0x61, 0x64,
  0x56, 0x61, 0x72, 0x69, 0x61, 0x62, 0x6c, 0x65, 0x4f, 0x70, 0x00, 0x00,
  0x01, 0x00, 0x00, 0x00, 0x0a, 0x00, 0x00, 0x00, 0x04, 0x00, 0x06, 0x00,
  0x04, 0x00, 0x00, 0x00, 0x00, 0x00, 0x0e, 0x00, 0x14, 0x00, 0x04, 0x00,
  0x00, 0x00, 0x08, 0x00, 0x0c, 0x00, 0x10, 0x00, 0x0e, 0x00, 0x00, 0x00,
  0x24, 0x00, 0x00, 0x00, 0x01, 0x00, 0x00, 0x00, 0x08, 0x00, 0x00, 0x00,
  0x24, 0x00, 0x00, 0x00, 0x0f, 0x00, 0x00, 0x00, 0x64, 0x65, 0x6e, 0x73,
  0x65, 0x5f, 0x32, 0x35, 0x32, 0x5f, 0x69, 0x6e, 0x70, 0x75, 0x74, 0x00,
  0x02, 0x00, 0x00, 0x00, 0x01, 0x00, 0x00, 0x00, 0x1e, 0x00, 0x00, 0x00,
  0xfc, 0xff, 0xff, 0xff, 0x04, 0x00, 0x04, 0x00, 0x04, 0x00, 0x00, 0x00
};
unsigned int g_model_len = 5376;
