unsigned char g_model[] = {
  0x1c, 0x00, 0x00, 0x00, 0x54, 0x46, 0x4c, 0x33, 0x00, 0x00, 0x12, 0x00,
  0x1c, 0x00, 0x04, 0x00, 0x08, 0x00, 0x0c, 0x00, 0x10, 0x00, 0x14, 0x00,
  0x00, 0x00, 0x18, 0x00, 0x12, 0x00, 0x00, 0x00, 0x03, 0x00, 0x00, 0x00,
  0x48, 0x00, 0x00, 0x00, 0x3c, 0x00, 0x00, 0x00, 0x9c, 0x00, 0x00, 0x00,
  0x08, 0x00, 0x00, 0x00, 0x44, 0x00, 0x00, 0x00, 0x0a, 0x00, 0x00, 0x00,
  0x24, 0x07, 0x00, 0x00, 0x20, 0x07, 0x00, 0x00, 0x44, 0x06, 0x00, 0x00,
  0xcc, 0x05, 0x00, 0x00, 0x6c, 0x03, 0x00, 0x00, 0x9c, 0x02, 0x00, 0x00,
  0x0c, 0x07, 0x00, 0x00, 0x08, 0x07, 0x00, 0x00, 0x04, 0x07, 0x00, 0x00,
  0x4c, 0x00, 0x00, 0x00, 0x01, 0x00, 0x00, 0x00, 0x84, 0x00, 0x00, 0x00,
  0x02, 0x00, 0x00, 0x00, 0x28, 0x02, 0x00, 0x00, 0x20, 0x01, 0x00, 0x00,
  0x01, 0x00, 0x00, 0x00, 0x0c, 0x00, 0x00, 0x00, 0x08, 0x00, 0x0c, 0x00,
  0x04, 0x00, 0x08, 0x00, 0x08, 0x00, 0x00, 0x00, 0x08, 0x00, 0x00, 0x00,
  0x09, 0x00, 0x00, 0x00, 0x13, 0x00, 0x00, 0x00, 0x6d, 0x69, 0x6e, 0x5f,
  0x72, 0x75, 0x6e, 0x74, 0x69, 0x6d, 0x65, 0x5f, 0x76, 0x65, 0x72, 0x73,
  0x69, 0x6f, 0x6e, 0x00, 0x2a, 0xfa, 0xff, 0xff, 0x04, 0x00, 0x00, 0x00,
  0x10, 0x00, 0x00, 0x00, 0x31, 0x2e, 0x35, 0x2e, 0x30, 0x00, 0x00, 0x00,
  0x00, 0x00, 0x00, 0x00, 0x00, 0x00, 0x00, 0x00, 0x0f, 0x00, 0x00, 0x00,
  0x4d, 0x4c, 0x49, 0x52, 0x20, 0x43, 0x6f, 0x6e, 0x76, 0x65, 0x72, 0x74,
  0x65, 0x64, 0x2e, 0x00, 0x00, 0x00, 0x0e, 0x00, 0x18, 0x00, 0x04, 0x00,
  0x08, 0x00, 0x0c, 0x00, 0x10, 0x00, 0x14, 0x00, 0x0e, 0x00, 0x00, 0x00,
  0x40, 0x00, 0x00, 0x00, 0x34, 0x00, 0x00, 0x00, 0x28, 0x00, 0x00, 0x00,
  0x14, 0x00, 0x00, 0x00, 0x04, 0x00, 0x00, 0x00, 0x04, 0x00, 0x00, 0x00,
  0x6d, 0x61, 0x69, 0x6e, 0x00, 0x00, 0x00, 0x00, 0x03, 0x00, 0x00, 0x00,
  0x48, 0x01, 0x00, 0x00, 0xbc, 0x00, 0x00, 0x00, 0x48, 0x00, 0x00, 0x00,
  0x01, 0x00, 0x00, 0x00, 0x07, 0x00, 0x00, 0x00, 0x01, 0x00, 0x00, 0x00,
  0x00, 0x00, 0x00, 0x00, 0x08, 0x00, 0x00, 0x00, 0xf0, 0x05, 0x00, 0x00,
  0x84, 0x05, 0x00, 0x00, 0xf0, 0x04, 0x00, 0x00, 0x8c, 0x04, 0x00, 0x00,
  0x2c, 0x02, 0x00, 0x00, 0x5c, 0x01, 0x00, 0x00, 0xb8, 0x00, 0x00, 0x00,
  0x50, 0x00, 0x00, 0x00, 0x00, 0x00, 0x0e, 0x00, 0x18, 0x00, 0x08, 0x00,
  0x0c, 0x00, 0x10, 0x00, 0x07, 0x00, 0x14, 0x00, 0x0e, 0x00, 0x00, 0x00,
  0x00, 0x00, 0x00, 0x09, 0x01, 0x00, 0x00, 0x00, 0x1c, 0x00, 0x00, 0x00,
  0x10, 0x00, 0x00, 0x00, 0x04, 0x00, 0x00, 0x00, 0xfa, 0xfa, 0xff, 0xff,
  0x00, 0x00, 0x80, 0x3f, 0x01, 0x00, 0x00, 0x00, 0x07, 0x00, 0x00, 0x00,
  0x01, 0x00, 0x00, 0x00, 0x06, 0x00, 0x00, 0x00, 0x06, 0xff, 0xff, 0xff,
  0x00, 0x00, 0x00, 0x19, 0x01, 0x00, 0x00, 0x00, 0x8a, 0xfa, 0xff, 0xff,
  0x20, 0x00, 0x00, 0x00, 0x08, 0x00, 0x00, 0x00, 0x08, 0x00, 0x00, 0x00,
  0x20, 0x00, 0x00, 0x00, 0x08, 0x00, 0x00, 0x00, 0x49, 0x64, 0x65, 0x6e,
  0x74, 0x69, 0x74, 0x79, 0x00, 0x00, 0x00, 0x00, 0x02, 0x00, 0x00, 0x00,
  0x01, 0x00, 0x00, 0x00, 0x03, 0x00, 0x00, 0x00, 0x74, 0xfa, 0xff, 0xff,
  0x86, 0xff, 0xff, 0xff, 0x00, 0x00, 0x00, 0x08, 0x18, 0x00, 0x00, 0x00,
  0x0c, 0x00, 0x00, 0x00, 0x04, 0x00, 0x00, 0x00, 0x8c, 0xfa, 0xff, 0xff,
  0x01, 0x00, 0x00, 0x00, 0x06, 0x00, 0x00, 0x00, 0x03, 0x00, 0x00, 0x00,
  0x05, 0x00, 0x00, 0x00, 0x04, 0x00, 0x00, 0x00, 0x02, 0x00, 0x00, 0x00,
  0xee, 0xfa, 0xff, 0xff, 0x34, 0x00, 0x00, 0x00, 0x07, 0x00, 0x00, 0x00,
  0x08, 0x00, 0x00, 0x00, 0x34, 0x00, 0x00, 0x00, 0x1f, 0x00, 0x00, 0x00,
  0x73, 0x65, 0x71, 0x75, 0x65, 0x6e, 0x74, 0x69, 0x61, 0x6c, 0x5f, 0x34,
  0x38, 0x2f, 0x64, 0x65, 0x6e, 0x73, 0x65, 0x5f, 0x32, 0x34, 0x31, 0x2f,
  0x42, 0x69, 0x61, 0x73, 0x41, 0x64, 0x64, 0x00, 0x02, 0x00, 0x00, 0x00,
  0x01, 0x00, 0x00, 0x00, 0x03, 0x00, 0x00, 0x00, 0x3c, 0xfb, 0xff, 0xff,
  0x00, 0x00, 0x0e, 0x00, 0x14, 0x00, 0x00, 0x00, 0x08, 0x00, 0x0c, 0x00,
  0x07, 0x00, 0x10, 0x00, 0x0e, 0x00, 0x00, 0x00, 0x00, 0x00, 0x00, 0x08,
  0x18, 0x00, 0x00, 0x00, 0x0c, 0x00, 0x00, 0x00, 0x04, 0x00, 0x00, 0x00,
  0x14, 0xfb, 0xff, 0xff, 0x01, 0x00, 0x00, 0x00, 0x05, 0x00, 0x00, 0x00,
  0x03, 0x00, 0x00, 0x00, 0x00, 0x00, 0x00, 0x00, 0x03, 0x00, 0x00, 0x00,
  0x01, 0x00, 0x00, 0x00, 0x00, 0x00, 0x0a, 0x00, 0x0c, 0x00, 0x07, 0x00,
  0x00, 0x00, 0x08, 0x00, 0x0a, 0x00, 0x00, 0x00, 0x00, 0x00, 0x00, 0x09,
  0x01, 0x00, 0x00, 0x00, 0x8e, 0xfb, 0xff, 0xff, 0x34, 0x00, 0x00, 0x00,
  0x06, 0x00, 0x00, 0x00, 0x08, 0x00, 0x00, 0x00, 0x34, 0x00, 0x00, 0x00,
  0x1f, 0x00, 0x00, 0x00, 0x73, 0x65, 0x71, 0x75, 0x65, 0x6e, 0x74, 0x69,
  0x61, 0x6c, 0x5f, 0x34, 0x38, 0x2f, 0x64, 0x65, 0x6e, 0x73, 0x65, 0x5f,
  0x32, 0x34, 0x30, 0x2f, 0x42, 0x69, 0x61, 0x73, 0x41, 0x64, 0x64, 0x00,
  0x02, 0x00, 0x00, 0x00, 0x01, 0x00, 0x00, 0x00, 0x0a, 0x00, 0x00, 0x00,
  0x8c, 0xfb, 0xff, 0xff, 0x6a, 0xfc, 0xff, 0xff, 0x04, 0x00, 0x00, 0x00,
  0x78, 0x00, 0x00, 0x00, 0x5a, 0x60, 0x09, 0xbd, 0xf8, 0xba, 0x7a, 0xb9,
  0x4a, 0x2b, 0xf1, 0x3e, 0xe9, 0xf8, 0x43, 0xbe, 0xbc, 0x0f, 0xec, 0xbe,
  0x27, 0xcd, 0x17, 0xbf, 0xee, 0xc4, 0x06, 0x3f, 0x49, 0x87, 0x34, 0xbd,
  0xff, 0x03, 0x82, 0xbe, 0x13, 0x2e, 0x16, 0xbf, 0x90, 0x8c, 0xd1, 0x3e,
  0x76, 0x20, 0x8b, 0xbe, 0x60, 0x6b, 0x0d, 0x3f, 0x3a, 0x0a, 0xc4, 0xbe,
  0xc8, 0xa4, 0x0c, 0xbe, 0x2b, 0xaf, 0x0f, 0xbf, 0x54, 0x26, 0x80, 0x3e,
  0xe5, 0x7f, 0x06, 0x3f, 0x5f, 0x3a, 0xa8, 0x3e, 0xeb, 0x93, 0xab, 0xbe,
  0xa8, 0x2c, 0xe1, 0xbe, 0x65, 0x7b, 0x7e, 0xbe, 0x3b, 0xf9, 0x4e, 0xbd,
  0x8d, 0x70, 0x17, 0xbf, 0x81, 0x8d, 0x05, 0xbf, 0xc4, 0xd2, 0x1c, 0x3e,
  0xcf, 0x33, 0xb1, 0xbd, 0x00, 0x0f, 0x16, 0xbe, 0xe6, 0x79, 0x8c, 0x3d,
  0xa4, 0x54, 0x19, 0x3f, 0x5a, 0xfc, 0xff, 0xff, 0x34, 0x00, 0x00, 0x00,
  0x05, 0x00, 0x00, 0x00, 0x08, 0x00, 0x00, 0x00, 0x34, 0x00, 0x00, 0x00,
  0x1e, 0x00, 0x00, 0x00, 0x73, 0x65, 0x71, 0x75, 0x65, 0x6e, 0x74, 0x69,
  0x61, 0x6c, 0x5f, 0x34, 0x38, 0x2f, 0x64, 0x65, 0x6e, 0x73, 0x65, 0x5f,
  0x32, 0x34, 0x31, 0x2f, 0x4d, 0x61, 0x74, 0x4d, 0x75, 0x6c, 0x00, 0x00,
  0x02, 0x00, 0x00, 0x00, 0x03, 0x00, 0x00, 0x00, 0x0a, 0x00, 0x00, 0x00,
  0x58, 0xfc, 0xff, 0xff, 0x36, 0xfd, 0xff, 0xff, 0x04, 0x00, 0x00, 0x00,
  0x08, 0x02, 0x00, 0x00, 0x31, 0x00, 0xde, 0xbe, 0x28, 0xe0, 0xed, 0xbd,
  0x8b, 0xd6, 0xe3, 0x3d, 0x47, 0x83, 0xff, 0x3e, 0xdb, 0x1a, 0xc9, 0xbe,
  0xdf, 0xcc, 0x6b, 0x3e, 0xcc, 0xd6, 0xa8, 0x3e, 0xc7, 0x08, 0x85, 0xbe,
  0x2c, 0x37, 0xec, 0xbd, 0x29, 0xed, 0x86, 0xbe, 0xf0, 0x09, 0xac, 0x3d,
  0x3d, 0x5b, 0x46, 0x3e, 0xe5, 0x89, 0x3a, 0xbe, 0xe4, 0xd0, 0xe6, 0xbe,
  0x34, 0x4a, 0x32, 0x3e, 0x79, 0x92, 0x9b, 0x3e, 0x82, 0x0b, 0xa5, 0xbd,
  0x24, 0x94, 0x42, 0xbd, 0x72, 0xa1, 0x02, 0xbf, 0xb8, 0xec, 0x96, 0x3e,
  0x7c, 0x5f, 0xc3, 0x3e, 0x48, 0x20, 0x0b, 0xbe, 0xae, 0x8e, 0x5a, 0xbe,
  0x1f, 0x03, 0x5c, 0xbe, 0x5b, 0xc2, 0xad, 0xbe, 0x32, 0x8c, 0xba, 0xbe,
  0x45, 0xea, 0xd6, 0x3e, 0xca, 0x58, 0x48, 0x3d, 0x44, 0x79, 0x06, 0xbf,
  0xd1, 0xc5, 0xa8, 0x3e, 0xad, 0x69, 0xe9, 0xbd, 0x4c, 0xbf, 0x97, 0xbe,
  0xe3, 0x79, 0x1a, 0x3e, 0x8b, 0x15, 0xa1, 0x3e, 0xc1, 0x3b, 0xa0, 0xbd,
  0xaa, 0xdc, 0x8a, 0x3c, 0xf9, 0xb6, 0x0b, 0xbe, 0xb4, 0xaf, 0x9d, 0xbc,
  0x45, 0xc0, 0xd4, 0x3d, 0x79, 0xab, 0xb8, 0x3e, 0x20, 0x61, 0x7b, 0x39,
  0x7b, 0x0b, 0x33, 0xbe, 0x62, 0xa3, 0xed, 0xbe, 0x57, 0xee, 0xe9, 0xbe,
  0xbb, 0xcb, 0x39, 0x3d, 0x8d, 0x31, 0x0d, 0xbf, 0xf3, 0xf8, 0xf4, 0x3c,
  0x7e, 0x4b, 0x8f, 0xbc, 0xf4, 0x4c, 0xfb, 0xbd, 0xec, 0x80, 0xdf, 0xbe,
  0x56, 0x83, 0x06, 0x3e, 0x6c, 0xd2, 0x26, 0xbe, 0x47, 0xbc, 0xa0, 0xbe,
  0x59, 0x16, 0xde, 0xbd, 0x81, 0x83, 0x21, 0x3e, 0xc9, 0x40, 0xfe, 0x3c,
  0x83, 0x6f, 0x8e, 0x3e, 0x91, 0x64, 0x10, 0xbe, 0xd6, 0x14, 0x9a, 0xbe,
  0x4a, 0x1e, 0x9e, 0xbe, 0x35, 0xc4, 0x56, 0x3e, 0x1c, 0x7e, 0xb9, 0xbe,
  0x44, 0x01, 0xbc, 0x3e, 0x12, 0x38, 0xd6, 0x3e, 0x1c, 0xa5, 0xe2, 0x3e,
  0x16, 0xf5, 0xcc, 0x3e, 0x09, 0xe4, 0xc3, 0x3e, 0x56, 0x8e, 0xab, 0xbe,
  0x50, 0x46, 0x52, 0x3d, 0xce, 0x3a, 0xb0, 0xbe, 0x39, 0xe2, 0xa0, 0xbe,
  0xc0, 0xf0, 0x5e, 0x3e, 0x2f, 0x1f, 0x66, 0x3d, 0x08, 0x42, 0xb7, 0xbd,
  0x4b, 0xf3, 0x62, 0xbe, 0x8f, 0xf0, 0xe6, 0xbe, 0x1d, 0x74, 0xd1, 0x3e,
  0xc6, 0x85, 0xd9, 0xbd, 0xed, 0x09, 0x4c, 0x3d, 0x4a, 0x12, 0x9e, 0x3e,
  0xc9, 0x39, 0x15, 0x3d, 0x4d, 0xb4, 0xeb, 0xbe, 0x52, 0xb5, 0x70, 0xbe,
  0x25, 0x99, 0x13, 0xbd, 0x50, 0x0d, 0x13, 0xb8, 0x0d, 0xb6, 0x0d, 0xbf,
  0x49, 0x86, 0xb5, 0x3d, 0x1a, 0x3e, 0x56, 0x3e, 0x41, 0x94, 0x49, 0x3e,
  0x4d, 0xba, 0x30, 0x3d, 0x26, 0x33, 0xb0, 0x3e, 0x40, 0xcc, 0x87, 0x3d,
  0x9d, 0xdc, 0xad, 0x3e, 0x4f, 0xe3, 0xc8, 0x3e, 0xa2, 0xfd, 0x12, 0xbe,
  0x01, 0x65, 0x01, 0x3f, 0x25, 0x3f, 0x81, 0x3e, 0x16, 0xd0, 0x41, 0x3d,
  0x8a, 0xc2, 0x9a, 0x3e, 0x9b, 0x14, 0x5a, 0x3e, 0x1b, 0x9a, 0x05, 0x3f,
  0x7f, 0xb7, 0x4b, 0x3e, 0x68, 0xdf, 0x95, 0xbe, 0xa0, 0xf9, 0xaa, 0xbe,
  0x5f, 0xfa, 0x8f, 0x3e, 0xfa, 0xe7, 0x8b, 0x3e, 0xe5, 0x09, 0x88, 0x3e,
  0x9c, 0xf0, 0x09, 0x3f, 0x76, 0x05, 0x08, 0x3f, 0x33, 0xb1, 0x0c, 0x3e,
  0x69, 0xe9, 0x0f, 0xbe, 0xdd, 0x04, 0x7c, 0x3e, 0x67, 0x32, 0xdb, 0xbe,
  0x1c, 0x67, 0xa5, 0xbe, 0x9f, 0x59, 0x02, 0x3f, 0xaa, 0xd6, 0xc4, 0xbe,
  0xb0, 0xc1, 0x92, 0xbe, 0x14, 0xfd, 0x88, 0x3e, 0xfe, 0xca, 0xc7, 0x3e,
  0xa8, 0x0d, 0x6e, 0xbe, 0x19, 0x52, 0xa7, 0xbe, 0x6a, 0xbb, 0x64, 0xbe,
  0xd9, 0xa3, 0xc2, 0x3c, 0xdb, 0x75, 0x06, 0x3f, 0xac, 0x8f, 0xd5, 0x3d,
  0xca, 0x9f, 0x18, 0x3e, 0x7e, 0x72, 0xee, 0xbe, 0xe8, 0xce, 0xac, 0x3e,
  0x0a, 0xa5, 0xa1, 0x3d, 0x2d, 0x38, 0xcc, 0xbd, 0xb6, 0xfe, 0xff, 0xff,
  0x34, 0x00, 0x00, 0x00, 0x04, 0x00, 0x00, 0x00, 0x08, 0x00, 0x00, 0x00,
  0x34, 0x00, 0x00, 0x00, 0x1e, 0x00, 0x00, 0x00, 0x73, 0x65, 0x71, 0x75,
  0x65, 0x6e, 0x74, 0x69, 0x61, 0x6c, 0x5f, 0x34, 0x38, 0x2f, 0x64, 0x65,
  0x6e, 0x73, 0x65, 0x5f, 0x32, 0x34, 0x30, 0x2f, 0x4d, 0x61, 0x74, 0x4d,
  0x75, 0x6c, 0x00, 0x00, 0x02, 0x00, 0x00, 0x00, 0x0a, 0x00, 0x00, 0x00,
  0x0d, 0x00, 0x00, 0x00, 0xb4, 0xfe, 0xff, 0xff, 0x92, 0xff, 0xff, 0xff,
  0x04, 0x00, 0x00, 0x00, 0x0c, 0x00, 0x00, 0x00, 0x0b, 0x0a, 0x36, 0xbd,
  0x24, 0x15, 0x30, 0x3d, 0xe4, 0x06, 0x2f, 0x3d, 0x16, 0xff, 0xff, 0xff,
  0x44, 0x00, 0x00, 0x00, 0x03, 0x00, 0x00, 0x00, 0x08, 0x00, 0x00, 0x00,
  0x40, 0x00, 0x00, 0x00, 0x2e, 0x00, 0x00, 0x00, 0x73, 0x65, 0x71, 0x75,
  0x65, 0x6e, 0x74, 0x69, 0x61, 0x6c, 0x5f, 0x34, 0x38, 0x2f, 0x64, 0x65,
  0x6e, 0x73, 0x65, 0x5f, 0x32, 0x34, 0x31, 0x2f, 0x42, 0x69, 0x61, 0x73,
  0x41, 0x64, 0x64, 0x2f, 0x52, 0x65, 0x61, 0x64, 0x56, 0x61, 0x72, 0x69,
  0x61, 0x62, 0x6c, 0x65, 0x4f, 0x70, 0x00, 0x00, 0x01, 0x00, 0x00, 0x00,
  0x03, 0x00, 0x00, 0x00, 0x70, 0xff, 0xff, 0xff, 0x00, 0x00, 0x06, 0x00,
  0x08, 0x00, 0x04, 0x00, 0x06, 0x00, 0x00, 0x00, 0x04, 0x00, 0x00, 0x00,
  0x28, 0x00, 0x00, 0x00, 0xe7, 0xee, 0x04, 0x3d, 0xc6, 0x44, 0x3e, 0xbd,
  0x43, 0xf8, 0x25, 0xbd, 0x75, 0x00, 0x3d, 0xbd, 0x91, 0x34, 0x2c, 0x3d,
  0xfa, 0x9d, 0x2d, 0x3d, 0x64, 0xf8, 0x31, 0xbd, 0x79, 0xc4, 0x29, 0x3d,
  0x23, 0xe5, 0x31, 0x3d, 0x52, 0xb6, 0x31, 0x3d, 0xa6, 0xff, 0xff, 0xff,
  0x44, 0x00, 0x00, 0x00, 0x02, 0x00, 0x00, 0x00, 0x08, 0x00, 0x00, 0x00,
  0x44, 0x00, 0x00, 0x00, 0x2e, 0x00, 0x00, 0x00, 0x73, 0x65, 0x71, 0x75,
  0x65, 0x6e, 0x74, 0x69, 0x61, 0x6c, 0x5f, 0x34, 0x38, 0x2f, 0x64, 0x65,
  0x6e, 0x73, 0x65, 0x5f, 0x32, 0x34, 0x30, 0x2f, 0x42, 0x69, 0x61, 0x73,
  0x41, 0x64, 0x64, 0x2f, 0x52, 0x65, 0x61, 0x64, 0x56, 0x61, 0x72, 0x69,
  0x61, 0x62, 0x6c, 0x65, 0x4f, 0x70, 0x00, 0x00, 0x01, 0x00, 0x00, 0x00,
  0x0a, 0x00, 0x00, 0x00, 0x04, 0x00, 0x06, 0x00, 0x04, 0x00, 0x00, 0x00,
  0x00, 0x00, 0x0e, 0x00, 0x14, 0x00, 0x04, 0x00, 0x00, 0x00, 0x08, 0x00,
  0x0c, 0x00, 0x10, 0x00, 0x0e, 0x00, 0x00, 0x00, 0x24, 0x00, 0x00, 0x00,
  0x01, 0x00, 0x00, 0x00, 0x08, 0x00, 0x00, 0x00, 0x24, 0x00, 0x00, 0x00,
  0x0f, 0x00, 0x00, 0x00, 0x64, 0x65, 0x6e, 0x73, 0x65, 0x5f, 0x32, 0x34,
  0x30, 0x5f, 0x69, 0x6e, 0x70, 0x75, 0x74, 0x00, 0x02, 0x00, 0x00, 0x00,
  0x01, 0x00, 0x00, 0x00, 0x0d, 0x00, 0x00, 0x00, 0xfc, 0xff, 0xff, 0xff,
  0x04, 0x00, 0x04, 0x00, 0x04, 0x00, 0x00, 0x00
};
unsigned int g_model_len = 1892;
