unsigned char g_model[] = {
  0x1c, 0x00, 0x00, 0x00, 0x54, 0x46, 0x4c, 0x33, 0x00, 0x00, 0x12, 0x00,
  0x1c, 0x00, 0x04, 0x00, 0x08, 0x00, 0x0c, 0x00, 0x10, 0x00, 0x14, 0x00,
  0x00, 0x00, 0x18, 0x00, 0x12, 0x00, 0x00, 0x00, 0x03, 0x00, 0x00, 0x00,
  0x48, 0x00, 0x00, 0x00, 0x3c, 0x00, 0x00, 0x00, 0x9c, 0x00, 0x00, 0x00,
  0x08, 0x00, 0x00, 0x00, 0x44, 0x00, 0x00, 0x00, 0x0a, 0x00, 0x00, 0x00,
  0x50, 0x10, 0x00, 0x00, 0x4c, 0x10, 0x00, 0x00, 0x70, 0x0f, 0x00, 0x00,
  0xdc, 0x0e, 0x00, 0x00, 0x84, 0x04, 0x00, 0x00, 0x9c, 0x02, 0x00, 0x00,
  0x38, 0x10, 0x00, 0x00, 0x34, 0x10, 0x00, 0x00, 0x30, 0x10, 0x00, 0x00,
  0x4c, 0x00, 0x00, 0x00, 0x01, 0x00, 0x00, 0x00, 0x84, 0x00, 0x00, 0x00,
  0x02, 0x00, 0x00, 0x00, 0x28, 0x02, 0x00, 0x00, 0x20, 0x01, 0x00, 0x00,
  0x01, 0x00, 0x00, 0x00, 0x0c, 0x00, 0x00, 0x00, 0x08, 0x00, 0x0c, 0x00,
  0x04, 0x00, 0x08, 0x00, 0x08, 0x00, 0x00, 0x00, 0x08, 0x00, 0x00, 0x00,
  0x09, 0x00, 0x00, 0x00, 0x13, 0x00, 0x00, 0x00, 0x6d, 0x69, 0x6e, 0x5f,
  0x72, 0x75, 0x6e, 0x74, 0x69, 0x6d, 0x65, 0x5f, 0x76, 0x65, 0x72, 0x73,
  0x69, 0x6f, 0x6e, 0x00, 0xfe, 0xf0, 0xff, 0xff, 0x04, 0x00, 0x00, 0x00,
  0x10, 0x00, 0x00, 0x00, 0x31, 0x2e, 0x35, 0x2e, 0x30, 0x00, 0x00, 0x00,
  0x00, 0x00, 0x00, 0x00, 0x00, 0x00, 0x00, 0x00, 0x0f, 0x00, 0x00, 0x00,
  0x4d, 0x4c, 0x49, 0x52, 0x20, 0x43, 0x6f, 0x6e, 0x76, 0x65, 0x72, 0x74,
  0x65, 0x64, 0x2e, 0x00, 0x00, 0x00, 0x0e, 0x00, 0x18, 0x00, 0x04, 0x00,
  0x08, 0x00, 0x0c, 0x00, 0x10, 0x00, 0x14, 0x00, 0x0e, 0x00, 0x00, 0x00,
  0x40, 0x00, 0x00, 0x00, 0x34, 0x00, 0x00, 0x00, 0x28, 0x00, 0x00, 0x00,
  0x14, 0x00, 0x00, 0x00, 0x04, 0x00, 0x00, 0x00, 0x04, 0x00, 0x00, 0x00,
  0x6d, 0x61, 0x69, 0x6e, 0x00, 0x00, 0x00, 0x00, 0x03, 0x00, 0x00, 0x00,
  0x48, 0x01, 0x00, 0x00, 0xbc, 0x00, 0x00, 0x00, 0x48, 0x00, 0x00, 0x00,
  0x01, 0x00, 0x00, 0x00, 0x07, 0x00, 0x00, 0x00, 0x01, 0x00, 0x00, 0x00,
  0x00, 0x00, 0x00, 0x00, 0x08, 0x00, 0x00, 0x00, 0x1c, 0x0f, 0x00, 0x00,
  0xb0, 0x0e, 0x00, 0x00, 0x1c, 0x0e, 0x00, 0x00, 0x9c, 0x0d, 0x00, 0x00,
  0x44, 0x03, 0x00, 0x00, 0x5c, 0x01, 0x00, 0x00, 0xb8, 0x00, 0x00, 0x00,
  0x50, 0x00, 0x00, 0x00, 0x00, 0x00, 0x0e, 0x00, 0x18, 0x00, 0x08, 0x00,
  0x0c, 0x00, 0x10, 0x00, 0x07, 0x00, 0x14, 0x00, 0x0e, 0x00, 0x00, 0x00,
  0x00, 0x00, 0x00, 0x09, 0x01, 0x00, 0x00, 0x00, 0x1c, 0x00, 0x00, 0x00,
  0x10, 0x00, 0x00, 0x00, 0x04, 0x00, 0x00, 0x00, 0xce, 0xf1, 0xff, 0xff,
  0x00, 0x00, 0x80, 0x3f, 0x01, 0x00, 0x00, 0x00, 0x07, 0x00, 0x00, 0x00,
  0x01, 0x00, 0x00, 0x00, 0x06, 0x00, 0x00, 0x00, 0x06, 0xff, 0xff, 0xff,
  0x00, 0x00, 0x00, 0x19, 0x01, 0x00, 0x00, 0x00, 0x5e, 0xf1, 0xff, 0xff,
  0x20, 0x00, 0x00, 0x00, 0x08, 0x00, 0x00, 0x00, 0x08, 0x00, 0x00, 0x00,
  0x20, 0x00, 0x00, 0x00, 0x08, 0x00, 0x00, 0x00, 0x49, 0x64, 0x65, 0x6e,
  0x74, 0x69, 0x74, 0x79, 0x00, 0x00, 0x00, 0x00, 0x02, 0x00, 0x00, 0x00,
  0x01, 0x00, 0x00, 0x00, 0x0a, 0x00, 0x00, 0x00, 0x48, 0xf1, 0xff, 0xff,
  0x86, 0xff, 0xff, 0xff, 0x00, 0x00, 0x00, 0x08, 0x18, 0x00, 0x00, 0x00,
  0x0c, 0x00, 0x00, 0x00, 0x04, 0x00, 0x00, 0x00, 0x60, 0xf1, 0xff, 0xff,
  0x01, 0x00, 0x00, 0x00, 0x06, 0x00, 0x00, 0x00, 0x03, 0x00, 0x00, 0x00,
  0x05, 0x00, 0x00, 0x00, 0x04, 0x00, 0x00, 0x00, 0x02, 0x00, 0x00, 0x00,
  0xc2, 0xf1, 0xff, 0xff, 0x34, 0x00, 0x00, 0x00, 0x07, 0x00, 0x00, 0x00,
  0x08, 0x00, 0x00, 0x00, 0x34, 0x00, 0x00, 0x00, 0x1f, 0x00, 0x00, 0x00,
  0x73, 0x65, 0x71, 0x75, 0x65, 0x6e, 0x74, 0x69, 0x61, 0x6c, 0x5f, 0x35,
  0x30, 0x2f, 0x64, 0x65, 0x6e, 0x73, 0x65, 0x5f, 0x32, 0x34, 0x35, 0x2f,
  0x42, 0x69, 0x61, 0x73, 0x41, 0x64, 0x64, 0x00, 0x02, 0x00, 0x00, 0x00,
  0x01, 0x00, 0x00, 0x00, 0x0a, 0x00, 0x00, 0x00, 0x10, 0xf2, 0xff, 0xff,
  0x00, 0x00, 0x0e, 0x00, 0x14, 0x00, 0x00, 0x00, 0x08, 0x00, 0x0c, 0x00,
  0x07, 0x00, 0x10, 0x00, 0x0e, 0x00, 0x00, 0x00, 0x00, 0x00, 0x00, 0x08,
  0x18, 0x00, 0x00, 0x00, 0x0c, 0x00, 0x00, 0x00, 0x04, 0x00, 0x00, 0x00,
  0xe8, 0xf1, 0xff, 0xff, 0x01, 0x00, 0x00, 0x00, 0x05, 0x00, 0x00, 0x00,
  0x03, 0x00, 0x00, 0x00, 0x00, 0x00, 0x00, 0x00, 0x03, 0x00, 0x00, 0x00,
  0x01, 0x00, 0x00, 0x00, 0x00, 0x00, 0x0a, 0x00, 0x0c, 0x00, 0x07, 0x00,
  0x00, 0x00, 0x08, 0x00, 0x0a, 0x00, 0x00, 0x00, 0x00, 0x00, 0x00, 0x09,
  0x01, 0x00, 0x00, 0x00, 0x62, 0xf2, 0xff, 0xff, 0x34, 0x00, 0x00, 0x00,
  0x06, 0x00, 0x00, 0x00, 0x08, 0x00, 0x00, 0x00, 0x34, 0x00, 0x00, 0x00,
  0x1f, 0x00, 0x00, 0x00, 0x73, 0x65, 0x71, 0x75, 0x65, 0x6e, 0x74, 0x69,
  0x61, 0x6c, 0x5f, 0x35, 0x30, 0x2f, 0x64, 0x65, 0x6e, 0x73, 0x65, 0x5f,
  0x32, 0x34, 0x34, 0x2f, 0x42, 0x69, 0x61, 0x73, 0x41, 0x64, 0x64, 0x00,
  0x02, 0x00, 0x00, 0x00, 0x01, 0x00, 0x00, 0x00, 0x0a, 0x00, 0x00, 0x00,
  0x60, 0xf2, 0xff, 0xff, 0x3e, 0xf3, 0xff, 0xff, 0x04, 0x00, 0x00, 0x00,
  0x90, 0x01, 0x00, 0x00, 0xdd, 0x3f, 0x6a, 0xbe, 0xd1, 0x1d, 0xb8, 0xbe,
  0x59, 0x53, 0xc6, 0x3e, 0x52, 0x7b, 0xde, 0x3e, 0x62, 0x05, 0xd0, 0x3e,
  0x71, 0x9b, 0xb3, 0xbd, 0xec, 0x80, 0x90, 0xba, 0x68, 0x8d, 0xa9, 0xbe,
  0xc6, 0x8d, 0x8c, 0x3e, 0x7a, 0xdb, 0x44, 0xbe, 0xd9, 0xcb, 0xa2, 0xbe,
  0x95, 0x0e, 0x8e, 0xbe, 0xc2, 0x68, 0x1e, 0x3e, 0x88, 0x65, 0xaa, 0xbe,
  0xe6, 0x6e, 0x99, 0x3c, 0x45, 0x33, 0x01, 0xbf, 0x80, 0xeb, 0x12, 0xbe,
  0x4d, 0x91, 0xd4, 0x3e, 0x0a, 0x99, 0x99, 0x3e, 0x1d, 0x08, 0xa9, 0xbe,
  0xdc, 0x4c, 0xd0, 0xbe, 0x87, 0x72, 0x08, 0xbe, 0x86, 0x44, 0xec, 0x3e,
  0x81, 0x10, 0xc1, 0x3e, 0x31, 0x3f, 0x80, 0xbd, 0x3a, 0x38, 0x23, 0xbe,
  0x35, 0x42, 0xd3, 0x3e, 0x7c, 0xf3, 0x4d, 0xbe, 0x07, 0xcc, 0xed, 0x3d,
  0xc3, 0x85, 0xc9, 0xbe, 0x87, 0xbf, 0xa5, 0xbe, 0xc0, 0x24, 0x52, 0xbe,
  0x65, 0xc7, 0xff, 0x3d, 0x07, 0x1f, 0xac, 0xbe, 0x14, 0x88, 0x4d, 0x3e,
  0xf9, 0x97, 0x63, 0x3e, 0xbd, 0xa0, 0x83, 0xbe, 0x22, 0xad, 0x91, 0x3e,
  0x3b, 0x00, 0x97, 0xbe, 0xe1, 0x44, 0xec, 0x3e, 0x6c, 0x6e, 0xdf, 0x3e,
  0xd1, 0x04, 0x60, 0xbe, 0x88, 0x3c, 0xbc, 0xbe, 0x7b, 0x36, 0x65, 0x3d,
  0x33, 0xf6, 0x3a, 0xbe, 0x0c, 0xef, 0xaf, 0x3e, 0x20, 0x1d, 0xd6, 0x3e,
  0x5f, 0x69, 0xb0, 0xbe, 0x7d, 0x1a, 0x99, 0xbe, 0xd0, 0x81, 0x72, 0xbe,
  0xda, 0x2d, 0xc3, 0x3e, 0x7e, 0xdf, 0x5d, 0xbe, 0xf2, 0x25, 0xcb, 0xbe,
  0xbc, 0x5b, 0x7c, 0x3e, 0xb1, 0x15, 0xb2, 0xbe, 0xf3, 0x74, 0x6f, 0x3e,
  0x19, 0xf2, 0xef, 0x3e, 0xd7, 0x16, 0x6d, 0x3e, 0xac, 0x3b, 0x81, 0xbe,
  0x12, 0x42, 0xe2, 0xbe, 0x94, 0x0f, 0xc4, 0x3d, 0x16, 0x93, 0xdd, 0xbe,
  0x3c, 0xa4, 0x8f, 0x3d, 0xef, 0x45, 0x5c, 0xbe, 0x91, 0x7f, 0xf1, 0x3c,
  0xdd, 0xb3, 0xae, 0x3e, 0xb2, 0xdf, 0x91, 0xbe, 0x31, 0x33, 0xb6, 0x3e,
  0x01, 0x6b, 0xa6, 0x3e, 0xd9, 0x84, 0xff, 0xbc, 0x0b, 0xb9, 0xb9, 0x3e,
  0x5d, 0xb0, 0x95, 0x3e, 0xfe, 0x23, 0xb7, 0xbd, 0xf3, 0xce, 0xf3, 0x3e,
  0xdf, 0x22, 0x02, 0x3d, 0x16, 0x8f, 0xd2, 0xbe, 0x3a, 0x98, 0xc5, 0x38,
  0x14, 0xce, 0x87, 0x3e, 0xb0, 0x68, 0xd2, 0xbc, 0xc4, 0xcd, 0x00, 0xbf,
  0x42, 0xdf, 0x04, 0x3e, 0x64, 0xb4, 0xce, 0xbd, 0xc4, 0x38, 0xb8, 0x3e,
  0xff, 0xa7, 0xa4, 0xbe, 0x56, 0xfc, 0xd0, 0x3e, 0x09, 0x42, 0x35, 0xbe,
  0x8f, 0x30, 0xc0, 0xbe, 0x50, 0xe7, 0x44, 0xbd, 0x0a, 0x95, 0x0c, 0x3e,
  0x13, 0xa6, 0x0a, 0xbe, 0xd8, 0x29, 0xbe, 0xbd, 0x14, 0x15, 0x15, 0x3d,
  0x00, 0xae, 0xdd, 0xbe, 0xb0, 0x5a, 0xe3, 0xbe, 0x99, 0x13, 0x93, 0x3d,
  0xf0, 0xe8, 0xec, 0x3d, 0xdc, 0x98, 0x4c, 0x3e, 0x79, 0xdf, 0xd3, 0x3e,
  0x76, 0x9f, 0xd6, 0xbe, 0xf8, 0x76, 0x05, 0x3f, 0x46, 0xf4, 0xff, 0xff,
  0x34, 0x00, 0x00, 0x00, 0x05, 0x00, 0x00, 0x00, 0x08, 0x00, 0x00, 0x00,
  0x34, 0x00, 0x00, 0x00, 0x1e, 0x00, 0x00, 0x00, 0x73, 0x65, 0x71, 0x75,
  0x65, 0x6e, 0x74, 0x69, 0x61, 0x6c, 0x5f, 0x35, 0x30, 0x2f, 0x64, 0x65,
  0x6e, 0x73, 0x65, 0x5f, 0x32, 0x34, 0x35, 0x2f, 0x4d, 0x61, 0x74, 0x4d,
  0x75, 0x6c, 0x00, 0x00, 0x02, 0x00, 0x00, 0x00, 0x0a, 0x00, 0x00, 0x00,
  0x0a, 0x00, 0x00, 0x00, 0x44, 0xf4, 0xff, 0xff, 0x22, 0xf5, 0xff, 0xff,
  0x04, 0x00, 0x00, 0x00, 0x00, 0x0a, 0x00, 0x00, 0x40, 0xa0, 0xa8, 0xbc,
  0x1e, 0x5f, 0xf0, 0x3d, 0xfc, 0x69, 0x1f, 0x3e, 0xfc, 0x7b, 0x2b, 0xbe,
  0x97, 0xf9, 0x37, 0xbe, 0x1b, 0x9f, 0x0d, 0x3e, 0x86, 0xa8, 0x1b, 0xbe,
  0x45, 0x3d, 0xb6, 0xbd, 0x5a, 0x1e, 0x1f, 0x3e, 0xe7, 0xcc, 0x8a, 0xbe,
  0x9c, 0x86, 0x1b, 0xbd, 0x9a, 0xd3, 0x8d, 0x3d, 0x54, 0x06, 0x08, 0x3d,
  0x3b, 0x97, 0x37, 0xbe, 0x77, 0x9a, 0xd9, 0xba, 0xd6, 0x2c, 0x33, 0xbe,
  0x2c, 0x9d, 0x90, 0x3c, 0x24, 0x76, 0x4d, 0x3e, 0x9c, 0x10, 0x50, 0xbd,
  0x16, 0x83, 0x00, 0xbe, 0xe1, 0x8a, 0x62, 0xbd, 0x8c, 0x26, 0x12, 0xbe,
  0x42, 0x73, 0x1a, 0x3e, 0x44, 0x32, 0xcb, 0xbb, 0x49, 0x74, 0xfd, 0xbd,
  0xc4, 0x10, 0x16, 0x3e, 0xe9, 0x76, 0x61, 0x3d, 0x0b, 0x20, 0xa4, 0x3e,
  0x71, 0x21, 0x4c, 0xbe, 0xf9, 0xdb, 0x09, 0xbc, 0xcb, 0xd0, 0x7a, 0x3d,
  0xd6, 0xaf, 0xe9, 0x3b, 0x5c, 0xd9, 0xcf, 0x3d, 0x3b, 0x9a, 0xa8, 0xbd,
  0xd1, 0x21, 0xad, 0x3d, 0xc1, 0x92, 0xdb, 0x3d, 0x79, 0xeb, 0x15, 0x3d,
  0x2c, 0xcf, 0x0a, 0xbd, 0x5f, 0x18, 0xa0, 0x3d, 0x20, 0xfb, 0x34, 0x3e,
  0xe5, 0x14, 0x2a, 0x3e, 0x94, 0x04, 0x4c, 0x3e, 0x53, 0x5e, 0x38, 0x3e,
  0x1b, 0xa2, 0xf1, 0xbc, 0x28, 0x53, 0x3a, 0x3e, 0x56, 0x6a, 0x47, 0x3d,
  0x59, 0x7c, 0xff, 0xbd, 0x31, 0x09, 0x71, 0x3e, 0xed, 0x08, 0x09, 0xbe,
  0xf2, 0x3c, 0xb5, 0x3d, 0x2b, 0xce, 0x4b, 0x3d, 0xb5, 0x47, 0x1e, 0x3e,
  0xa8, 0x14, 0x9e, 0xbe, 0x16, 0xca, 0x41, 0x3a, 0xd1, 0x02, 0x26, 0xbe,
  0x81, 0xd8, 0x98, 0xbe, 0x18, 0x18, 0x58, 0xbe, 0x48, 0xdb, 0x80, 0xbe,
  0xa7, 0xb6, 0x40, 0xbe, 0xd9, 0xe1, 0xf4, 0x3c, 0x32, 0x50, 0x67, 0xbd,
  0x50, 0x2d, 0xa8, 0xbb, 0x66, 0x0c, 0x7b, 0xbe, 0x54, 0x04, 0xb6, 0xbd,
  0xfe, 0x68, 0x18, 0x3e, 0x63, 0xf4, 0x1d, 0xbe, 0x1a, 0x2d, 0x21, 0x3e,
  0x52, 0x63, 0x0e, 0x3e, 0x70, 0xc5, 0x81, 0x3d, 0xa7, 0x6c, 0x4a, 0xbe,
  0x6e, 0x52, 0x9d, 0xbc, 0xb6, 0x58, 0x30, 0x3d, 0x41, 0x99, 0x89, 0x3e,
  0x3d, 0x57, 0x38, 0x3e, 0x76, 0x0f, 0x81, 0x3c, 0x05, 0x64, 0x31, 0x3e,
  0x05, 0xd2, 0x76, 0x3d, 0x7c, 0x52, 0xf2, 0xbd, 0xce, 0x6b, 0xad, 0xbd,
  0x64, 0x71, 0x23, 0xbe, 0xe8, 0xb6, 0x08, 0x3e, 0x30, 0x62, 0xda, 0x3d,
  0x8f, 0x53, 0x98, 0xbc, 0xaa, 0xee, 0xa6, 0xbe, 0x67, 0x28, 0x0c, 0x3e,
  0xa5, 0x0f, 0x99, 0x3e, 0xd5, 0xe7, 0xb2, 0xbc, 0x19, 0x30, 0xee, 0x3a,
  0xd0, 0x63, 0x1b, 0xbe, 0xf9, 0x25, 0xcc, 0x3d, 0xe8, 0xef, 0xde, 0x3d,
  0x55, 0x98, 0xb3, 0x3d, 0x39, 0x02, 0x54, 0x3d, 0xf5, 0x74, 0x4a, 0x3e,
  0xe5, 0x6a, 0xb5, 0xbd, 0xcb, 0x9e, 0x45, 0xbe, 0x68, 0x1f, 0x0c, 0x3d,
  0x87, 0xb1, 0x09, 0x3e, 0x0e, 0x32, 0x99, 0xbe, 0x28, 0xfc, 0xc9, 0xbd,
  0x94, 0xa3, 0x05, 0x3e, 0x1e, 0x05, 0xa0, 0xbd, 0x6a, 0xb0, 0x85, 0x3e,
  0xc0, 0x91, 0x0f, 0xbe, 0xab, 0xad, 0x90, 0x3d, 0xd2, 0xb7, 0x14, 0xbe,
  0xff, 0x47, 0x2a, 0xbe, 0xd5, 0x4b, 0x97, 0x3e, 0x7a, 0x6d, 0x27, 0xbe,
  0xb6, 0x49, 0xfe, 0xbd, 0xd4, 0x55, 0xb3, 0xbd, 0xa4, 0x1a, 0x29, 0x3e,
  0x7e, 0x37, 0x1a, 0xbe, 0x46, 0x4d, 0x58, 0xbe, 0x65, 0xc5, 0x56, 0xbe,
  0xc1, 0xbf, 0x32, 0xbe, 0x92, 0x4e, 0xe7, 0x3d, 0x1b, 0x7a, 0x41, 0xbe,
  0xd4, 0x67, 0xef, 0x3c, 0xf2, 0x50, 0x56, 0xbe, 0xce, 0x3b, 0xdf, 0x3d,
  0xdf, 0xa7, 0xe3, 0xbd, 0xbd, 0x8b, 0xbe, 0xbd, 0xf9, 0x48, 0x40, 0x3e,
  0x84, 0x31, 0x14, 0x3e, 0xee, 0x9e, 0xa7, 0xbd, 0xcb, 0x2a, 0x52, 0xbe,
  0x4f, 0x3c, 0x79, 0xbd, 0x3a, 0x1a, 0x50, 0xbe, 0x9b, 0xfd, 0x67, 0x3e,
  0xb0, 0x89, 0x21, 0xbe, 0xe5, 0xaa, 0x8f, 0x3e, 0x56, 0x87, 0x3d, 0xbe,
  0x4c, 0xf8, 0x40, 0xbd, 0xe2, 0x71, 0xa6, 0xbe, 0xd4, 0x62, 0x70, 0xbe,
  0xbb, 0x5b, 0x8d, 0x3e, 0x35, 0x4a, 0xab, 0xbc, 0x62, 0x8b, 0x28, 0x3e,
  0xf5, 0xfe, 0x80, 0x3e, 0x46, 0xce, 0x24, 0x3e, 0x5d, 0x79, 0x43, 0x3e,
  0x89, 0xbc, 0xd1, 0x3d, 0x80, 0xb1, 0x90, 0xbd, 0xdc, 0x50, 0xa3, 0xbc,
  0x81, 0x5c, 0x0a, 0xbe, 0x0a, 0xfe, 0x0b, 0xbe, 0xb1, 0xf8, 0xf2, 0xbd,
  0x4c, 0x30, 0xba, 0xbb, 0x60, 0x1a, 0x97, 0xbd, 0xa9, 0x17, 0xc8, 0xbd,
  0xe4, 0x13, 0x3e, 0x3e, 0x41, 0xb5, 0x10, 0x3e, 0x0c, 0xaf, 0x5b, 0x3e,
  0x3b, 0xd8, 0x50, 0xbd, 0x2b, 0xef, 0x6b, 0xbd, 0xd7, 0x2a, 0x28, 0xbd,
  0x67, 0x88, 0x68, 0xbe, 0xb2, 0x06, 0xa0, 0xbd, 0x66, 0xb2, 0x09, 0xbe,
  0x92, 0x11, 0x7e, 0x3e, 0x25, 0x6f, 0x4a, 0x3e, 0xe2, 0x04, 0x07, 0xbe,
  0x35, 0x82, 0x18, 0x3e, 0xb9, 0xac, 0xb5, 0x3d, 0x0f, 0x71, 0xa1, 0xbe,
  0x55, 0x76, 0x34, 0x3e, 0x5e, 0xe9, 0x2c, 0x3e, 0xab, 0x52, 0x80, 0x3d,
  0x1c, 0xbc, 0xb4, 0xbd, 0xc8, 0x49, 0x1d, 0x3b, 0x66, 0xb9, 0x0c, 0x3e,
  0xaf, 0x07, 0x8a, 0x3d, 0xbc, 0x79, 0x33, 0xbe, 0xb7, 0x05, 0x5e, 0xbe,
  0xf0, 0x1b, 0x30, 0xbe, 0xd8, 0x4d, 0x9b, 0xbe, 0x9c, 0x01, 0x04, 0x3e,
  0x6a, 0x49, 0x79, 0xbd, 0x13, 0x9a, 0x12, 0x3c, 0x9d, 0xd3, 0x19, 0xbe,
  0x61, 0xb0, 0x48, 0x3e, 0x0f, 0x1b, 0x1e, 0x3e, 0x65, 0x36, 0x8c, 0x3d,
  0x2c, 0xe7, 0x5f, 0x3e, 0x93, 0x48, 0xdc, 0x3d, 0x57, 0x0e, 0x79, 0xbd,
  0xf7, 0x1c, 0x42, 0xbe, 0xb7, 0x1e, 0x1d, 0x3e, 0x8b, 0xa6, 0x8b, 0xbd,
  0x2d, 0x0a, 0xf7, 0x3d, 0x56, 0xce, 0x4a, 0x3e, 0x8e, 0x5b, 0x88, 0xbe,
  0x7e, 0x5c, 0x36, 0xbe, 0x7f, 0xd3, 0xf7, 0x3c, 0xb7, 0xe3, 0x5e, 0xbd,
  0x60, 0x9b, 0xe8, 0x3d, 0x29, 0xa1, 0xf7, 0xbd, 0xc6, 0x02, 0x4f, 0x3e,
  0x4d, 0x7d, 0x0c, 0x3e, 0xf6, 0x82, 0x34, 0x3d, 0x04, 0x11, 0x4d, 0xbe,
  0x98, 0xda, 0xb0, 0xbd, 0xc5, 0x5f, 0xd4, 0xbc, 0x4c, 0x40, 0xb1, 0x3d,
  0x90, 0x4f, 0x2d, 0xbe, 0x17, 0xc2, 0xf0, 0x3d, 0x73, 0x79, 0x80, 0x3e,
  0x4c, 0xf0, 0xc5, 0xbd, 0xba, 0x62, 0xb4, 0x3d, 0x6c, 0x69, 0xaf, 0x3d,
  0xa3, 0x69, 0x09, 0xbe, 0x95, 0xec, 0x86, 0xbe, 0xa1, 0x1d, 0xe2, 0x3d,
  0xb5, 0x59, 0x2d, 0x3e, 0x37, 0x7e, 0xa9, 0xbd, 0x1d, 0x62, 0x42, 0x3d,
  0x31, 0x0f, 0x27, 0xbd, 0x6a, 0x3b, 0x69, 0xbe, 0xc8, 0xab, 0x94, 0xbd,
  0x38, 0x5e, 0xb3, 0xbc, 0xd6, 0x28, 0x00, 0xbe, 0xfe, 0xe3, 0xd2, 0x3d,
  0x56, 0xe2, 0x0c, 0x3e, 0x7e, 0xbe, 0x25, 0x3e, 0x36, 0x8d, 0x42, 0xbc,
  0x48, 0x9b, 0x81, 0x3e, 0x51, 0xd2, 0x06, 0xbe, 0x76, 0x47, 0x67, 0x39,
  0xd5, 0x04, 0x00, 0xbe, 0xd4, 0x69, 0xa0, 0x3d, 0x00, 0x4e, 0x3e, 0x3e,
  0xd9, 0xc9, 0x2e, 0xbe, 0x9b, 0x3b, 0xd2, 0xbd, 0x2f, 0x82, 0x0d, 0xbe,
  0x0a, 0xae, 0x96, 0x3c, 0xa5, 0x74, 0xba, 0x3c, 0x08, 0x1d, 0x21, 0x3e,
  0x0b, 0xe8, 0x24, 0x3e, 0xa6, 0x72, 0x13, 0x3e, 0x87, 0x0a, 0x12, 0xbd,
  0x46, 0x5b, 0x9a, 0x3e, 0x74, 0x27, 0x22, 0x3e, 0x63, 0x6e, 0x27, 0x3c,
  0x9b, 0x00, 0xb1, 0xbd, 0x5f, 0x01, 0xbe, 0x3d, 0xcd, 0xd8, 0x11, 0xbd,
  0xfd, 0xaa, 0x6b, 0x3e, 0xe6, 0xa3, 0xa4, 0x3d, 0xcd, 0x3b, 0x1b, 0x3e,
  0xc5, 0x9a, 0x95, 0x3e, 0xbd, 0x5c, 0xdf, 0x3d, 0x18, 0x38, 0x48, 0xbe,
  0x49, 0x7a, 0xbc, 0xbd, 0x26, 0x7e, 0x17, 0x3d, 0xbd, 0xc7, 0xd7, 0xbc,
  0xa0, 0x82, 0x2b, 0x3e, 0x97, 0xee, 0x28, 0x3e, 0xbd, 0x6b, 0x8e, 0x3d,
  0xb7, 0x75, 0x43, 0xbd, 0xaf, 0x5e, 0xbc, 0xbd, 0xad, 0xc2, 0x62, 0xbd,
  0xc4, 0x3e, 0xa1, 0xbd, 0xb7, 0x6d, 0xa6, 0x3e, 0xcf, 0xd7, 0x0e, 0x3e,
  0xd2, 0xaf, 0x82, 0xbd, 0x3a, 0x48, 0x30, 0xbc, 0xcd, 0x51, 0xa9, 0x3d,
  0x4c, 0xf7, 0x3d, 0x3e, 0x51, 0xec, 0x5c, 0xbd, 0x2f, 0x62, 0xf7, 0xbc,
  0x9f, 0xd0, 0xc5, 0x3d, 0xc5, 0x21, 0x25, 0x3d, 0x3f, 0x8f, 0x62, 0xbe,
  0x30, 0x6d, 0xf3, 0xbd, 0x25, 0xb8, 0xb1, 0xbe, 0xf9, 0x10, 0x45, 0xbe,
  0x60, 0x32, 0xeb, 0x3e, 0x94, 0xae, 0x37, 0x3d, 0xfd, 0x76, 0xa7, 0x3e,
  0xd2, 0x3c, 0x7d, 0xbe, 0xab, 0x2b, 0xa1, 0x3d, 0x38, 0xab, 0x63, 0xbe,
  0xca, 0x75, 0x3d, 0x3e, 0x17, 0x74, 0xe9, 0xbd, 0xa1, 0xf4, 0xd4, 0x3c,
  0x2c, 0x13, 0x7c, 0x3b, 0xc7, 0xbb, 0x29, 0x3e, 0xdf, 0xe1, 0x63, 0xbe,
  0x7a, 0x96, 0x4e, 0xbe, 0x60, 0xb5, 0x0c, 0xbd, 0x91, 0x62, 0x3b, 0xbd,
  0xa6, 0x99, 0x68, 0x3c, 0x49, 0x88, 0x21, 0x3c, 0xf0, 0xf7, 0x06, 0x3e,
  0xe8, 0xfb, 0xa7, 0xbd, 0x2e, 0x8d, 0x1b, 0xbe, 0xbf, 0xaf, 0x9e, 0x3e,
  0x6c, 0xb7, 0x32, 0xbc, 0xf1, 0x08, 0xae, 0xbc, 0xc9, 0xeb, 0x5e, 0x3e,
  0x78, 0xe2, 0xca, 0x3d, 0x47, 0xb4, 0x9e, 0x3e, 0x54, 0xa3, 0x58, 0xbe,
  0xdf, 0x5d, 0x07, 0xbe, 0x4d, 0xfe, 0x02, 0x3e, 0x6f, 0xbe, 0xb0, 0x3e,
  0xa6, 0xf5, 0x26, 0xbd, 0x75, 0x78, 0xee, 0x3a, 0x27, 0x8b, 0x9b, 0x3e,
  0x52, 0xf1, 0x49, 0xbe, 0x0b, 0x84, 0xd5, 0xbd, 0x38, 0x14, 0x73, 0xbd,
  0x4d, 0x96, 0x47, 0xbe, 0xf6, 0xec, 0x00, 0xbe, 0x3d, 0xa8, 0x04, 0x3e,
  0x70, 0x55, 0x57, 0x3e, 0xbc, 0x8b, 0x5d, 0xbe, 0xb1, 0x5e, 0x2c, 0xbe,
  0x0a, 0xb5, 0xee, 0xbd, 0x44, 0x17, 0xaf, 0x3d, 0xdb, 0xb6, 0x97, 0xbc,
  0x09, 0xa1, 0x39, 0x3e, 0xa0, 0x4c, 0x2e, 0x3e, 0xc7, 0x7f, 0x49, 0x3e,
  0xa4, 0xa2, 0x8f, 0xbe, 0xc7, 0x6d, 0xad, 0x3d, 0x09, 0x53, 0x85, 0xbe,
  0x6e, 0x41, 0x3a, 0x3e, 0x92, 0xd7, 0x42, 0xbe, 0x5b, 0xfa, 0x75, 0x3e,
  0xb2, 0x45, 0x5a, 0x3a, 0x29, 0xb1, 0x92, 0xbc, 0x19, 0x65, 0x41, 0xbe,
  0xfe, 0xd8, 0x47, 0xbd, 0x03, 0xc8, 0x85, 0x3d, 0xdc, 0x27, 0x48, 0x3e,
  0x2b, 0xdb, 0x21, 0x3e, 0x2a, 0x6e, 0x2c, 0xbe, 0xa6, 0xe5, 0x0e, 0xbe,
  0xac, 0x75, 0x64, 0xbe, 0xb9, 0x79, 0x39, 0x3d, 0x0e, 0x17, 0x92, 0x3d,
  0x86, 0x4d, 0x57, 0x3e, 0x0e, 0x74, 0x33, 0xbd, 0x73, 0x9e, 0x41, 0x3e,
  0xb2, 0xd6, 0x39, 0x3d, 0x9e, 0x91, 0x35, 0xbe, 0xfa, 0xa8, 0xb1, 0x3d,
  0x93, 0x8c, 0xd3, 0x3c, 0xee, 0xc5, 0xb7, 0xbd, 0xe6, 0xda, 0x33, 0xbd,
  0x4e, 0x78, 0xce, 0xbd, 0xd1, 0xce, 0xa9, 0x3e, 0x80, 0xe9, 0xa4, 0xbd,
  0x36, 0x8a, 0x2b, 0xbd, 0x5e, 0x03, 0x33, 0x3e, 0xfa, 0xbf, 0xa0, 0x3d,
  0xc8, 0xdb, 0x16, 0xbd, 0x50, 0x2a, 0x05, 0xbd, 0x2b, 0xe4, 0x89, 0xbd,
  0xd5, 0x99, 0xb1, 0x3e, 0xb5, 0xd6, 0x21, 0xbe, 0x1e, 0xaf, 0x87, 0x3e,
  0x05, 0x59, 0x3c, 0xbe, 0x06, 0x38, 0x03, 0xbe, 0xd8, 0x25, 0x9b, 0xbc,
  0xaa, 0xb1, 0x34, 0x3e, 0xdb, 0x36, 0xb5, 0x3c, 0x08, 0x8c, 0x78, 0x3e,
  0xd3, 0x22, 0x5d, 0xbd, 0x0f, 0x7a, 0xf0, 0xbd, 0x65, 0x36, 0x22, 0x3e,
  0x2e, 0x1c, 0x87, 0x3e, 0xc4, 0x08, 0xed, 0x3d, 0xa5, 0xc3, 0x98, 0x3d,
  0x90, 0xe2, 0x85, 0xbe, 0x88, 0x72, 0x1d, 0x3c, 0x11, 0x41, 0xe0, 0xbd,
  0x21, 0x9a, 0xff, 0x3d, 0xb3, 0x39, 0xe9, 0x3d, 0x54, 0x5f, 0xa5, 0x3d,
  0x65, 0x71, 0x2e, 0xbe, 0x66, 0x6d, 0xc3, 0x3d, 0xa8, 0xc6, 0x2c, 0x3d,
  0x73, 0xfd, 0x28, 0x3e, 0x03, 0x66, 0xb6, 0x3e, 0x57, 0x36, 0x0a, 0xbe,
  0xeb, 0x8b, 0x30, 0x3d, 0xd9, 0x84, 0x5f, 0xbe, 0x27, 0x88, 0x4e, 0x3d,
  0x69, 0xc4, 0x3e, 0x3e, 0x3b, 0x18, 0x39, 0x3e, 0x41, 0xef, 0x52, 0x3d,
  0xf9, 0x31, 0x5e, 0xbe, 0xb8, 0xd3, 0x19, 0xbd, 0x4d, 0x8f, 0xbd, 0x3d,
  0x71, 0xb2, 0xca, 0xbc, 0x62, 0x21, 0x82, 0xbe, 0xd7, 0xda, 0x93, 0xbe,
  0x66, 0xc9, 0x7d, 0x3e, 0x78, 0x51, 0xe1, 0x3d, 0xd3, 0x12, 0x8c, 0x3e,
  0xe1, 0x5f, 0xbe, 0xbd, 0x67, 0x64, 0x80, 0x3c, 0xdb, 0xfa, 0x3d, 0x3e,
  0xfd, 0x2e, 0x92, 0xbe, 0x3f, 0x9c, 0x60, 0x3e, 0xd8, 0x25, 0xb5, 0x3d,
  0x5a, 0x6e, 0x12, 0x3e, 0x6c, 0x79, 0xd4, 0xbd, 0xff, 0x7d, 0x31, 0x3b,
  0x16, 0xde, 0x3f, 0xbe, 0xc8, 0x70, 0xbe, 0xb7, 0x1b, 0x5d, 0x86, 0x3e,
  0xb4, 0xd9, 0x61, 0xbd, 0x8d, 0xfb, 0x90, 0x3e, 0x3e, 0x62, 0xae, 0x3d,
  0x31, 0x18, 0x0f, 0xbe, 0xfa, 0xe0, 0x8c, 0xbd, 0x36, 0xd4, 0x06, 0x3e,
  0x5c, 0x03, 0x2c, 0xbe, 0xd3, 0x4a, 0x71, 0x3d, 0x40, 0x41, 0x43, 0xbe,
  0xef, 0x87, 0x3f, 0xbe, 0x83, 0x97, 0x7c, 0x3e, 0x6e, 0x45, 0x79, 0xbe,
  0x35, 0xfd, 0x58, 0xbd, 0x3f, 0x59, 0x4a, 0x3d, 0xd9, 0xcb, 0x2b, 0xbd,
  0xaf, 0xd0, 0x9e, 0x3d, 0x13, 0xd1, 0x0a, 0x3c, 0x2d, 0xc2, 0x6e, 0xbe,
  0x54, 0x99, 0xbb, 0x3e, 0xcd, 0x3f, 0xa8, 0x3d, 0xef, 0x52, 0x32, 0x3e,
  0x14, 0xd4, 0x9c, 0x3e, 0x34, 0xc8, 0x1c, 0xbe, 0x81, 0x3d, 0x0c, 0x3e,
  0x3f, 0x71, 0x74, 0x3d, 0xa9, 0xb2, 0x07, 0x3e, 0x2c, 0x68, 0x39, 0x3e,
  0x6e, 0x8e, 0x28, 0xbe, 0x0a, 0x92, 0xb8, 0xbd, 0x17, 0x86, 0x66, 0x3d,
  0x67, 0x45, 0x5c, 0xbd, 0x35, 0xa2, 0x00, 0xbe, 0x8d, 0xa8, 0x0b, 0xbe,
  0xe7, 0x71, 0x82, 0xbe, 0x03, 0x1b, 0x8f, 0xbe, 0xc9, 0xe6, 0x2e, 0xbe,
  0x5e, 0x9d, 0x98, 0xbd, 0xc7, 0xcd, 0x0b, 0x3e, 0xa2, 0x1e, 0x7f, 0x3e,
  0xa1, 0x26, 0x33, 0xbd, 0x35, 0x18, 0x3d, 0xbe, 0x93, 0x02, 0x06, 0x3e,
  0x56, 0xe1, 0x07, 0xbc, 0x55, 0x86, 0x11, 0xbe, 0x13, 0x70, 0x1d, 0x3e,
  0x9e, 0x12, 0x25, 0x3e, 0x29, 0x5b, 0x90, 0xbd, 0x08, 0xfd, 0x82, 0x3a,
  0xdc, 0x91, 0x4b, 0xbe, 0x74, 0x33, 0x54, 0x3e, 0x6d, 0xc5, 0x3f, 0xbe,
  0x75, 0x62, 0x5b, 0xbe, 0x3f, 0x15, 0x95, 0xbe, 0x91, 0xd4, 0x79, 0xbd,
  0xdf, 0x6e, 0x63, 0xbd, 0x87, 0x4c, 0x8c, 0x3d, 0x81, 0x79, 0x14, 0xbe,
  0x2c, 0x05, 0x82, 0xbe, 0x51, 0xd1, 0x9f, 0xbe, 0x64, 0x03, 0x3e, 0x3e,
  0x60, 0x37, 0x1f, 0x3e, 0xcf, 0x07, 0x0e, 0x3e, 0x60, 0xba, 0xf5, 0xbd,
  0x9e, 0x80, 0x92, 0x3d, 0x60, 0xb1, 0x4b, 0x3c, 0x3e, 0xf9, 0x80, 0xbd,
  0x8d, 0x82, 0x91, 0xbe, 0x5d, 0x59, 0xc0, 0x3d, 0x32, 0x94, 0x6a, 0xbb,
  0xe6, 0xca, 0x91, 0x3d, 0xb0, 0xbf, 0x53, 0xbe, 0x22, 0xa5, 0x28, 0xbd,
  0xa6, 0xb0, 0x73, 0x3e, 0x08, 0xc9, 0x58, 0xbe, 0x61, 0x4e, 0xed, 0xbd,
  0x54, 0x58, 0xbd, 0xbe, 0xcb, 0xae, 0x16, 0x3e, 0xe3, 0xba, 0x0c, 0xbe,
  0xcb, 0xfa, 0xaa, 0xbd, 0x83, 0x5e, 0x73, 0x3e, 0xd0, 0x07, 0x46, 0x3d,
  0xf5, 0x65, 0x85, 0xbe, 0xd8, 0x9b, 0xc3, 0xbd, 0x2b, 0xfb, 0x30, 0xbc,
  0x0c, 0x5c, 0x26, 0x3e, 0xde, 0xe3, 0x87, 0x3d, 0x7e, 0xd7, 0x33, 0x3e,
  0xc5, 0x36, 0x2e, 0x3e, 0x5a, 0x93, 0x20, 0xbe, 0xbf, 0x29, 0x8e, 0xbe,
  0x04, 0xa0, 0x60, 0x3e, 0x8a, 0xb7, 0x16, 0x3e, 0x96, 0x62, 0x24, 0x3d,
  0xd6, 0x69, 0xd7, 0x3d, 0x59, 0xd4, 0xff, 0xbc, 0xc9, 0xe6, 0x93, 0xbd,
  0xe6, 0xeb, 0xde, 0xbd, 0x80, 0xee, 0x00, 0xbc, 0x26, 0xc7, 0xd5, 0xbc,
  0xc3, 0xa6, 0xe9, 0xbd, 0xc8, 0xe3, 0x6c, 0xbd, 0xd0, 0x4a, 0xcb, 0xbd,
  0x2e, 0xde, 0x87, 0xbe, 0x77, 0x65, 0x25, 0xbe, 0xa0, 0xd5, 0x32, 0x3d,
  0x44, 0x93, 0x05, 0x3e, 0x64, 0xd7, 0xa9, 0x3d, 0x93, 0x53, 0xf3, 0xbd,
  0xb2, 0x72, 0xa9, 0xbc, 0xf3, 0x7f, 0x86, 0xbe, 0x06, 0x23, 0x37, 0x3d,
  0x32, 0xb2, 0x26, 0xbd, 0xef, 0x3e, 0xcf, 0x3d, 0x91, 0xfa, 0xd6, 0xba,
  0xd4, 0xef, 0xca, 0x3d, 0x6c, 0x0a, 0x89, 0x3e, 0x5d, 0x12, 0xff, 0x3b,
  0x1f, 0x79, 0x34, 0x3e, 0x46, 0x6d, 0xff, 0x3d, 0xe0, 0xdd, 0xeb, 0xbd,
  0xa8, 0x09, 0xbf, 0x3d, 0x55, 0x9d, 0x88, 0xbe, 0x69, 0xfc, 0xf7, 0x3d,
  0xa2, 0x29, 0xcf, 0xbc, 0x05, 0x44, 0x23, 0x3d, 0xce, 0x9b, 0xb6, 0xbe,
  0x76, 0x0a, 0x08, 0xbd, 0x41, 0xf4, 0x73, 0x3e, 0x12, 0x03, 0xdc, 0x3d,
  0xb6, 0x5b, 0x58, 0xbe, 0x78, 0x35, 0x32, 0x3e, 0xe6, 0xb6, 0x03, 0xbe,
  0x52, 0x0b, 0x15, 0xbe, 0x69, 0x8c, 0x1f, 0x3e, 0x4a, 0x62, 0x04, 0xbe,
  0xd4, 0x63, 0x56, 0xbe, 0x88, 0xe0, 0x36, 0x3d, 0x0c, 0x9b, 0x87, 0xbd,
  0xd0, 0xc7, 0x89, 0xbd, 0xd5, 0x14, 0xf3, 0x3d, 0x65, 0x6f, 0xe3, 0x3d,
  0x14, 0x67, 0xd5, 0xbd, 0xbf, 0x53, 0x0e, 0xbd, 0xe6, 0xb1, 0x8e, 0x3e,
  0xc8, 0xf3, 0x1a, 0xbc, 0x7a, 0x63, 0x40, 0x3e, 0x0e, 0x8a, 0x86, 0x3d,
  0x9a, 0x9e, 0x58, 0x3d, 0x09, 0x8c, 0x89, 0x3d, 0xea, 0xbc, 0x67, 0x3e,
  0xa1, 0xab, 0x03, 0xbe, 0x40, 0xd4, 0xa7, 0xbd, 0xfb, 0xb1, 0x7a, 0x3e,
  0x06, 0x95, 0x23, 0x3d, 0x79, 0x2c, 0x5d, 0xbe, 0xdf, 0x6a, 0xf8, 0x3a,
  0x85, 0x53, 0xb8, 0xbc, 0x49, 0xae, 0x64, 0x3e, 0x1c, 0xe9, 0xc0, 0xbd,
  0xfb, 0x49, 0x66, 0xbd, 0xc5, 0x47, 0x62, 0x3e, 0xbc, 0xe6, 0xea, 0x3d,
  0xaf, 0x0e, 0x74, 0xbe, 0x62, 0x49, 0x45, 0xbe, 0x7c, 0xc4, 0x88, 0x3e,
  0x4f, 0xc7, 0xd2, 0xbc, 0x96, 0x33, 0xa9, 0xbe, 0x55, 0x16, 0x40, 0xbe,
  0x43, 0x4d, 0x0f, 0x3e, 0xf4, 0x0e, 0x1d, 0x3c, 0x4b, 0x69, 0x28, 0xbd,
  0x6c, 0x60, 0x7b, 0xbe, 0xf4, 0x4a, 0x0b, 0xbe, 0x18, 0x39, 0x66, 0xbe,
  0x48, 0xf0, 0x74, 0x3e, 0xd0, 0xe7, 0x35, 0x3e, 0x0f, 0xbe, 0x2f, 0xbe,
  0x3b, 0xd5, 0x02, 0xbe, 0xbe, 0x6f, 0x2b, 0x3e, 0xc7, 0xa7, 0x23, 0x3e,
  0x25, 0x4c, 0xa4, 0x3d, 0x82, 0x15, 0x85, 0xba, 0xe8, 0xa3, 0x5b, 0x3d,
  0x68, 0xb3, 0x16, 0x3e, 0xc4, 0xb1, 0x4d, 0x3c, 0xa0, 0x2d, 0xb2, 0x3d,
  0x71, 0x6b, 0xe2, 0x3c, 0x07, 0xf1, 0x92, 0x3b, 0x9d, 0xa7, 0x58, 0x3e,
  0xcf, 0x07, 0x2f, 0xbe, 0xbb, 0x0c, 0x3d, 0xbe, 0x10, 0x82, 0xe7, 0x3d,
  0x2c, 0xe8, 0x79, 0x3e, 0xd8, 0xc4, 0x3b, 0x3d, 0xdb, 0xef, 0x46, 0xbe,
  0x35, 0x17, 0xfa, 0xbd, 0x76, 0xae, 0xbc, 0xbd, 0xcd, 0xc6, 0xc5, 0xbd,
  0xd3, 0x7a, 0xa2, 0xbd, 0x67, 0xb4, 0xc4, 0x3d, 0xea, 0x5e, 0x75, 0x3e,
  0xdf, 0x65, 0x7a, 0xbe, 0xf6, 0xa8, 0x37, 0x3e, 0x36, 0x3b, 0x11, 0xbd,
  0xc8, 0x4f, 0x4f, 0xbe, 0x84, 0x67, 0x26, 0x3e, 0xd0, 0x6f, 0x0d, 0x3e,
  0xb7, 0xfb, 0xcf, 0x3d, 0x63, 0xc3, 0xc6, 0xbd, 0x93, 0x1d, 0x55, 0x3e,
  0x16, 0xa5, 0x34, 0x3e, 0x24, 0x64, 0xb9, 0x3d, 0x89, 0xd6, 0xf7, 0xbd,
  0x69, 0x7b, 0xe2, 0xbd, 0x11, 0x32, 0xc7, 0xbd, 0xab, 0xb8, 0x01, 0x3d,
  0x2c, 0x32, 0x1f, 0x3e, 0x4a, 0x1a, 0x2e, 0xbe, 0x76, 0x6b, 0x7d, 0x3e,
  0x8b, 0xbb, 0x34, 0x3d, 0x49, 0xcd, 0xd0, 0xbd, 0xcb, 0x2e, 0xee, 0xbd,
  0xd4, 0x75, 0x12, 0xbe, 0xa1, 0x6d, 0xe6, 0x3d, 0x3a, 0x26, 0x54, 0x3d,
  0x9a, 0xfe, 0xff, 0xff, 0x34, 0x00, 0x00, 0x00, 0x04, 0x00, 0x00, 0x00,
  0x08, 0x00, 0x00, 0x00, 0x34, 0x00, 0x00, 0x00, 0x1e, 0x00, 0x00, 0x00,
  0x73, 0x65, 0x71, 0x75, 0x65, 0x6e, 0x74, 0x69, 0x61, 0x6c, 0x5f, 0x35,
  0x30, 0x2f, 0x64, 0x65, 0x6e, 0x73, 0x65, 0x5f, 0x32, 0x34, 0x34, 0x2f,
  0x4d, 0x61, 0x74, 0x4d, 0x75, 0x6c, 0x00, 0x00, 0x02, 0x00, 0x00, 0x00,
  0x0a, 0x00, 0x00, 0x00, 0x40, 0x00, 0x00, 0x00, 0x98, 0xfe, 0xff, 0xff,
  0x76, 0xff, 0xff, 0xff, 0x04, 0x00, 0x00, 0x00, 0x28, 0x00, 0x00, 0x00,
  0x59, 0xda, 0x9f, 0x3d, 0x52, 0x7b, 0x1b, 0xbd, 0x1a, 0x94, 0x15, 0x3d,
  0x59, 0xf1, 0x82, 0xbd, 0x7c, 0xc2, 0x96, 0x3d, 0xb8, 0xff, 0xc7, 0xbc,
  0x57, 0x94, 0x0b, 0x3d, 0x2e, 0x89, 0x1b, 0xbd, 0xd2, 0x45, 0x8f, 0x3c,
  0x7b, 0xbd, 0xea, 0x3c, 0x16, 0xff, 0xff, 0xff, 0x44, 0x00, 0x00, 0x00,
  0x03, 0x00, 0x00, 0x00, 0x08, 0x00, 0x00, 0x00, 0x40, 0x00, 0x00, 0x00,
  0x2e, 0x00, 0x00, 0x00, 0x73, 0x65, 0x71, 0x75, 0x65, 0x6e, 0x74, 0x69,
  0x61, 0x6c, 0x5f, 0x35, 0x30, 0x2f, 0x64, 0x65, 0x6e, 0x73, 0x65, 0x5f,
  0x32, 0x34, 0x35, 0x2f, 0x42, 0x69, 0x61, 0x73, 0x41, 0x64, 0x64, 0x2f,
  0x52, 0x65, 0x61, 0x64, 0x56, 0x61, 0x72, 0x69, 0x61, 0x62, 0x6c, 0x65,
  0x4f, 0x70, 0x00, 0x00, 0x01, 0x00, 0x00, 0x00, 0x0a, 0x00, 0x00, 0x00,
  0x70, 0xff, 0xff, 0xff, 0x00, 0x00, 0x06, 0x00, 0x08, 0x00, 0x04, 0x00,
  0x06, 0x00, 0x00, 0x00, 0x04, 0x00, 0x00, 0x00, 0x28, 0x00, 0x00, 0x00,
  0x15, 0x30, 0xec, 0xbb, 0x8e, 0xa8, 0x0a, 0xbd, 0x67, 0xd2, 0xbe, 0x3c,
  0xa3, 0x94, 0x08, 0x3d, 0x64, 0xf1, 0x88, 0x3c, 0x02, 0x7c, 0x03, 0x3d,
  0x65, 0x21, 0x46, 0x3d, 0xbb, 0xfe, 0x6a, 0xbd, 0xca, 0x49, 0xfa, 0x3b,
  0xf2, 0x24, 0x98, 0x3c, 0xa6, 0xff, 0xff, 0xff, 0x44, 0x00, 0x00, 0x00,
  0x02, 0x00, 0x00, 0x00, 0x08, 0x00, 0x00, 0x00, 0x44, 0x00, 0x00, 0x00,
  0x2e, 0x00, 0x00, 0x00, 0x73, 0x65, 0x71, 0x75, 0x65, 0x6e, 0x74, 0x69,
  0x61, 0x6c, 0x5f, 0x35, 0x30, 0x2f, 0x64, 0x65, 0x6e, 0x73, 0x65, 0x5f,
  0x32, 0x34, 0x34, 0x2f, 0x42, 0x69, 0x61, 0x73, 0x41, 0x64, 0x64, 0x2f,
  0x52, 0x65, 0x61, 0x64, 0x56, 0x61, 0x72, 0x69, 0x61, 0x62, 0x6c, 0x65,
  0x4f, 0x70, 0x00, 0x00, 0x01, 0x00, 0x00, 0x00, 0x0a, 0x00, 0x00, 0x00,
  0x04, 0x00, 0x06, 0x00, 0x04, 0x00, 0x00, 0x00, 0x00, 0x00, 0x0e, 0x00,
  0x14, 0x00, 0x04, 0x00, 0x00, 0x00, 0x08, 0x00, 0x0c, 0x00, 0x10, 0x00,
  0x0e, 0x00, 0x00, 0x00, 0x24, 0x00, 0x00, 0x00, 0x01, 0x00, 0x00, 0x00,
  0x08, 0x00, 0x00, 0x00, 0x24, 0x00, 0x00, 0x00, 0x0f, 0x00, 0x00, 0x00,
  0x64, 0x65, 0x6e, 0x73, 0x65, 0x5f, 0x32, 0x34, 0x34, 0x5f, 0x69, 0x6e,
  0x70, 0x75, 0x74, 0x00, 0x02, 0x00, 0x00, 0x00, 0x01, 0x00, 0x00, 0x00,
  0x40, 0x00, 0x00, 0x00, 0xfc, 0xff, 0xff, 0xff, 0x04, 0x00, 0x04, 0x00,
  0x04, 0x00, 0x00, 0x00
};
unsigned int g_model_len = 4240;
