unsigned char g_model[] = {
  0x1c, 0x00, 0x00, 0x00, 0x54, 0x46, 0x4c, 0x33, 0x00, 0x00, 0x12, 0x00,
  0x1c, 0x00, 0x04, 0x00, 0x08, 0x00, 0x0c, 0x00, 0x10, 0x00, 0x14, 0x00,
  0x00, 0x00, 0x18, 0x00, 0x12, 0x00, 0x00, 0x00, 0x03, 0x00, 0x00, 0x00,
  0x48, 0x00, 0x00, 0x00, 0x3c, 0x00, 0x00, 0x00, 0x9c, 0x00, 0x00, 0x00,
  0x08, 0x00, 0x00, 0x00, 0x44, 0x00, 0x00, 0x00, 0x0a, 0x00, 0x00, 0x00,
  0xa0, 0x09, 0x00, 0x00, 0x9c, 0x09, 0x00, 0x00, 0xc0, 0x08, 0x00, 0x00,
  0x4c, 0x08, 0x00, 0x00, 0x44, 0x03, 0x00, 0x00, 0x9c, 0x02, 0x00, 0x00,
  0x88, 0x09, 0x00, 0x00, 0x84, 0x09, 0x00, 0x00, 0x80, 0x09, 0x00, 0x00,
  0x4c, 0x00, 0x00, 0x00, 0x01, 0x00, 0x00, 0x00, 0x84, 0x00, 0x00, 0x00,
  0x02, 0x00, 0x00, 0x00, 0x28, 0x02, 0x00, 0x00, 0x20, 0x01, 0x00, 0x00,
  0x01, 0x00, 0x00, 0x00, 0x0c, 0x00, 0x00, 0x00, 0x08, 0x00, 0x0c, 0x00,
  0x04, 0x00, 0x08, 0x00, 0x08, 0x00, 0x00, 0x00, 0x08, 0x00, 0x00, 0x00,
  0x09, 0x00, 0x00, 0x00, 0x13, 0x00, 0x00, 0x00, 0x6d, 0x69, 0x6e, 0x5f,
  0x72, 0x75, 0x6e, 0x74, 0x69, 0x6d, 0x65, 0x5f, 0x76, 0x65, 0x72, 0x73,
  0x69, 0x6f, 0x6e, 0x00, 0xae, 0xf7, 0xff, 0xff, 0x04, 0x00, 0x00, 0x00,
  0x10, 0x00, 0x00, 0x00, 0x31, 0x2e, 0x35, 0x2e, 0x30, 0x00, 0x00, 0x00,
  0x00, 0x00, 0x00, 0x00, 0x00, 0x00, 0x00, 0x00, 0x0f, 0x00, 0x00, 0x00,
  0x4d, 0x4c, 0x49, 0x52, 0x20, 0x43, 0x6f, 0x6e, 0x76, 0x65, 0x72, 0x74,
  0x65, 0x64, 0x2e, 0x00, 0x00, 0x00, 0x0e, 0x00, 0x18, 0x00, 0x04, 0x00,
  0x08, 0x00, 0x0c, 0x00, 0x10, 0x00, 0x14, 0x00, 0x0e, 0x00, 0x00, 0x00,
  0x40, 0x00, 0x00, 0x00, 0x34, 0x00, 0x00, 0x00, 0x28, 0x00, 0x00, 0x00,
  0x14, 0x00, 0x00, 0x00, 0x04, 0x00, 0x00, 0x00, 0x04, 0x00, 0x00, 0x00,
  0x6d, 0x61, 0x69, 0x6e, 0x00, 0x00, 0x00, 0x00, 0x03, 0x00, 0x00, 0x00,
  0x48, 0x01, 0x00, 0x00, 0xbc, 0x00, 0x00, 0x00, 0x48, 0x00, 0x00, 0x00,
  0x01, 0x00, 0x00, 0x00, 0x07, 0x00, 0x00, 0x00, 0x01, 0x00, 0x00, 0x00,
  0x00, 0x00, 0x00, 0x00, 0x08, 0x00, 0x00, 0x00, 0x6c, 0x08, 0x00, 0x00,
  0x00, 0x08, 0x00, 0x00, 0x6c, 0x07, 0x00, 0x00, 0x0c, 0x07, 0x00, 0x00,
  0x04, 0x02, 0x00, 0x00, 0x5c, 0x01, 0x00, 0x00, 0xb8, 0x00, 0x00, 0x00,
  0x50, 0x00, 0x00, 0x00, 0x00, 0x00, 0x0e, 0x00, 0x18, 0x00, 0x08, 0x00,
  0x0c, 0x00, 0x10, 0x00, 0x07, 0x00, 0x14, 0x00, 0x0e, 0x00, 0x00, 0x00,
  0x00, 0x00, 0x00, 0x09, 0x01, 0x00, 0x00, 0x00, 0x1c, 0x00, 0x00, 0x00,
  0x10, 0x00, 0x00, 0x00, 0x04, 0x00, 0x00, 0x00, 0x7e, 0xf8, 0xff, 0xff,
  0x00, 0x00, 0x80, 0x3f, 0x01, 0x00, 0x00, 0x00, 0x07, 0x00, 0x00, 0x00,
  0x01, 0x00, 0x00, 0x00, 0x06, 0x00, 0x00, 0x00, 0x06, 0xff, 0xff, 0xff,
  0x00, 0x00, 0x00, 0x19, 0x01, 0x00, 0x00, 0x00, 0x0e, 0xf8, 0xff, 0xff,
  0x20, 0x00, 0x00, 0x00, 0x08, 0x00, 0x00, 0x00, 0x08, 0x00, 0x00, 0x00,
  0x20, 0x00, 0x00, 0x00, 0x08, 0x00, 0x00, 0x00, 0x49, 0x64, 0x65, 0x6e,
  0x74, 0x69, 0x74, 0x79, 0x00, 0x00, 0x00, 0x00, 0x02, 0x00, 0x00, 0x00,
  0x01, 0x00, 0x00, 0x00, 0x02, 0x00, 0x00, 0x00, 0xf8, 0xf7, 0xff, 0xff,
  0x86, 0xff, 0xff, 0xff, 0x00, 0x00, 0x00, 0x08, 0x18, 0x00, 0x00, 0x00,
  0x0c, 0x00, 0x00, 0x00, 0x04, 0x00, 0x00, 0x00, 0x10, 0xf8, 0xff, 0xff,
  0x01, 0x00, 0x00, 0x00, 0x06, 0x00, 0x00, 0x00, 0x03, 0x00, 0x00, 0x00,
  0x05, 0x00, 0x00, 0x00, 0x04, 0x00, 0x00, 0x00, 0x02, 0x00, 0x00, 0x00,
  0x72, 0xf8, 0xff, 0xff, 0x34, 0x00, 0x00, 0x00, 0x07, 0x00, 0x00, 0x00,
  0x08, 0x00, 0x00, 0x00, 0x34, 0x00, 0x00, 0x00, 0x1f, 0x00, 0x00, 0x00,
  0x73, 0x65, 0x71, 0x75, 0x65, 0x6e, 0x74, 0x69, 0x61, 0x6c, 0x5f, 0x34,
  0x39, 0x2f, 0x64, 0x65, 0x6e, 0x73, 0x65, 0x5f, 0x32, 0x34, 0x33, 0x2f,
  0x42, 0x69, 0x61, 0x73, 0x41, 0x64, 0x64, 0x00, 0x02, 0x00, 0x00, 0x00,
  0x01, 0x00, 0x00, 0x00, 0x02, 0x00, 0x00, 0x00, 0xc0, 0xf8, 0xff, 0xff,
  0x00, 0x00, 0x0e, 0x00, 0x14, 0x00, 0x00, 0x00, 0x08, 0x00, 0x0c, 0x00,
  0x07, 0x00, 0x10, 0x00, 0x0e, 0x00, 0x00, 0x00, 0x00, 0x00, 0x00, 0x08,
  0x18, 0x00, 0x00, 0x00, 0x0c, 0x00, 0x00, 0x00, 0x04, 0x00, 0x00, 0x00,
  0x98, 0xf8, 0xff, 0xff, 0x01, 0x00, 0x00, 0x00, 0x05, 0x00, 0x00, 0x00,
  0x03, 0x00, 0x00, 0x00, 0x00, 0x00, 0x00, 0x00, 0x03, 0x00, 0x00, 0x00,
  0x01, 0x00, 0x00, 0x00, 0x00, 0x00, 0x0a, 0x00, 0x0c, 0x00, 0x07, 0x00,
  0x00, 0x00, 0x08, 0x00, 0x0a, 0x00, 0x00, 0x00, 0x00, 0x00, 0x00, 0x09,
  0x01, 0x00, 0x00, 0x00, 0x12, 0xf9, 0xff, 0xff, 0x34, 0x00, 0x00, 0x00,
  0x06, 0x00, 0x00, 0x00, 0x08, 0x00, 0x00, 0x00, 0x34, 0x00, 0x00, 0x00,
  0x1f, 0x00, 0x00, 0x00, 0x73, 0x65, 0x71, 0x75, 0x65, 0x6e, 0x74, 0x69,
  0x61, 0x6c, 0x5f, 0x34, 0x39, 0x2f, 0x64, 0x65, 0x6e, 0x73, 0x65, 0x5f,
  0x32, 0x34, 0x32, 0x2f, 0x42, 0x69, 0x61, 0x73, 0x41, 0x64, 0x64, 0x00,
  0x02, 0x00, 0x00, 0x00, 0x01, 0x00, 0x00, 0x00, 0x0a, 0x00, 0x00, 0x00,
  0x10, 0xf9, 0xff, 0xff, 0xee, 0xf9, 0xff, 0xff, 0x04, 0x00, 0x00, 0x00,
  0x50, 0x00, 0x00, 0x00, 0xcf, 0x10, 0x93, 0xbe, 0x59, 0x65, 0x86, 0x3e,
  0x04, 0x6d, 0x26, 0xbf, 0x7e, 0x3b, 0x8c, 0xbd, 0x94, 0x05, 0x23, 0xbf,
  0xe3, 0xd9, 0xfb, 0x3d, 0x6c, 0x1a, 0xd4, 0xbe, 0xaa, 0x81, 0x10, 0xbf,
  0xa1, 0x98, 0xf6, 0x3e, 0xec, 0x31, 0x9e, 0xbe, 0x0f, 0x81, 0x8e, 0xbe,
  0xa3, 0x54, 0x1f, 0xbf, 0x58, 0x50, 0x0b, 0x3e, 0x1a, 0x94, 0xae, 0xbe,
  0xb2, 0x7e, 0xa8, 0x3e, 0xcd, 0x91, 0x5a, 0xbe, 0xcf, 0x47, 0x87, 0xbe,
  0x5c, 0xa3, 0x72, 0x3d, 0x0b, 0xd2, 0xc0, 0x3e, 0xd4, 0xa1, 0x13, 0x3f,
  0xb6, 0xf9, 0xff, 0xff, 0x34, 0x00, 0x00, 0x00, 0x05, 0x00, 0x00, 0x00,
  0x08, 0x00, 0x00, 0x00, 0x34, 0x00, 0x00, 0x00, 0x1e, 0x00, 0x00, 0x00,
  0x73, 0x65, 0x71, 0x75, 0x65, 0x6e, 0x74, 0x69, 0x61, 0x6c, 0x5f, 0x34,
  0x39, 0x2f, 0x64, 0x65, 0x6e, 0x73, 0x65, 0x5f, 0x32, 0x34, 0x33, 0x2f,
  0x4d, 0x61, 0x74, 0x4d, 0x75, 0x6c, 0x00, 0x00, 0x02, 0x00, 0x00, 0x00,
  0x02, 0x00, 0x00, 0x00, 0x0a, 0x00, 0x00, 0x00, 0xb4, 0xf9, 0xff, 0xff,
  0x92, 0xfa, 0xff, 0xff, 0x04, 0x00, 0x00, 0x00, 0xb0, 0x04, 0x00, 0x00,
  0x07, 0x7c, 0x7c, 0xbe, 0xb8, 0x5e, 0x8d, 0x3e, 0x73, 0x45, 0xb7, 0x3e,
  0x18, 0x62, 0xb6, 0x3e, 0x50, 0x62, 0xa7, 0xbe, 0x36, 0x06, 0xdd, 0xbc,
  0xe5, 0x6b, 0xff, 0xbd, 0x92, 0xc3, 0x37, 0x3e, 0x91, 0x31, 0xb8, 0x3e,
  0x11, 0xec, 0xbc, 0xbe, 0xb3, 0xfc, 0x2a, 0xbe, 0x82, 0x85, 0x86, 0x3e,
  0x37, 0xd0, 0xb8, 0xbd, 0xcb, 0x68, 0x81, 0xbe, 0xc0, 0xb5, 0x43, 0x3e,
  0x98, 0xc1, 0x04, 0x3d, 0xaa, 0x99, 0x88, 0x3e, 0x71, 0x38, 0x00, 0xbe,
  0x0b, 0xe1, 0x2f, 0xbe, 0x4f, 0xf1, 0x54, 0x3e, 0x47, 0x1d, 0x9a, 0xbd,
  0x57, 0x8b, 0x87, 0x3e, 0x78, 0xc2, 0x46, 0xbd, 0xc0, 0xf8, 0xe4, 0xbb,
  0x3a, 0xfe, 0xa8, 0xbd, 0x39, 0xaf, 0x9b, 0xbe, 0x29, 0x93, 0x8f, 0x3e,
  0x2b, 0xce, 0xb9, 0x3e, 0x76, 0x38, 0x8b, 0xbd, 0xc0, 0xbc, 0xc6, 0x3e,
  0x38, 0xe0, 0x0a, 0xbe, 0x45, 0x7c, 0x8c, 0x3e, 0x3a, 0xf9, 0x72, 0xbe,
  0x2e, 0x0e, 0x11, 0xbd, 0x48, 0xb9, 0x3c, 0xbd, 0xb3, 0x4b, 0x9c, 0x3d,
  0x2e, 0x72, 0x71, 0x3e, 0x0f, 0x9f, 0xd6, 0xbd, 0xf9, 0xe4, 0x82, 0x3e,
  0x0c, 0xf1, 0x93, 0x3d, 0x82, 0xb0, 0x3e, 0xbd, 0x4d, 0x6b, 0x8b, 0xbe,
  0xcf, 0x50, 0x6a, 0x3e, 0xff, 0xb8, 0x27, 0xbc, 0xa0, 0xce, 0x03, 0xbd,
  0x21, 0x35, 0x12, 0xbe, 0xcd, 0x72, 0x4f, 0x3d, 0x23, 0x6b, 0x99, 0x3d,
  0xfb, 0x19, 0xc7, 0x3e, 0x6c, 0x6d, 0xa6, 0xbd, 0xa4, 0xed, 0x7f, 0xbe,
  0xfa, 0x17, 0x04, 0x3e, 0xdb, 0x25, 0x90, 0x3d, 0xb0, 0xba, 0x4d, 0xbb,
  0x65, 0xf0, 0x49, 0xbe, 0x94, 0x58, 0x99, 0x3d, 0x1b, 0xff, 0xb0, 0x3e,
  0x0f, 0x56, 0x39, 0xbe, 0x23, 0x52, 0xd3, 0x3d, 0xe1, 0x99, 0xc6, 0x3c,
  0x5a, 0x2f, 0xa3, 0xbe, 0x04, 0x4e, 0xb6, 0x3e, 0x27, 0xb5, 0x97, 0x3e,
  0x62, 0xd0, 0x3f, 0xbe, 0x01, 0x8a, 0xa6, 0xbe, 0x22, 0x80, 0xf2, 0x3d,
  0x47, 0xd8, 0x89, 0xbd, 0xaf, 0x2e, 0x4c, 0xbd, 0x86, 0x44, 0x9f, 0xbe,
  0x7a, 0xf3, 0x53, 0x3e, 0x89, 0xa6, 0x2f, 0x3e, 0x58, 0xce, 0xe0, 0x3d,
  0x22, 0x96, 0x07, 0x3e, 0x54, 0xa2, 0xab, 0x3e, 0x66, 0xba, 0x3b, 0xbd,
  0x2e, 0xd4, 0x01, 0x3e, 0x71, 0x17, 0x4a, 0x3e, 0xf4, 0xdf, 0x9e, 0x3d,
  0x8a, 0x90, 0xaa, 0x3e, 0xb4, 0x3e, 0xc2, 0xbd, 0x8c, 0x0b, 0xe5, 0x3c,
  0x1a, 0x26, 0x60, 0xbe, 0x08, 0x45, 0xc5, 0x3c, 0x3e, 0x8b, 0x58, 0xbe,
  0x38, 0xe0, 0xed, 0x3d, 0xa0, 0x12, 0x1e, 0x3e, 0x54, 0x5d, 0xba, 0xbd,
  0xd2, 0x13, 0x63, 0xbe, 0xa7, 0x49, 0x04, 0x3d, 0xbe, 0x55, 0x98, 0x3e,
  0x57, 0x97, 0xbf, 0x3e, 0xe8, 0x49, 0xbe, 0x3e, 0xb4, 0x4e, 0x86, 0x3e,
  0x83, 0x91, 0xef, 0x3d, 0xce, 0x78, 0xb5, 0x3e, 0x9a, 0x61, 0x57, 0x3e,
  0x38, 0x7c, 0x87, 0xbe, 0xa2, 0x6b, 0xc0, 0x3e, 0xb3, 0x71, 0x35, 0xbc,
  0xa1, 0x69, 0xa4, 0x3d, 0x8e, 0x9b, 0x34, 0x3e, 0xe1, 0xb4, 0xaa, 0x3e,
  0xe4, 0x08, 0x95, 0xbe, 0x31, 0xce, 0x7d, 0xbe, 0x35, 0xd0, 0x0c, 0xbd,
  0x23, 0x9c, 0xf8, 0xbc, 0x1a, 0x19, 0x54, 0x3c, 0x70, 0x4b, 0x4b, 0x3e,
  0xe4, 0x2c, 0x22, 0xbe, 0x78, 0xd3, 0x0d, 0x3e, 0xe1, 0x37, 0x0d, 0xbe,
  0x46, 0xfc, 0xa9, 0x3e, 0xcc, 0x17, 0x0a, 0xbe, 0x34, 0xed, 0xc9, 0xbd,
  0xeb, 0x85, 0xa0, 0xbd, 0x0b, 0xf1, 0xc5, 0x3e, 0xeb, 0xa8, 0x87, 0xbb,
  0xa3, 0x17, 0x3f, 0xbe, 0x97, 0x1b, 0x4e, 0xbe, 0x7c, 0xfe, 0x5c, 0xbd,
  0x71, 0x8c, 0x2c, 0xbe, 0x05, 0xc1, 0x8d, 0x3e, 0xdd, 0x63, 0x27, 0xbe,
  0x35, 0x1c, 0xe9, 0x3d, 0x4d, 0xc1, 0x8d, 0x3e, 0xe8, 0xb6, 0x20, 0x3b,
  0x3b, 0x35, 0x7b, 0x3e, 0xa8, 0x9d, 0xc0, 0xbd, 0x87, 0xdc, 0xa9, 0xbd,
  0xa7, 0x19, 0xa5, 0x3e, 0xdc, 0x6f, 0x82, 0x3e, 0xe3, 0x50, 0x7c, 0x3c,
  0xe1, 0x3f, 0x8d, 0xbe, 0x75, 0x44, 0xae, 0x3e, 0x36, 0x21, 0x05, 0x3e,
  0xf1, 0x68, 0xbe, 0xbe, 0x24, 0xf9, 0xa8, 0x3e, 0xb4, 0x58, 0xa1, 0x3e,
  0x54, 0x49, 0xfe, 0x3d, 0x92, 0x1f, 0xe5, 0xbd, 0x00, 0x4e, 0xda, 0x3c,
  0x07, 0xac, 0x5f, 0x3e, 0x38, 0x6f, 0x4f, 0xbd, 0x95, 0x70, 0x86, 0xbe,
  0xe6, 0x46, 0xf5, 0x3c, 0xde, 0x66, 0x56, 0x3d, 0xb6, 0xaa, 0xab, 0xbe,
  0x66, 0xdd, 0xce, 0xbc, 0xd3, 0x39, 0xd7, 0xbd, 0x82, 0x64, 0x6b, 0xbe,
  0xff, 0x74, 0x5f, 0x3e, 0xc6, 0xbb, 0x1f, 0xbe, 0x22, 0x55, 0x84, 0xbe,
  0x15, 0x5b, 0xb9, 0xbe, 0x0c, 0x93, 0x9d, 0xbc, 0x8d, 0x6c, 0xd5, 0xbd,
  0x07, 0x36, 0xcf, 0x3e, 0x81, 0xfc, 0x80, 0x3a, 0x0a, 0x61, 0x61, 0xbd,
  0x08, 0x5b, 0xd8, 0xbd, 0x98, 0x00, 0x96, 0xbd, 0x8e, 0x9d, 0x80, 0xbe,
  0x92, 0x03, 0xd3, 0x3d, 0x4b, 0xa0, 0x3a, 0x3b, 0x3d, 0xee, 0xa5, 0x3e,
  0x11, 0x68, 0xbc, 0x3e, 0xcf, 0xa0, 0x9d, 0x3e, 0x14, 0x27, 0xc7, 0x3e,
  0x83, 0xb4, 0x88, 0x3d, 0xbe, 0xcf, 0xb5, 0xbd, 0x70, 0x04, 0xc3, 0xbe,
  0x01, 0xe1, 0xb1, 0xbe, 0x66, 0x4c, 0x30, 0x3e, 0xcd, 0x6b, 0x13, 0x3e,
  0xc2, 0xda, 0xc1, 0x3c, 0x9e, 0xc3, 0x5e, 0x3e, 0x00, 0x69, 0xb7, 0x3e,
  0x88, 0x10, 0xed, 0x3d, 0x24, 0x01, 0x05, 0x3e, 0x94, 0x4b, 0xa2, 0xbe,
  0xf3, 0x58, 0x92, 0x3e, 0x7b, 0x3b, 0xab, 0x3e, 0xce, 0x13, 0x7f, 0xbe,
  0x6f, 0x9a, 0xb3, 0x3e, 0x68, 0x93, 0xe5, 0x3d, 0x25, 0x3d, 0xb8, 0x3d,
  0xaf, 0xb4, 0xc1, 0xbe, 0x9e, 0x4c, 0xdb, 0xbe, 0x3b, 0x38, 0x55, 0x3e,
  0x6f, 0x27, 0x3f, 0x3e, 0xe5, 0xb0, 0x7a, 0xbe, 0x49, 0x59, 0xec, 0xbd,
  0x41, 0x6f, 0x7a, 0xbe, 0x5c, 0x67, 0x2b, 0x3e, 0x92, 0xce, 0x0b, 0xbe,
  0x63, 0x50, 0x4a, 0xbe, 0x39, 0x09, 0x10, 0xbe, 0xc7, 0xe7, 0xd6, 0xbd,
  0x6f, 0xbb, 0x03, 0x3e, 0x6d, 0x9f, 0x9c, 0xbe, 0x6d, 0x3d, 0x17, 0x3e,
  0x11, 0x55, 0x3e, 0xbe, 0xe1, 0x7a, 0x4d, 0xbe, 0x10, 0x20, 0x9d, 0xbe,
  0xbb, 0x15, 0x80, 0xbe, 0x23, 0x57, 0xa2, 0x3e, 0xa5, 0x32, 0x6f, 0x3e,
  0xaf, 0x13, 0xd4, 0x3d, 0x4e, 0x75, 0x91, 0x3e, 0xea, 0x58, 0x95, 0xbe,
  0xc0, 0x53, 0xb5, 0x3e, 0x35, 0x3a, 0xb1, 0xbe, 0xe2, 0x05, 0xbf, 0xbe,
  0x60, 0x90, 0x27, 0x3e, 0x46, 0xa4, 0xb5, 0x3e, 0x9d, 0x9b, 0x76, 0xbe,
  0x6c, 0xc8, 0x8a, 0x3e, 0x41, 0x4e, 0xbd, 0xbe, 0xc3, 0xa6, 0x7d, 0x3e,
  0xe0, 0x4e, 0x39, 0x3d, 0x30, 0xf6, 0x4c, 0x3e, 0x86, 0x80, 0xb8, 0x3e,
  0xbf, 0x35, 0xa4, 0x3d, 0xb8, 0xbb, 0x28, 0xbd, 0xd8, 0x4e, 0x83, 0x3d,
  0xec, 0xc9, 0x50, 0x3e, 0xc7, 0xb1, 0x4c, 0x3e, 0x37, 0xf3, 0x8e, 0x3e,
  0xca, 0xd4, 0x28, 0x3b, 0xd6, 0x61, 0xaf, 0x3e, 0xcc, 0xca, 0x74, 0x3d,
  0x79, 0x41, 0xb9, 0xbe, 0xa3, 0xb4, 0xab, 0x3e, 0x7e, 0x59, 0x94, 0x3e,
  0x00, 0x33, 0xae, 0xbd, 0x05, 0x80, 0x50, 0xbe, 0x41, 0x8c, 0x8b, 0xbe,
  0x6f, 0xa5, 0xb4, 0x3e, 0xc6, 0x69, 0xd3, 0xbd, 0xdf, 0x48, 0x93, 0x3e,
  0xea, 0xc1, 0x7e, 0x3e, 0xd2, 0xea, 0xda, 0xbd, 0xa9, 0xe0, 0x90, 0x3e,
  0x49, 0xe1, 0x24, 0xbe, 0xf7, 0x5f, 0xa1, 0x3e, 0xcb, 0xc7, 0x9d, 0xbe,
  0xf5, 0xa7, 0x11, 0x3e, 0x19, 0x29, 0x50, 0x3e, 0xe3, 0xab, 0x9d, 0x3a,
  0xcf, 0x95, 0x3b, 0xbe, 0x1f, 0xd0, 0x9b, 0xbe, 0xe6, 0x19, 0x17, 0xbd,
  0xaa, 0x63, 0x15, 0xbc, 0xce, 0x5c, 0xbb, 0xbc, 0x6d, 0xe8, 0xb9, 0x3e,
  0x64, 0x2b, 0x32, 0xbe, 0x00, 0xdd, 0x8c, 0xbe, 0xff, 0x1f, 0xd6, 0x3e,
  0x51, 0x40, 0x1a, 0xbe, 0xa8, 0x1a, 0xfb, 0x3c, 0x91, 0xce, 0x16, 0x3c,
  0x1a, 0x41, 0xd5, 0x3d, 0x2a, 0x5f, 0x54, 0xbe, 0x49, 0x01, 0xbf, 0xbe,
  0x8d, 0x70, 0xc5, 0xbe, 0xed, 0xb5, 0xa7, 0xbd, 0x90, 0xe9, 0x51, 0xbe,
  0xe4, 0x41, 0x92, 0xbe, 0x35, 0xff, 0x5f, 0x3e, 0x4e, 0x79, 0xfd, 0xbc,
  0x69, 0xae, 0xb8, 0x3e, 0x03, 0x77, 0x92, 0x3e, 0x25, 0x14, 0xaf, 0x3e,
  0xe1, 0x72, 0x94, 0x3d, 0x23, 0x9a, 0xa0, 0xbe, 0xe7, 0xde, 0x6f, 0x3e,
  0xdb, 0x02, 0x7f, 0x3c, 0x44, 0x35, 0x40, 0xbe, 0xe0, 0xaa, 0x61, 0xbd,
  0x9f, 0xe0, 0x46, 0x3e, 0x3c, 0x33, 0xc8, 0xbe, 0xbd, 0x61, 0x92, 0xbe,
  0xaf, 0x82, 0xaa, 0xbe, 0x6e, 0x05, 0x2e, 0xbe, 0xf8, 0x9e, 0x75, 0xbe,
  0x89, 0x2b, 0x9c, 0x3e, 0xe2, 0xe4, 0x03, 0x3e, 0x2e, 0xf8, 0x4a, 0xbd,
  0xf4, 0x72, 0xe3, 0x3d, 0x6a, 0x6f, 0x21, 0xbe, 0x1e, 0xe4, 0x9c, 0x3e,
  0x3b, 0x22, 0xae, 0x3e, 0x22, 0x14, 0xb0, 0x3e, 0xe2, 0x26, 0x09, 0xbe,
  0x68, 0x7c, 0x85, 0x3e, 0x8b, 0x27, 0x7c, 0xbe, 0xcd, 0x24, 0x9e, 0x3e,
  0x16, 0x76, 0x2d, 0x3e, 0xc0, 0x90, 0x51, 0xbe, 0x93, 0xcb, 0xd8, 0x3d,
  0xba, 0xfe, 0xff, 0xff, 0x34, 0x00, 0x00, 0x00, 0x04, 0x00, 0x00, 0x00,
  0x08, 0x00, 0x00, 0x00, 0x34, 0x00, 0x00, 0x00, 0x1e, 0x00, 0x00, 0x00,
  0x73, 0x65, 0x71, 0x75, 0x65, 0x6e, 0x74, 0x69, 0x61, 0x6c, 0x5f, 0x34,
  0x39, 0x2f, 0x64, 0x65, 0x6e, 0x73, 0x65, 0x5f, 0x32, 0x34, 0x32, 0x2f,
  0x4d, 0x61, 0x74, 0x4d, 0x75, 0x6c, 0x00, 0x00, 0x02, 0x00, 0x00, 0x00,
  0x0a, 0x00, 0x00, 0x00, 0x1e, 0x00, 0x00, 0x00, 0xb8, 0xfe, 0xff, 0xff,
  0x96, 0xff, 0xff, 0xff, 0x04, 0x00, 0x00, 0x00, 0x08, 0x00, 0x00, 0x00,
  0x2e, 0x3a, 0xd1, 0xbc, 0x2e, 0x3a, 0xd1, 0x3c, 0x16, 0xff, 0xff, 0xff,
  0x44, 0x00, 0x00, 0x00, 0x03, 0x00, 0x00, 0x00, 0x08, 0x00, 0x00, 0x00,
  0x40, 0x00, 0x00, 0x00, 0x2e, 0x00, 0x00, 0x00, 0x73, 0x65, 0x71, 0x75,
  0x65, 0x6e, 0x74, 0x69, 0x61, 0x6c, 0x5f, 0x34, 0x39, 0x2f, 0x64, 0x65,
  0x6e, 0x73, 0x65, 0x5f, 0x32, 0x34, 0x33, 0x2f, 0x42, 0x69, 0x61, 0x73,
  0x41, 0x64, 0x64, 0x2f, 0x52, 0x65, 0x61, 0x64, 0x56, 0x61, 0x72, 0x69,
  0x61, 0x62, 0x6c, 0x65, 0x4f, 0x70, 0x00, 0x00, 0x01, 0x00, 0x00, 0x00,
  0x02, 0x00, 0x00, 0x00, 0x70, 0xff, 0xff, 0xff, 0x00, 0x00, 0x06, 0x00,
  0x08, 0x00, 0x04, 0x00, 0x06, 0x00, 0x00, 0x00, 0x04, 0x00, 0x00, 0x00,
  0x28, 0x00, 0x00, 0x00, 0x38, 0x3e, 0x83, 0x3c, 0x7f, 0x22, 0xd0, 0xbc,
  0x5c, 0x16, 0xd2, 0x3c, 0x74, 0x4e, 0xd1, 0xbc, 0xa2, 0x17, 0xd1, 0x3c,
  0x66, 0xfd, 0xcc, 0xbc, 0xdf, 0x40, 0xc2, 0x3c, 0xdc, 0x05, 0xd0, 0x3c,
  0xc8, 0x26, 0xca, 0xbc, 0x84, 0xb0, 0xd2, 0x3c, 0xa6, 0xff, 0xff, 0xff,
  0x44, 0x00, 0x00, 0x00, 0x02, 0x00, 0x00, 0x00, 0x08, 0x00, 0x00, 0x00,
  0x44, 0x00, 0x00, 0x00, 0x2e, 0x00, 0x00, 0x00, 0x73, 0x65, 0x71, 0x75,
  0x65, 0x6e, 0x74, 0x69, 0x61, 0x6c, 0x5f, 0x34, 0x39, 0x2f, 0x64, 0x65,
  0x6e, 0x73, 0x65, 0x5f, 0x32, 0x34, 0x32, 0x2f, 0x42, 0x69, 0x61, 0x73,
  0x41, 0x64, 0x64, 0x2f, 0x52, 0x65, 0x61, 0x64, 0x56, 0x61, 0x72, 0x69,
  0x61, 0x62, 0x6c, 0x65, 0x4f, 0x70, 0x00, 0x00, 0x01, 0x00, 0x00, 0x00,
  0x0a, 0x00, 0x00, 0x00, 0x04, 0x00, 0x06, 0x00, 0x04, 0x00, 0x00, 0x00,
  0x00, 0x00, 0x0e, 0x00, 0x14, 0x00, 0x04, 0x00, 0x00, 0x00, 0x08, 0x00,
  0x0c, 0x00, 0x10, 0x00, 0x0e, 0x00, 0x00, 0x00, 0x24, 0x00, 0x00, 0x00,
  0x01, 0x00, 0x00, 0x00, 0x08, 0x00, 0x00, 0x00, 0x24, 0x00, 0x00, 0x00,
  0x0f, 0x00, 0x00, 0x00, 0x64, 0x65, 0x6e, 0x73, 0x65, 0x5f, 0x32, 0x34,
  0x32, 0x5f, 0x69, 0x6e, 0x70, 0x75, 0x74, 0x00, 0x02, 0x00, 0x00, 0x00,
  0x01, 0x00, 0x00, 0x00, 0x1e, 0x00, 0x00, 0x00, 0xfc, 0xff, 0xff, 0xff,
  0x04, 0x00, 0x04, 0x00, 0x04, 0x00, 0x00, 0x00
};
unsigned int g_model_len = 2528;
